{
  "0": "\0",
  "1": "\u{1}",
  "2": "\u{2}",
  "3": "\u{3}",
  "4": "\u{4}",
  "5": "\u{5}",
  "6": "\u{6}",
  "7": "\u{7}",
  "8": "\u{8}",
  "9": "\t",
  "10": "\n",
  "11": "\u{b}",
  "12": "\u{c}",
  "13": "\r",
  "14": "\u{e}",
  "15": "\u{f}",
  "16": "\u{10}",
  "17": "\u{11}",
  "18": "\u{12}",
  "19": "\u{13}",
  "20": "\u{14}",
  "21": "\u{15}",
  "22": "\u{16}",
  "23": "\u{17}",
  "24": "\u{18}",
  "25": "\u{19}",
  "26": "\u{1a}",
  "27": "\u{1b}",
  "28": "\u{1c}",
  "29": "\u{1d}",
  "30": "\u{1e}",
  "31": "\u{1f}",
  "32": " ",
  "33": "!",
  "34": "\"",
  "35": "#",
  "36": "$",
  "37": "%",
  "38": "&",
  "39": "\'",
  "40": "(",
  "41": ")",
  "42": "*",
  "43": "+",
  "44": ",",
  "45": "-",
  "46": ".",
  "47": "/",
  "48": "0",
  "49": "1",
  "50": "2",
  "51": "3",
  "52": "4",
  "53": "5",
  "54": "6",
  "55": "7",
  "56": "8",
  "57": "9",
  "58": ":",
  "59": ";",
  "60": "<",
  "61": "=",
  "62": ">",
  "63": "?",
  "64": "@",
  "65": "A",
  "66": "B",
  "67": "C",
  "68": "D",
  "69": "E",
  "70": "F",
  "71": "G",
  "72": "H",
  "73": "I",
  "74": "J",
  "75": "K",
  "76": "L",
  "77": "M",
  "78": "N",
  "79": "O",
  "80": "P",
  "81": "Q",
  "82": "R",
  "83": "S",
  "84": "T",
  "85": "U",
  "86": "V",
  "87": "W",
  "88": "X",
  "89": "Y",
  "90": "Z",
  "91": "[",
  "92": "\\",
  "93": "]",
  "94": "^",
  "95": "_",
  "96": "`",
  "97": "a",
  "98": "b",
  "99": "c",
  "100": "d",
  "101": "e",
  "102": "f",
  "103": "g",
  "104": "h",
  "105": "i",
  "106": "j",
  "107": "k",
  "108": "l",
  "109": "m",
  "110": "n",
  "111": "o",
  "112": "p",
  "113": "q",
  "114": "r",
  "115": "s",
  "116": "t",
  "117": "u",
  "118": "v",
  "119": "w",
  "120": "x",
  "121": "y",
  "122": "z",
  "123": "{",
  "124": "|",
  "125": "}",
  "126": "~",
  "127": "\u{7f}",
  "128": "�",
  "129": "�",
  "130": "�",
  "131": "�",
  "132": "�",
  "133": "�",
  "134": "�",
  "135": "�",
  "136": "�",
  "137": "�",
  "138": "�",
  "139": "�",
  "140": "�",
  "141": "�",
  "142": "�",
  "143": "�",
  "144": "�",
  "145": "�",
  "146": "�",
  "147": "�",
  "148": "�",
  "149": "�",
  "150": "�",
  "151": "�",
  "152": "�",
  "153": "�",
  "154": "�",
  "155": "�",
  "156": "�",
  "157": "�",
  "158": "�",
  "159": "�",
  "160": "�",
  "161": "�",
  "162": "�",
  "163": "�",
  "164": "�",
  "165": "�",
  "166": "�",
  "167": "�",
  "168": "�",
  "169": "�",
  "170": "�",
  "171": "�",
  "172": "�",
  "173": "�",
  "174": "�",
  "175": "�",
  "176": "�",
  "177": "�",
  "178": "�",
  "179": "�",
  "180": "�",
  "181": "�",
  "182": "�",
  "183": "�",
  "184": "�",
  "185": "�",
  "186": "�",
  "187": "�",
  "188": "�",
  "189": "�",
  "190": "�",
  "191": "�",
  "192": "�",
  "193": "�",
  "194": "�",
  "195": "�",
  "196": "�",
  "197": "�",
  "198": "�",
  "199": "�",
  "200": "�",
  "201": "�",
  "202": "�",
  "203": "�",
  "204": "�",
  "205": "�",
  "206": "�",
  "207": "�",
  "208": "�",
  "209": "�",
  "210": "�",
  "211": "�",
  "212": "�",
  "213": "�",
  "214": "�",
  "215": "�",
  "216": "�",
  "217": "�",
  "218": "�",
  "219": "�",
  "220": "�",
  "221": "�",
  "222": "�",
  "223": "�",
  "224": "�",
  "225": "�",
  "226": "�",
  "227": "�",
  "228": "�",
  "229": "�",
  "230": "�",
  "231": "�",
  "232": "�",
  "233": "�",
  "234": "�",
  "235": "�",
  "236": "�",
  "237": "�",
  "238": "�",
  "239": "�",
  "240": "�",
  "241": "�",
  "242": "�",
  "243": "�",
  "244": "�",
  "245": "�",
  "246": "�",
  "247": "�",
  "248": "�",
  "249": "�",
  "250": "�",
  "251": "�",
  "252": "�",
  "253": "�",
  "254": "�",
  "255": "�",
  "256": "<|endoftext|>",
  "257": " t",
  "258": " a",
  "259": "he",
  "260": "in",
  "261": "re",
  "262": " the",
  "263": "on",
  "264": "er",
  "265": " s",
  "266": " w",
  "267": "at",
  "268": " o",
  "269": "en",
  "270": " c",
  "271": "it",
  "272": "is",
  "273": "an",
  "274": "or",
  "275": " b",
  "276": "es",
  "277": "ed",
  "278": " f",
  "279": "ing",
  "280": " p",
  "281": "ou",
  "282": " an",
  "283": "al",
  "284": " to",
  "285": "ar",
  "286": " m",
  "287": " in",
  "288": " of",
  "289": " h",
  "290": " d",
  "291": "�",
  "292": "as",
  "293": "ic",
  "294": " and",
  "295": " th",
  "296": "le",
  "297": "om",
  "298": "ion",
  "299": "ll",
  "300": "ent",
  "301": " n",
  "302": " l",
  "303": " re",
  "304": "st",
  "305": "ve",
  "306": " e",
  "307": "ly",
  "308": "ro",
  "309": " be",
  "310": " g",
  "311": "id",
  "312": "ut",
  "313": "ac",
  "314": "ot",
  "315": " T",
  "316": " I",
  "317": " that",
  "318": " on",
  "319": "ay",
  "320": " S",
  "321": " is",
  "322": "et",
  "323": "im",
  "324": "am",
  "325": "ad",
  "326": "ow",
  "327": "se",
  "328": "ig",
  "329": " for",
  "330": "’",
  "331": " A",
  "332": "ver",
  "333": "ur",
  "334": "ct",
  "335": "ld",
  "336": " C",
  "337": " u",
  "338": " st",
  "339": " y",
  "340": " it",
  "341": " he",
  "342": "ir",
  "343": "ation",
  "344": "ith",
  "345": " wh",
  "346": " M",
  "347": "ce",
  "348": "ter",
  "349": "ol",
  "350": " we",
  "351": "il",
  "352": " with",
  "353": " as",
  "354": " B",
  "355": "ch",
  "356": "ill",
  "357": "nd",
  "358": " P",
  "359": " was",
  "360": "ers",
  "361": " you",
  "362": "ke",
  "363": " �",
  "364": " con",
  "365": " de",
  "366": " r",
  "367": "her",
  "368": "if",
  "369": "ate",
  "370": "ag",
  "371": " at",
  "372": " ha",
  "373": " W",
  "374": " se",
  "375": " H",
  "376": "ore",
  "377": " pro",
  "378": "ul",
  "379": "pp",
  "380": "ment",
  "381": "ri",
  "382": " are",
  "383": " D",
  "384": " 1",
  "385": "us",
  "386": "est",
  "387": "ist",
  "388": " com",
  "389": "and",
  "390": " R",
  "391": "op",
  "392": "ain",
  "393": " The",
  "394": " 2",
  "395": "igh",
  "396": "rom",
  "397": "end",
  "398": " (",
  "399": "te",
  "400": "th",
  "401": "od",
  "402": " ne",
  "403": " F",
  "404": "um",
  "405": "un",
  "406": " ex",
  "407": "res",
  "408": "ab",
  "409": "”",
  "410": " not",
  "411": " N",
  "412": " v",
  "413": "ess",
  "414": " have",
  "415": "ity",
  "416": "ould",
  "417": " or",
  "418": " by",
  "419": "ort",
  "420": "os",
  "421": " G",
  "422": "ive",
  "423": " from",
  "424": "ant",
  "425": " al",
  "426": "\'s",
  "427": "oc",
  "428": " su",
  "429": "art",
  "430": "el",
  "431": " L",
  "432": " sh",
  "433": " this",
  "434": "em",
  "435": "qu",
  "436": "nt",
  "437": "ight",
  "438": "pe",
  "439": "ust",
  "440": " le",
  "441": "ies",
  "442": " E",
  "443": " ch",
  "444": " sa",
  "445": " ab",
  "446": "The",
  "447": "out",
  "448": "all",
  "449": "ie",
  "450": "ack",
  "451": "red",
  "452": "00",
  "453": " “",
  "454": " has",
  "455": "ally",
  "456": " J",
  "457": " pl",
  "458": " go",
  "459": "ard",
  "460": "iv",
  "461": " his",
  "462": "ome",
  "463": "ap",
  "464": "ost",
  "465": "gh",
  "466": "ear",
  "467": " O",
  "468": " tr",
  "469": "our",
  "470": " j",
  "471": "ak",
  "472": "ud",
  "473": " wor",
  "474": "ast",
  "475": " do",
  "476": " they",
  "477": " but",
  "478": "rou",
  "479": " can",
  "480": "ge",
  "481": " will",
  "482": " said",
  "483": " whe",
  "484": " U",
  "485": " k",
  "486": "ich",
  "487": " all",
  "488": "ok",
  "489": " \"",
  "490": "ide",
  "491": " who",
  "492": "ame",
  "493": "ans",
  "494": "ther",
  "495": "ial",
  "496": " out",
  "497": "ff",
  "498": " their",
  "499": "ong",
  "500": "pl",
  "501": "ice",
  "502": "ure",
  "503": "one",
  "504": " more",
  "505": "age",
  "506": "ions",
  "507": "act",
  "508": " up",
  "509": "ike",
  "510": " me",
  "511": "ous",
  "512": "ine",
  "513": " ad",
  "514": "ep",
  "515": " about",
  "516": "ated",
  "517": "ra",
  "518": "ber",
  "519": "pt",
  "520": " one",
  "521": " were",
  "522": " so",
  "523": " us",
  "524": "ect",
  "525": "og",
  "526": "ime",
  "527": " K",
  "528": "ia",
  "529": " had",
  "530": "are",
  "531": "ub",
  "532": "cc",
  "533": " would",
  "534": " cl",
  "535": " 20",
  "536": " im",
  "537": " which",
  "538": "ind",
  "539": "xt",
  "540": "ue",
  "541": "ake",
  "542": "iz",
  "543": "very",
  "544": " ag",
  "545": " te",
  "546": " off",
  "547": " comp",
  "548": " un",
  "549": " been",
  "550": " int",
  "551": "so",
  "552": " en",
  "553": "per",
  "554": "ign",
  "555": "au",
  "556": " cont",
  "557": " Th",
  "558": "ary",
  "559": " year",
  "560": "ip",
  "561": "ace",
  "562": "ew",
  "563": " like",
  "564": "ven",
  "565": "ook",
  "566": " inc",
  "567": "ays",
  "568": " man",
  "569": " pe",
  "570": " In",
  "571": "ry",
  "572": "ose",
  "573": " res",
  "574": "able",
  "575": "ite",
  "576": " per",
  "577": "ass",
  "578": "ord",
  "579": " sp",
  "580": "ire",
  "581": " other",
  "582": "mer",
  "583": " some",
  "584": "ile",
  "585": "ib",
  "586": "ence",
  "587": " St",
  "588": "ople",
  "589": " 201",
  "590": "ks",
  "591": "ations",
  "592": " over",
  "593": "ical",
  "594": " there",
  "595": "ress",
  "596": " dis",
  "597": "ult",
  "598": " new",
  "599": "own",
  "600": " also",
  "601": " than",
  "602": " ar",
  "603": " bec",
  "604": "ru",
  "605": " them",
  "606": "ance",
  "607": "ough",
  "608": " app",
  "609": "port",
  "610": "ount",
  "611": "ail",
  "612": "ree",
  "613": "int",
  "614": " part",
  "615": " your",
  "616": " when",
  "617": " what",
  "618": "orm",
  "619": "ond",
  "620": " people",
  "621": "fter",
  "622": " sc",
  "623": " Ch",
  "624": "av",
  "625": "ase",
  "626": " qu",
  "627": " any",
  "628": " just",
  "629": " its",
  "630": " Y",
  "631": "ach",
  "632": "ction",
  "633": " time",
  "634": "of",
  "635": " kn",
  "636": " It",
  "637": " her",
  "638": " 3",
  "639": "ens",
  "640": "lic",
  "641": " rec",
  "642": "reat",
  "643": " my",
  "644": " get",
  "645": " if",
  "646": " V",
  "647": "ian",
  "648": ".”",
  "649": " into",
  "650": "ound",
  "651": " work",
  "652": " tw",
  "653": "irst",
  "654": "vel",
  "655": " no",
  "656": "du",
  "657": "ings",
  "658": "ere",
  "659": "ory",
  "660": "ick",
  "661": "ors",
  "662": " our",
  "663": "ition",
  "664": "ident",
  "665": "ob",
  "666": " -",
  "667": " pre",
  "668": "ove",
  "669": " play",
  "670": "ang",
  "671": "ink",
  "672": "ause",
  "673": "wn",
  "674": "text",
  "675": "amp",
  "676": "ade",
  "677": "ates",
  "678": "hing",
  "679": "ark",
  "680": " ro",
  "681": " pol",
  "682": " she",
  "683": "vers",
  "684": " co",
  "685": ",”",
  "686": " after",
  "687": "ne",
  "688": " first",
  "689": " could",
  "690": " how",
  "691": " He",
  "692": " 19",
  "693": "ious",
  "694": "nder",
  "695": "ild",
  "696": " acc",
  "697": " him",
  "698": "aw",
  "699": "\'t",
  "700": "ons",
  "701": " po",
  "702": "|>",
  "703": "<|",
  "704": "endof",
  "705": "endoftext",
  "706": " only",
  "707": " fe",
  "708": "ict",
  "709": "hed",
  "710": " pr",
  "711": "rit",
  "712": "ov",
  "713": " two",
  "714": "ish",
  "715": " comm",
  "716": "“",
  "717": " spe",
  "718": "form",
  "719": " act",
  "720": "erv",
  "721": " bl",
  "722": "we",
  "723": " bet",
  "724": " dec",
  "725": ".\"",
  "726": "ning",
  "727": " back",
  "728": " most",
  "729": "ces",
  "730": "ft",
  "731": "ood",
  "732": "ck",
  "733": " –",
  "734": " am",
  "735": "oy",
  "736": " did",
  "737": "rough",
  "738": "iff",
  "739": "ater",
  "740": "round",
  "741": " again",
  "742": " 4",
  "743": "ual",
  "744": "day",
  "745": "ise",
  "746": " under",
  "747": " des",
  "748": " want",
  "749": "ull",
  "750": "sel",
  "751": " cons",
  "752": " —",
  "753": "..",
  "754": " because",
  "755": " now",
  "756": "lud",
  "757": "ents",
  "758": "man",
  "759": " years",
  "760": "tern",
  "761": "ublic",
  "762": " need",
  "763": "ec",
  "764": " even",
  "765": " $",
  "766": "iss",
  "767": " inv",
  "768": " att",
  "769": " know",
  "770": " We",
  "771": " see",
  "772": "ments",
  "773": "ced",
  "774": " add",
  "775": ",\"",
  "776": "old",
  "777": " ind",
  "778": "ting",
  "779": " sec",
  "780": "fore",
  "781": "uch",
  "782": " every",
  "783": "urn",
  "784": " 5",
  "785": " supp",
  "786": " make",
  "787": "pect",
  "788": " Un",
  "789": " em",
  "790": " these",
  "791": "ock",
  "792": "In",
  "793": "oll",
  "794": " where",
  "795": "ject",
  "796": "ational",
  "797": "vern",
  "798": " bu",
  "799": " look",
  "800": "Th",
  "801": " And",
  "802": "oss",
  "803": " don",
  "804": " ev",
  "805": "ump",
  "806": "ating",
  "807": " way",
  "808": " being",
  "809": " rem",
  "810": "ily",
  "811": " may",
  "812": "ng",
  "813": "row",
  "814": "lect",
  "815": "iew",
  "816": " then",
  "817": " right",
  "818": " many",
  "819": " [",
  "820": " diff",
  "821": " def",
  "822": "ason",
  "823": " rel",
  "824": " call",
  "825": " But",
  "826": " Tr",
  "827": "les",
  "828": "ied",
  "829": "ased",
  "830": " includ",
  "831": " think",
  "832": "aking",
  "833": " reg",
  "834": ").",
  "835": "ont",
  "836": "meric",
  "837": " imp",
  "838": " through",
  "839": "ath",
  "840": "ited",
  "841": "rib",
  "842": " sy",
  "843": " should",
  "844": " pres",
  "845": " say",
  "846": " fl",
  "847": "uring",
  "848": " last",
  "849": "ty",
  "850": " those",
  "851": "ower",
  "852": " very",
  "853": "other",
  "854": " much",
  "855": "ities",
  "856": "ific",
  "857": " state",
  "858": " This",
  "859": "ative",
  "860": " show",
  "861": "tle",
  "862": "hen",
  "863": " br",
  "864": "ss",
  "865": "arg",
  "866": " well",
  "867": "oth",
  "868": " ph",
  "869": " Wh",
  "870": "als",
  "871": "und",
  "872": " count",
  "873": " 200",
  "874": " does",
  "875": " down",
  "876": " own",
  "877": "arly",
  "878": " end",
  "879": " ass",
  "880": " bel",
  "881": " use",
  "882": "ics",
  "883": "ange",
  "884": "ts",
  "885": "--",
  "886": " long",
  "887": " Americ",
  "888": "ters",
  "889": "ince",
  "890": " before",
  "891": "omet",
  "892": "gr",
  "893": " mon",
  "894": "ward",
  "895": " govern",
  "896": " start",
  "897": " report",
  "898": "ible",
  "899": " ke",
  "900": "up",
  "901": "ues",
  "902": " New",
  "903": "oun",
  "904": " fin",
  "905": " team",
  "906": "ble",
  "907": " made",
  "908": "ife",
  "909": "olog",
  "910": "ren",
  "911": "ener",
  "912": "),",
  "913": " such",
  "914": "com",
  "915": "erson",
  "916": "ix",
  "917": "ek",
  "918": " sm",
  "919": "rest",
  "920": "—",
  "921": "lp",
  "922": "ility",
  "923": " going",
  "924": "ism",
  "925": "ful",
  "926": " world",
  "927": "ually",
  "928": " stud",
  "929": "ists",
  "930": " good",
  "931": " ac",
  "932": "tain",
  "933": " sub",
  "934": " eff",
  "935": " sur",
  "936": " against",
  "937": "It",
  "938": "its",
  "939": " game",
  "940": " set",
  "941": "ork",
  "942": " 6",
  "943": " gu",
  "944": " point",
  "945": " ent",
  "946": "ys",
  "947": "000",
  "948": "gan",
  "949": "ars",
  "950": "li",
  "951": "stem",
  "952": " prov",
  "953": " still",
  "954": "roup",
  "955": " while",
  "956": "illion",
  "957": " help",
  "958": " lead",
  "959": "ell",
  "960": " min",
  "961": "ms",
  "962": "ween",
  "963": ".<|",
  "964": "ax",
  "965": "ank",
  "966": "alk",
  "967": "imes",
  "968": " says",
  "969": " ob",
  "970": "cy",
  "971": " produ",
  "972": "ef",
  "973": " inte",
  "974": " gr",
  "975": " inter",
  "976": " inst",
  "977": " str",
  "978": "cess",
  "979": " sim",
  "980": "self",
  "981": " conf",
  "982": " col",
  "983": " take",
  "984": "io",
  "985": "ures",
  "986": "arch",
  "987": " same",
  "988": " though",
  "989": " between",
  "990": "ollow",
  "991": " offic",
  "992": "ever",
  "993": " cr",
  "994": "land",
  "995": " differe",
  "996": "ool",
  "997": "uss",
  "998": "ution",
  "999": " disc"
}
