{
  "0": "\u0000",
  "1": "\u0001",
  "2": "\u0002",
  "3": "\u0003",
  "4": "\u0004",
  "5": "\u0005",
  "6": "\u0006",
  "7": "\u0007",
  "8": "\u0008",
  "9": "\t",
  "10": "\n",
  "11": "\u000b",
  "12": "\u000c",
  "13": "\r",
  "14": "\u000e",
  "15": "\u000f",
  "16": "\u0010",
  "17": "\u0011",
  "18": "\u0012",
  "19": "\u0013",
  "20": "\u0014",
  "21": "\u0015",
  "22": "\u0016",
  "23": "\u0017",
  "24": "\u0018",
  "25": "\u0019",
  "26": "\u001a",
  "27": "\u001b",
  "28": "\u001c",
  "29": "\u001d",
  "30": "\u001e",
  "31": "\u001f",
  "32": " ",
  "33": "!",
  "34": "\"",
  "35": "#",
  "36": "$",
  "37": "%",
  "38": "&",
  "39": "'",
  "40": "(",
  "41": ")",
  "42": "*",
  "43": "+",
  "44": ",",
  "45": "-",
  "46": ".",
  "47": "/",
  "48": "0",
  "49": "1",
  "50": "2",
  "51": "3",
  "52": "4",
  "53": "5",
  "54": "6",
  "55": "7",
  "56": "8",
  "57": "9",
  "58": ":",
  "59": ";",
  "60": "<",
  "61": "=",
  "62": ">",
  "63": "?",
  "64": "@",
  "65": "A",
  "66": "B",
  "67": "C",
  "68": "D",
  "69": "E",
  "70": "F",
  "71": "G",
  "72": "H",
  "73": "I",
  "74": "J",
  "75": "K",
  "76": "L",
  "77": "M",
  "78": "N",
  "79": "O",
  "80": "P",
  "81": "Q",
  "82": "R",
  "83": "S",
  "84": "T",
  "85": "U",
  "86": "V",
  "87": "W",
  "88": "X",
  "89": "Y",
  "90": "Z",
  "91": "[",
  "92": "\\",
  "93": "]",
  "94": "^",
  "95": "_",
  "96": "`",
  "97": "a",
  "98": "b",
  "99": "c",
  "100": "d",
  "101": "e",
  "102": "f",
  "103": "g",
  "104": "h",
  "105": "i",
  "106": "j",
  "107": "k",
  "108": "l",
  "109": "m",
  "110": "n",
  "111": "o",
  "112": "p",
  "113": "q",
  "114": "r",
  "115": "s",
  "116": "t",
  "117": "u",
  "118": "v",
  "119": "w",
  "120": "x",
  "121": "y",
  "122": "z",
  "123": "{",
  "124": "|",
  "125": "}",
  "126": "~",
  "127": "\u007f",
  "128": "\u0080",
  "129": "\u0081",
  "130": "\u0082",
  "131": "\u0083",
  "132": "\u0084",
  "133": "\u0085",
  "134": "\u0086",
  "135": "\u0087",
  "136": "\u0088",
  "137": "\u0089",
  "138": "\u008a",
  "139": "\u008b",
  "140": "\u008c",
  "141": "\u008d",
  "142": "\u008e",
  "143": "\u008f",
  "144": "\u0090",
  "145": "\u0091",
  "146": "\u0092",
  "147": "\u0093",
  "148": "\u0094",
  "149": "\u0095",
  "150": "\u0096",
  "151": "\u0097",
  "152": "\u0098",
  "153": "\u0099",
  "154": "\u009a",
  "155": "\u009b",
  "156": "\u009c",
  "157": "\u009d",
  "158": "\u009e",
  "159": "\u009f",
  "160": "\u00a0",
  "161": "\u00a1",
  "162": "\u00a2",
  "163": "\u00a3",
  "164": "\u00a4",
  "165": "\u00a5",
  "166": "\u00a6",
  "167": "\u00a7",
  "168": "\u00a8",
  "169": "\u00a9",
  "170": "\u00aa",
  "171": "\u00ab",
  "172": "\u00ac",
  "173": "\u00ad",
  "174": "\u00ae",
  "175": "\u00af",
  "176": "\u00b0",
  "177": "\u00b1",
  "178": "\u00b2",
  "179": "\u00b3",
  "180": "\u00b4",
  "181": "\u00b5",
  "182": "\u00b6",
  "183": "\u00b7",
  "184": "\u00b8",
  "185": "\u00b9",
  "186": "\u00ba",
  "187": "\u00bb",
  "188": "\u00bc",
  "189": "\u00bd",
  "190": "\u00be",
  "191": "\u00bf",
  "192": "\u00c0",
  "193": "\u00c1",
  "194": "\u00c2",
  "195": "\u00c3",
  "196": "\u00c4",
  "197": "\u00c5",
  "198": "\u00c6",
  "199": "\u00c7",
  "200": "\u00c8",
  "201": "\u00c9",
  "202": "\u00ca",
  "203": "\u00cb",
  "204": "\u00cc",
  "205": "\u00cd",
  "206": "\u00ce",
  "207": "\u00cf",
  "208": "\u00d0",
  "209": "\u00d1",
  "210": "\u00d2",
  "211": "\u00d3",
  "212": "\u00d4",
  "213": "\u00d5",
  "214": "\u00d6",
  "215": "\u00d7",
  "216": "\u00d8",
  "217": "\u00d9",
  "218": "\u00da",
  "219": "\u00db",
  "220": "\u00dc",
  "221": "\u00dd",
  "222": "\u00de",
  "223": "\u00df",
  "224": "\u00e0",
  "225": "\u00e1",
  "226": "\u00e2",
  "227": "\u00e3",
  "228": "\u00e4",
  "229": "\u00e5",
  "230": "\u00e6",
  "231": "\u00e7",
  "232": "\u00e8",
  "233": "\u00e9",
  "234": "\u00ea",
  "235": "\u00eb",
  "236": "\u00ec",
  "237": "\u00ed",
  "238": "\u00ee",
  "239": "\u00ef",
  "240": "\u00f0",
  "241": "\u00f1",
  "242": "\u00f2",
  "243": "\u00f3",
  "244": "\u00f4",
  "245": "\u00f5",
  "246": "\u00f6",
  "247": "\u00f7",
  "248": "\u00f8",
  "249": "\u00f9",
  "250": "\u00fa",
  "251": "\u00fb",
  "252": "\u00fc",
  "253": "\u00fd",
  "254": "\u00fe",
  "255": "\u00ff",
  "256": "<|endoftext|>",
  "257": " t",
  "258": " a",
  "259": "he",
  "260": "in",
  "261": "re",
  "262": " the",
  "263": "on",
  "264": "er",
  "265": " s",
  "266": " w",
  "267": "at",
  "268": " o",
  "269": "en",
  "270": " c",
  "271": "it",
  "272": "is",
  "273": "an",
  "274": "or",
  "275": " b",
  "276": "es",
  "277": "ed",
  "278": " f",
  "279": "ing",
  "280": " p",
  "281": "ou",
  "282": " an",
  "283": "al",
  "284": " to",
  "285": "ar",
  "286": " m",
  "287": " in",
  "288": " of",
  "289": " h",
  "290": " d",
  "291": "\u00e2\u0080",
  "292": "as",
  "293": "ic",
  "294": " and",
  "295": " th",
  "296": "le",
  "297": "om",
  "298": "ion",
  "299": "ll",
  "300": "ent",
  "301": " n",
  "302": " l",
  "303": " re",
  "304": "st",
  "305": "ve",
  "306": " e",
  "307": "ly",
  "308": "ro",
  "309": " be",
  "310": " g",
  "311": "id",
  "312": "ut",
  "313": "ac",
  "314": "ot",
  "315": " T",
  "316": " I",
  "317": " that",
  "318": " on",
  "319": "ay",
  "320": " S",
  "321": " is",
  "322": "et",
  "323": "im",
  "324": "am",
  "325": "ad",
  "326": "ow",
  "327": "se",
  "328": "ig",
  "329": " for",
  "330": "\u00e2\u0080\u0099",
  "331": " A",
  "332": "ver",
  "333": "ur",
  "334": "ct",
  "335": "ld",
  "336": " C",
  "337": " u",
  "338": " st",
  "339": " y",
  "340": " it",
  "341": " he",
  "342": "ir",
  "343": "ation",
  "344": "ith",
  "345": " wh",
  "346": " M",
  "347": "ce",
  "348": "ter",
  "349": "ol",
  "350": " we",
  "351": "il",
  "352": " with",
  "353": " as",
  "354": " B",
  "355": "ch",
  "356": "ill",
  "357": "nd",
  "358": " P",
  "359": " was",
  "360": "ers",
  "361": " you",
  "362": "ke",
  "363": " \u00e2\u0080",
  "364": " con",
  "365": " de",
  "366": " r",
  "367": "her",
  "368": "if",
  "369": "ate",
  "370": "ag",
  "371": " at",
  "372": " ha",
  "373": " W",
  "374": " se",
  "375": " H",
  "376": "ore",
  "377": " pro",
  "378": "ul",
  "379": "pp",
  "380": "ment",
  "381": "ri",
  "382": " are",
  "383": " D",
  "384": " 1",
  "385": "us",
  "386": "est",
  "387": "ist",
  "388": " com",
  "389": "and",
  "390": " R",
  "391": "op",
  "392": "ain",
  "393": " The",
  "394": " 2",
  "395": "igh",
  "396": "rom",
  "397": "end",
  "398": " (",
  "399": "te",
  "400": "th",
  "401": "od",
  "402": " ne",
  "403": " F",
  "404": "um",
  "405": "un",
  "406": " ex",
  "407": "res",
  "408": "ab",
  "409": "\u00e2\u0080\u009d",
  "410": " not",
  "411": " N",
  "412": " v",
  "413": "ess",
  "414": " have",
  "415": "ity",
  "416": "ould",
  "417": " or",
  "418": " by",
  "419": "ort",
  "420": "os",
  "421": " G",
  "422": "ive",
  "423": " from",
  "424": "ant",
  "425": " al",
  "426": "'s",
  "427": "oc",
  "428": " su",
  "429": "art",
  "430": "el",
  "431": " L",
  "432": " sh",
  "433": " this",
  "434": "em",
  "435": "qu",
  "436": "nt",
  "437": "ight",
  "438": "pe",
  "439": "ust",
  "440": " le",
  "441": "ies",
  "442": " E",
  "443": " ch",
  "444": " sa",
  "445": " ab",
  "446": "The",
  "447": "out",
  "448": "all",
  "449": "ie",
  "450": "ack",
  "451": "red",
  "452": "00",
  "453": " \u00e2\u0080\u009c",
  "454": " has",
  "455": "ally",
  "456": " J",
  "457": " pl",
  "458": " go",
  "459": "ard",
  "460": "iv",
  "461": " his",
  "462": "ome",
  "463": "ap",
  "464": "ost",
  "465": "gh",
  "466": "ear",
  "467": " O",
  "468": " tr",
  "469": "our",
  "470": " j",
  "471": "ak",
  "472": "ud",
  "473": " wor",
  "474": "ast",
  "475": " do",
  "476": " they",
  "477": " but",
  "478": "rou",
  "479": " can",
  "480": "ge",
  "481": " will",
  "482": " said",
  "483": " whe",
  "484": " U",
  "485": " k",
  "486": "ich",
  "487": " all",
  "488": "ok",
  "489": " \"",
  "490": "ide",
  "491": " who",
  "492": "ame",
  "493": "ans",
  "494": "ther",
  "495": "ial",
  "496": " out",
  "497": "ff",
  "498": " their",
  "499": "ong",
  "500": "pl",
  "501": "ice",
  "502": "ure",
  "503": "one",
  "504": " more",
  "505": "age",
  "506": "ions",
  "507": "act",
  "508": " up",
  "509": "ike",
  "510": " me",
  "511": "ous",
  "512": "ine",
  "513": " ad",
  "514": "ep",
  "515": " about",
  "516": "ated",
  "517": "ra",
  "518": "ber",
  "519": "pt",
  "520": " one",
  "521": " were",
  "522": " so",
  "523": " us",
  "524": "ect",
  "525": "og",
  "526": "ime",
  "527": " K",
  "528": "ia",
  "529": " had",
  "530": "are",
  "531": "ub",
  "532": "cc",
  "533": " would",
  "534": " cl",
  "535": " 20",
  "536": " im",
  "537": " which",
  "538": "ind",
  "539": "xt",
  "540": "ue",
  "541": "ake",
  "542": "iz",
  "543": "very",
  "544": " ag",
  "545": " te",
  "546": " off",
  "547": " comp",
  "548": " un",
  "549": " been",
  "550": " int",
  "551": "so",
  "552": " en",
  "553": "per",
  "554": "ign",
  "555": "au",
  "556": " cont",
  "557": " Th",
  "558": "ary",
  "559": " year",
  "560": "ip",
  "561": "ace",
  "562": "ew",
  "563": " like",
  "564": "ven",
  "565": "ook",
  "566": " inc",
  "567": "ays",
  "568": " man",
  "569": " pe",
  "570": " In",
  "571": "ry",
  "572": "ose",
  "573": " res",
  "574": "able",
  "575": "ite",
  "576": " per",
  "577": "ass",
  "578": "ord",
  "579": " sp",
  "580": "ire",
  "581": " other",
  "582": "mer",
  "583": " some",
  "584": "ile",
  "585": "ib",
  "586": "ence",
  "587": " St",
  "588": "ople",
  "589": " 201",
  "590": "ks",
  "591": "ations",
  "592": " over",
  "593": "ical",
  "594": " there",
  "595": "ress",
  "596": " dis",
  "597": "ult",
  "598": " new",
  "599": "own",
  "600": " also",
  "601": " than",
  "602": " ar",
  "603": " bec",
  "604": "ru",
  "605": " them",
  "606": "ance",
  "607": "ough",
  "608": " app",
  "609": "port",
  "610": "ount",
  "611": "ail",
  "612": "ree",
  "613": "int",
  "614": " part",
  "615": " your",
  "616": " when",
  "617": " what",
  "618": "orm",
  "619": "ond",
  "620": " people",
  "621": "fter",
  "622": " sc",
  "623": " Ch",
  "624": "av",
  "625": "ase",
  "626": " qu",
  "627": " any",
  "628": " just",
  "629": " its",
  "630": " Y",
  "631": "ach",
  "632": "ction",
  "633": " time",
  "634": "of",
  "635": " kn",
  "636": " It",
  "637": " her",
  "638": " 3",
  "639": "ens",
  "640": "lic",
  "641": " rec",
  "642": "reat",
  "643": " my",
  "644": " get",
  "645": " if",
  "646": " V",
  "647": "ian",
  "648": ".\u00e2\u0080\u009d",
  "649": " into",
  "650": "ound",
  "651": " work",
  "652": " tw",
  "653": "irst",
  "654": "vel",
  "655": " no",
  "656": "du",
  "657": "ings",
  "658": "ere",
  "659": "ory",
  "660": "ick",
  "661": "ors",
  "662": " our",
  "663": "ition",
  "664": "ident",
  "665": "ob",
  "666": " -",
  "667": " pre",
  "668": "ove",
  "669": " play",
  "670": "ang",
  "671": "ink",
  "672": "ause",
  "673": "wn",
  "674": "text",
  "675": "amp",
  "676": "ade",
  "677": "ates",
  "678": "hing",
  "679": "ark",
  "680": " ro",
  "681": " pol",
  "682": " she",
  "683": "vers",
  "684": " co",
  "685": ",\u00e2\u0080\u009d",
  "686": " after",
  "687": "ne",
  "688": " first",
  "689": " could",
  "690": " how",
  "691": " He",
  "692": " 19",
  "693": "ious",
  "694": "nder",
  "695": "ild",
  "696": " acc",
  "697": " him",
  "698": "aw",
  "699": "'t",
  "700": "ons",
  "701": " po",
  "702": "|>",
  "703": "<|",
  "704": "endof",
  "705": "endoftext",
  "706": " only",
  "707": " fe",
  "708": "ict",
  "709": "hed",
  "710": " pr",
  "711": "rit",
  "712": "ov",
  "713": " two",
  "714": "ish",
  "715": " comm",
  "716": "\u00e2\u0080\u009c",
  "717": " spe",
  "718": "form",
  "719": " act",
  "720": "erv",
  "721": " bl",
  "722": "we",
  "723": " bet",
  "724": " dec",
  "725": ".\"",
  "726": "ning",
  "727": " back",
  "728": " most",
  "729": "ces",
  "730": "ft",
  "731": "ood",
  "732": "ck",
  "733": " \u00e2\u0080\u0093",
  "734": " am",
  "735": "oy",
  "736": " did",
  "737": "rough",
  "738": "iff",
  "739": "ater",
  "740": "round",
  "741": " again",
  "742": " 4",
  "743": "ual",
  "744": "day",
  "745": "ise",
  "746": " under",
  "747": " des",
  "748": " want",
  "749": "ull",
  "750": "sel",
  "751": " cons",
  "752": " \u00e2\u0080\u0094",
  "753": "..",
  "754": " because",
  "755": " now",
  "756": "lud",
  "757": "ents",
  "758": "man",
  "759": " years",
  "760": "tern",
  "761": "ublic",
  "762": " need",
  "763": "ec",
  "764": " even",
  "765": " $",
  "766": "iss",
  "767": " inv",
  "768": " att",
  "769": " know",
  "770": " We",
  "771": " see",
  "772": "ments",
  "773": "ced",
  "774": " add",
  "775": ",\"",
  "776": "old",
  "777": " ind",
  "778": "ting",
  "779": " sec",
  "780": "fore",
  "781": "uch",
  "782": " every",
  "783": "urn",
  "784": " 5",
  "785": " supp",
  "786": " make",
  "787": "pect",
  "788": " Un",
  "789": " em",
  "790": " these",
  "791": "ock",
  "792": "In",
  "793": "oll",
  "794": " where",
  "795": "ject",
  "796": "ational",
  "797": "vern",
  "798": " bu",
  "799": " look",
  "800": "Th",
  "801": " And",
  "802": "oss",
  "803": " don",
  "804": " ev",
  "805": "ump",
  "806": "ating",
  "807": " way",
  "808": " being",
  "809": " rem",
  "810": "ily",
  "811": " may",
  "812": "ng",
  "813": "row",
  "814": "lect",
  "815": "iew",
  "816": " then",
  "817": " right",
  "818": " many",
  "819": " [",
  "820": " diff",
  "821": " def",
  "822": "ason",
  "823": " rel",
  "824": " call",
  "825": " But",
  "826": " Tr",
  "827": "les",
  "828": "ied",
  "829": "ased",
  "830": " includ",
  "831": " think",
  "832": "aking",
  "833": " reg",
  "834": ").",
  "835": "ont",
  "836": "meric",
  "837": " imp",
  "838": " through",
  "839": "ath",
  "840": "ited",
  "841": "rib",
  "842": " sy",
  "843": " should",
  "844": " pres",
  "845": " say",
  "846": " fl",
  "847": "uring",
  "848": " last",
  "849": "ty",
  "850": " those",
  "851": "ower",
  "852": " very",
  "853": "other",
  "854": " much",
  "855": "ities",
  "856": "ific",
  "857": " state",
  "858": " This",
  "859": "ative",
  "860": " show",
  "861": "tle",
  "862": "hen",
  "863": " br",
  "864": "ss",
  "865": "arg",
  "866": " well",
  "867": "oth",
  "868": " ph",
  "869": " Wh",
  "870": "als",
  "871": "und",
  "872": " count",
  "873": " 200",
  "874": " does",
  "875": " down",
  "876": " own",
  "877": "arly",
  "878": " end",
  "879": " ass",
  "880": " bel",
  "881": " use",
  "882": "ics",
  "883": "ange",
  "884": "ts",
  "885": "--",
  "886": " long",
  "887": " Americ",
  "888": "ters",
  "889": "ince",
  "890": " before",
  "891": "omet",
  "892": "gr",
  "893": " mon",
  "894": "ward",
  "895": " govern",
  "896": " start",
  "897": " report",
  "898": "ible",
  "899": " ke",
  "900": "up",
  "901": "ues",
  "902": " New",
  "903": "oun",
  "904": " fin",
  "905": " team",
  "906": "ble",
  "907": " made",
  "908": "ife",
  "909": "olog",
  "910": "ren",
  "911": "ener",
  "912": "),",
  "913": " such",
  "914": "com",
  "915": "erson",
  "916": "ix",
  "917": "ek",
  "918": " sm",
  "919": "rest",
  "920": "\u00e2\u0080\u0094",
  "921": "lp",
  "922": "ility",
  "923": " going",
  "924": "ism",
  "925": "ful",
  "926": " world",
  "927": "ually",
  "928": " stud",
  "929": "ists",
  "930": " good",
  "931": " ac",
  "932": "tain",
  "933": " sub",
  "934": " eff",
  "935": " sur",
  "936": " against",
  "937": "It",
  "938": "its",
  "939": " game",
  "940": " set",
  "941": "ork",
  "942": " 6",
  "943": " gu",
  "944": " point",
  "945": " ent",
  "946": "ys",
  "947": "000",
  "948": "gan",
  "949": "ars",
  "950": "li",
  "951": "stem",
  "952": " prov",
  "953": " still",
  "954": "roup",
  "955": " while",
  "956": "illion",
  "957": " help",
  "958": " lead",
  "959": "ell",
  "960": " min",
  "961": "ms",
  "962": "ween",
  "963": ".<|",
  "964": "ax",
  "965": "ank",
  "966": "alk",
  "967": "imes",
  "968": " says",
  "969": " ob",
  "970": "cy",
  "971": " produ",
  "972": "ef",
  "973": " inte",
  "974": " gr",
  "975": " inter",
  "976": " inst",
  "977": " str",
  "978": "cess",
  "979": " sim",
  "980": "self",
  "981": " conf",
  "982": " col",
  "983": " take",
  "984": "io",
  "985": "ures",
  "986": "arch",
  "987": " same",
  "988": " though",
  "989": " between",
  "990": "ollow",
  "991": " offic",
  "992": "ever",
  "993": " cr",
  "994": "land",
  "995": " differe",
  "996": "ool",
  "997": "uss",
  "998": "ution",
  "999": " disc",
  "1000": "air",
  "1001": " op",
  "1002": "ah",
  "1003": " ed",
  "1004": " high",
  "1005": "read",
  "1006": " num",
  "1007": " law",
  "1008": " sign",
  "1009": "way",
  "1010": " government",
  "1011": "gg",
  "1012": "led",
  "1013": " Re",
  "1014": "ner",
  "1015": "hip",
  "1016": "atch",
  "1017": "hes",
  "1018": "ames",
  "1019": "any",
  "1020": " ter",
  "1021": " somet",
  "1022": "cent",
  "1023": "ten",
  "1024": "velop",
  "1025": "ted",
  "1026": "We",
  "1027": " ref",
  "1028": " trans",
  "1029": " ins",
  "1030": " run",
  "1031": " ser",
  "1032": " found",
  "1033": " three",
  "1034": "ives",
  "1035": "ave",
  "1036": " mem",
  "1037": " around",
  "1038": " here",
  "1039": "ather",
  "1040": " med",
  "1041": " real",
  "1042": " used",
  "1043": "ouse",
  "1044": " 10",
  "1045": "ved",
  "1046": " exp",
  "1047": "az",
  "1048": " Ar",
  "1049": "cept",
  "1050": "oot",
  "1051": " system",
  "1052": " You",
  "1053": "ci",
  "1054": " really",
  "1055": " mod",
  "1056": "ving",
  "1057": "con",
  "1058": "cer",
  "1059": " group",
  "1060": " support",
  "1061": " 7",
  "1062": " cour",
  "1063": "ets",
  "1064": "ale",
  "1065": "ins",
  "1066": " car",
  "1067": " ret",
  "1068": " hand",
  "1069": " public",
  "1070": " spec",
  "1071": "pr",
  "1072": "ph",
  "1073": " Le",
  "1074": "ying",
  "1075": " great",
  "1076": "ense",
  "1077": " ext",
  "1078": "ton",
  "1079": ".[",
  "1080": "irect",
  "1081": " cur",
  "1082": " fam",
  "1083": " Com",
  "1084": "alth",
  "1085": " happ",
  "1086": " fact",
  "1087": " exper",
  "1088": " They",
  "1089": " Trump",
  "1090": " fr",
  "1091": " wom",
  "1092": " Is",
  "1093": " cap",
  "1094": " both",
  "1095": " day",
  "1096": " find",
  "1097": " Al",
  "1098": "ular",
  "1099": " read",
  "1100": "ines",
  "1101": "oh",
  "1102": "ices",
  "1103": " det",
  "1104": " lit",
  "1105": " sl",
  "1106": " rep",
  "1107": "uth",
  "1108": " during",
  "1109": " Sh",
  "1110": " As",
  "1111": " 0",
  "1112": " serv",
  "1113": "the",
  "1114": "min",
  "1115": " month",
  "1116": "ision",
  "1117": " develop",
  "1118": " big",
  "1119": " 8",
  "1120": " person",
  "1121": "akes",
  "1122": " follow",
  "1123": " cre",
  "1124": " Cl",
  "1125": " iss",
  "1126": " told",
  "1127": " since",
  "1128": "ared",
  "1129": "med",
  "1130": "ically",
  "1131": " week",
  "1132": "ages",
  "1133": "ivers",
  "1134": " war",
  "1135": " few",
  "1136": "ording",
  "1137": " cent",
  "1138": " leg",
  "1139": "aj",
  "1140": "ex",
  "1141": "get",
  "1142": " polit",
  "1143": "ves",
  "1144": "ash",
  "1145": " expl",
  "1146": "ered",
  "1147": " lot",
  "1148": "ric",
  "1149": " belie",
  "1150": " gener",
  "1151": " too",
  "1152": " 9",
  "1153": "der",
  "1154": "ata",
  "1155": "rent",
  "1156": " opp",
  "1157": "Wh",
  "1158": " requ",
  "1159": " contin",
  "1160": "iet",
  "1161": "bers",
  "1162": "anc",
  "1163": " fil",
  "1164": " cor",
  "1165": "ention",
  "1166": "ness",
  "1167": " cle",
  "1168": " resp",
  "1169": " put",
  "1170": "ized",
  "1171": " If",
  "1172": " another",
  "1173": "20",
  "1174": "chool",
  "1175": " inf",
  "1176": " something",
  "1177": " different",
  "1178": " loc",
  "1179": " De",
  "1180": "ute",
  "1181": " invest",
  "1182": " soc",
  "1183": " power",
  "1184": " che",
  "1185": "uc",
  "1186": " '",
  "1187": " pass",
  "1188": " commun",
  "1189": " life",
  "1190": " Fr",
  "1191": " plan",
  "1192": "ody",
  "1193": " rele",
  "1194": "ience",
  "1195": " head",
  "1196": " things",
  "1197": "ned",
  "1198": "thing",
  "1199": " far",
  "1200": "ox",
  "1201": " art",
  "1202": " poss",
  "1203": " met",
  "1204": " camp",
  "1205": "ross",
  "1206": "arge",
  "1207": " vot",
  "1208": "ier",
  "1209": "This",
  "1210": "view",
  "1211": " child",
  "1212": "ants",
  "1213": " ask",
  "1214": " might",
  "1215": " each",
  "1216": "ize",
  "1217": " dep",
  "1218": "iness",
  "1219": " .",
  "1220": " never",
  "1221": " next",
  "1222": " For",
  "1223": "ik",
  "1224": " An",
  "1225": "ield",
  "1226": " second",
  "1227": " mark",
  "1228": " quest",
  "1229": " bus",
  "1230": " adv",
  "1231": " dem",
  "1232": " come",
  "1233": " got",
  "1234": " \u00e2\u0080\u0098",
  "1235": "ret",
  "1236": " open",
  "1237": " best",
  "1238": "ient",
  "1239": "ital",
  "1240": " allow",
  "1241": " That",
  "1242": "rat",
  "1243": " seem",
  "1244": " post",
  "1245": "ple",
  "1246": "tem",
  "1247": "nce",
  "1248": " feel",
  "1249": " Pro",
  "1250": " US",
  "1251": "ug",
  "1252": " pri",
  "1253": "gram",
  "1254": " percent",
  "1255": "cl",
  "1256": " home",
  "1257": " dist",
  "1258": " direct",
  "1259": "ired",
  "1260": " incre",
  "1261": " contro",
  "1262": " Rep",
  "1263": "son",
  "1264": "less",
  "1265": "orn",
  "1266": "osed",
  "1267": " result",
  "1268": " hard",
  "1269": " care",
  "1270": "ately",
  "1271": " million",
  "1272": "chn",
  "1273": " comple",
  "1274": " place",
  "1275": " without",
  "1276": " inform",
  "1277": " including",
  "1278": " import",
  "1279": " av",
  "1280": "conom",
  "1281": " hum",
  "1282": " ide",
  "1283": " proble",
  "1284": " build",
  "1285": " top",
  "1286": "ama",
  "1287": " number",
  "1288": " country",
  "1289": "gy",
  "1290": "oney",
  "1291": "aim",
  "1292": " Bl",
  "1293": "ral",
  "1294": "tt",
  "1295": "ably",
  "1296": "uro",
  "1297": " stand",
  "1298": " gl",
  "1299": " el",
  "1300": "riend",
  "1301": " four",
  "1302": "ished",
  "1303": "ways",
  "1304": " partic",
  "1305": " better",
  "1306": " tri",
  "1307": "But",
  "1308": " recent",
  "1309": "co",
  "1310": " interest",
  "1311": " mov",
  "1312": " let",
  "1313": "ration",
  "1314": " season",
  "1315": " less",
  "1316": " turn",
  "1317": " little",
  "1318": " beh",
  "1319": " mil",
  "1320": "ead",
  "1321": " appro",
  "1322": "ract",
  "1323": "line",
  "1324": " bro",
  "1325": "ling",
  "1326": "ised",
  "1327": " called",
  "1328": "app",
  "1329": "10",
  "1330": " case",
  "1331": " dr",
  "1332": " Ind",
  "1333": " rest",
  "1334": " left",
  "1335": " pop",
  "1336": " ann",
  "1337": " Z",
  "1338": "ency",
  "1339": " move",
  "1340": "ode",
  "1341": "ina",
  "1342": " attack",
  "1343": " There",
  "1344": " keep",
  "1345": " full",
  "1346": "ering",
  "1347": " didn",
  "1348": "be",
  "1349": " fun",
  "1350": " main",
  "1351": "ajor",
  "1352": "__",
  "1353": " effect",
  "1354": "inal",
  "1355": "me",
  "1356": "leg",
  "1357": " prev",
  "1358": " program",
  "1359": " using",
  "1360": "to",
  "1361": " test",
  "1362": " pay",
  "1363": "ature",
  "1364": " ear",
  "1365": " val",
  "1366": " police",
  "1367": " writ",
  "1368": " form",
  "1369": " econom",
  "1370": " data",
  "1371": " news",
  "1372": " pos",
  "1373": " win",
  "1374": " char",
  "1375": " American",
  "1376": " level",
  "1377": " sit",
  "1378": "ains",
  "1379": "iving",
  "1380": "uck",
  "1381": " small",
  "1382": "ined",
  "1383": "ready",
  "1384": "He",
  "1385": " school",
  "1386": " list",
  "1387": "ology",
  "1388": "rap",
  "1389": "mit",
  "1390": "ided",
  "1391": "ploy",
  "1392": "'re",
  "1393": "ger",
  "1394": " eas",
  "1395": " process",
  "1396": "ird",
  "1397": " change",
  "1398": "orth",
  "1399": " women",
  "1400": " current",
  "1401": " rece",
  "1402": " prom",
  "1403": " hist",
  "1404": " dri",
  "1405": " =",
  "1406": "ians",
  "1407": "reen",
  "1408": " president",
  "1409": " company",
  "1410": "used",
  "1411": " mat",
  "1412": "ruct",
  "1413": " already",
  "1414": "ohn",
  "1415": " United",
  "1416": "wit",
  "1417": " ty",
  "1418": " why",
  "1419": " bre",
  "1420": " unt",
  "1421": " money",
  "1422": " sol",
  "1423": " always",
  "1424": " later",
  "1425": " expect",
  "1426": " techn",
  "1427": " business",
  "1428": " How",
  "1429": " official",
  "1430": "ron",
  "1431": " Q",
  "1432": " Ob",
  "1433": "stand",
  "1434": "iversity",
  "1435": " book",
  "1436": " bo",
  "1437": " Ph",
  "1438": "aign",
  "1439": " thing",
  "1440": " class",
  "1441": " project",
  "1442": "ases",
  "1443": " claim",
  "1444": " job",
  "1445": " information",
  "1446": " organ",
  "1447": "aff",
  "1448": " She",
  "1449": " talk",
  "1450": "ards",
  "1451": " Be",
  "1452": " design",
  "1453": " story",
  "1454": " chang",
  "1455": " major",
  "1456": " able",
  "1457": " prof",
  "1458": " --",
  "1459": "lection",
  "1460": "iven",
  "1461": "ertain",
  "1462": " rese",
  "1463": " health",
  "1464": " vis",
  "1465": "urs",
  "1466": " free",
  "1467": "outh",
  "1468": "here",
  "1469": " Ad",
  "1470": " oper",
  "1471": " So",
  "1472": " away",
  "1473": "ior",
  "1474": " Can",
  "1475": " must",
  "1476": " city",
  "1477": "ample",
  "1478": "...",
  "1479": "rist",
  "1480": "sc",
  "1481": "ural",
  "1482": " happen",
  "1483": "uthor",
  "1484": " 18",
  "1485": "acy",
  "1486": "urity",
  "1487": " important",
  "1488": " kill",
  "1489": " sk",
  "1490": "ption",
  "1491": " est",
  "1492": "ured",
  "1493": " old",
  "1494": " past",
  "1495": " pat",
  "1496": " Se",
  "1497": "ury",
  "1498": "ending",
  "1499": " doesn",
  "1500": "ission",
  "1501": " least",
  "1502": " grow",
  "1503": " edit",
  "1504": " var",
  "1505": "ained",
  "1506": " cost",
  "1507": "ney",
  "1508": "ider",
  "1509": " Go",
  "1510": "ides",
  "1511": " days",
  "1512": " tell",
  "1513": " hop",
  "1514": " campaign",
  "1515": "side",
  "1516": " stre",
  "1517": " 12",
  "1518": " men",
  "1519": " came",
  "1520": " aff",
  "1521": " Mar",
  "1522": " const",
  "1523": "resident",
  "1524": " enough",
  "1525": " view",
  "1526": "ccess",
  "1527": " kind",
  "1528": " Sp",
  "1529": "oad",
  "1530": "ern",
  "1531": " making",
  "1532": "els",
  "1533": " large",
  "1534": " record",
  "1535": "50",
  "1536": "ush",
  "1537": " mar",
  "1538": " friend",
  "1539": " family",
  "1540": "\u00e2\u0080\u00a6",
  "1541": "ley",
  "1542": " elect",
  "1543": "eral",
  "1544": " polic",
  "1545": " tax",
  "1546": "ising",
  "1547": "by",
  "1548": "pped",
  "1549": "ality",
  "1550": "ator",
  "1551": "ified",
  "1552": "As",
  "1553": "ived",
  "1554": "ror",
  "1555": " until",
  "1556": "arent",
  "1557": "ional",
  "1558": " political",
  "1559": " vide",
  "1560": " deal",
  "1561": "ries",
  "1562": "alf",
  "1563": "augh",
  "1564": " ve",
  "1565": " working",
  "1566": "ued",
  "1567": " Republic",
  "1568": " took",
  "1569": " deb",
  "1570": "bs",
  "1571": "If",
  "1572": "ister",
  "1573": " line",
  "1574": " John",
  "1575": "aining",
  "1576": " air",
  "1577": "----",
  "1578": " es",
  "1579": "ane",
  "1580": " intern",
  "1581": " fore",
  "1582": "iol",
  "1583": "ocrat",
  "1584": " become",
  "1585": " actually",
  "1586": "aps",
  "1587": "ony",
  "1588": " mean",
  "1589": "work",
  "1590": " Sc",
  "1591": " fund",
  "1592": "ware",
  "1593": "19",
  "1594": " Pl",
  "1595": "St",
  "1596": " former",
  "1597": " often",
  "1598": " Euro",
  "1599": "ann",
  "1600": "ott",
  "1601": " won",
  "1602": " give",
  "1603": " according",
  "1604": " ever",
  "1605": "most",
  "1606": "eng",
  "1607": "year",
  "1608": " prote",
  "1609": "wh",
  "1610": "aring",
  "1611": " games",
  "1612": "ison",
  "1613": " human",
  "1614": " bas",
  "1615": " word",
  "1616": "ization",
  "1617": " return",
  "1618": " times",
  "1619": " order",
  "1620": " Russ",
  "1621": " bit",
  "1622": " Dem",
  "1623": " name",
  "1624": "oint",
  "1625": "11",
  "1626": "gin",
  "1627": " sever",
  "1628": " Con",
  "1629": " All",
  "1630": " par",
  "1631": " dev",
  "1632": "icle",
  "1633": "for",
  "1634": "uture",
  "1635": "ither",
  "1636": "iqu",
  "1637": " 199",
  "1638": " Mc",
  "1639": " At",
  "1640": " wr",
  "1641": "raft",
  "1642": " sing",
  "1643": " perform",
  "1644": " Sy",
  "1645": "idd",
  "1646": " market",
  "1647": " fac",
  "1648": " charac",
  "1649": "There",
  "1650": " Or",
  "1651": " May",
  "1652": " ra",
  "1653": " doing",
  "1654": " appear",
  "1655": "ER",
  "1656": "ched",
  "1657": " players",
  "1658": " la",
  "1659": " night",
  "1660": " lear",
  "1661": "aken",
  "1662": "rop",
  "1663": "ats",
  "1664": "mber",
  "1665": " today",
  "1666": " early",
  "1667": " 15",
  "1668": " seen",
  "1669": "//",
  "1670": " having",
  "1671": " ,",
  "1672": " pot",
  "1673": " children",
  "1674": " event",
  "1675": " media",
  "1676": " social",
  "1677": " crit",
  "1678": " President",
  "1679": " whether",
  "1680": " several",
  "1681": " control",
  "1682": "idence",
  "1683": "ene",
  "1684": " meet",
  "1685": "sh",
  "1686": " milit",
  "1687": " press",
  "1688": " went",
  "1689": "artment",
  "1690": " five",
  "1691": " young",
  "1692": "ories",
  "1693": " prop",
  "1694": "iously",
  "1695": " sure",
  "1696": " equ",
  "1697": " question",
  "1698": " occ",
  "1699": "une",
  "1700": " likely",
  "1701": "vert",
  "1702": " members",
  "1703": "br",
  "1704": " certain",
  "1705": "ium",
  "1706": "ands",
  "1707": " eng",
  "1708": " water",
  "1709": " York",
  "1710": " example",
  "1711": "ots",
  "1712": " Col",
  "1713": " side",
  "1714": " arg",
  "1715": " done",
  "1716": "enn",
  "1717": " vers",
  "1718": " ant",
  "1719": " invol",
  "1720": " Mr",
  "1721": " States",
  "1722": " Europe",
  "1723": "ended",
  "1724": "let",
  "1725": " along",
  "1726": " short",
  "1727": " success",
  "1728": "ee",
  "1729": "ential",
  "1730": " months",
  "1731": "ball",
  "1732": " hour",
  "1733": " 11",
  "1734": " Ste",
  "1735": "iver",
  "1736": "ially",
  "1737": "And",
  "1738": " sex",
  "1739": "lf",
  "1740": " within",
  "1741": " desc",
  "1742": "imate",
  "1743": " course",
  "1744": " fight",
  "1745": "urch",
  "1746": "ubl",
  "1747": " among",
  "1748": " activ",
  "1749": "uff",
  "1750": "\u00e2\u0080\u0093",
  "1751": "ague",
  "1752": " once",
  "1753": "ster",
  "1754": " future",
  "1755": " investig",
  "1756": "ulation",
  "1757": "rew",
  "1758": " possible",
  "1759": " Obama",
  "1760": " cho",
  "1761": "nect",
  "1762": " Car",
  "1763": " understand",
  "1764": "iting",
  "1765": " concer",
  "1766": " On",
  "1767": " ]",
  "1768": "ones",
  "1769": "ortun",
  "1770": " problem",
  "1771": " Br",
  "1772": " priv",
  "1773": " means",
  "1774": " viol",
  "1775": " author",
  "1776": "itive",
  "1777": "ggest",
  "1778": " No",
  "1779": " avail",
  "1780": "oci",
  "1781": "ourn",
  "1782": "my",
  "1783": " known",
  "1784": " product",
  "1785": " non",
  "1786": "ivid",
  "1787": " thought",
  "1788": " yet",
  "1789": "gress",
  "1790": " across",
  "1791": " local",
  "1792": "ald",
  "1793": "ler",
  "1794": " hold",
  "1795": " Te",
  "1796": " fail",
  "1797": " When",
  "1798": " State",
  "1799": "inc",
  "1800": " community",
  "1801": " reason",
  "1802": " orig",
  "1803": " suggest",
  "1804": " &",
  "1805": "12",
  "1806": " makes",
  "1807": "verage",
  "1808": "por",
  "1809": "not",
  "1810": "back",
  "1811": " 2016",
  "1812": " i",
  "1813": "book",
  "1814": " asked",
  "1815": "ederal",
  "1816": "orld",
  "1817": " reported",
  "1818": "You",
  "1819": "aged",
  "1820": "ensive",
  "1821": " given",
  "1822": " strong",
  "1823": " prob",
  "1824": " mus",
  "1825": " others",
  "1826": " believe",
  "1827": " video",
  "1828": "iber",
  "1829": " ben",
  "1830": " getting",
  "1831": " House",
  "1832": "ances",
  "1833": " announ",
  "1834": " light",
  "1835": "ored",
  "1836": "ober",
  "1837": " University",
  "1838": " 30",
  "1839": "itions",
  "1840": " ident",
  "1841": "iron",
  "1842": " sent",
  "1843": " cut",
  "1844": " lim",
  "1845": " ca",
  "1846": " Christ",
  "1847": " Co",
  "1848": "iety",
  "1849": "30",
  "1850": "urther",
  "1851": " sour",
  "1852": " creat",
  "1853": " cond",
  "1854": " X",
  "1855": "ams",
  "1856": "'ve",
  "1857": " net",
  "1858": "ashing",
  "1859": " bat",
  "1860": "ament",
  "1861": " national",
  "1862": ".,",
  "1863": " close",
  "1864": " started",
  "1865": " saf",
  "1866": " death",
  "1867": "aster",
  "1868": " available",
  "1869": "arm",
  "1870": "For",
  "1871": " hig",
  "1872": " based",
  "1873": " issue",
  "1874": " indust",
  "1875": " Min",
  "1876": " Democrat",
  "1877": " low",
  "1878": " following",
  "1879": "resent",
  "1880": " account",
  "1881": " land",
  "1882": "use",
  "1883": " Cent",
  "1884": " employ",
  "1885": " love",
  "1886": " 2015",
  "1887": " #",
  "1888": " history",
  "1889": " ago",
  "1890": "orts",
  "1891": "selves",
  "1892": " mom",
  "1893": " party",
  "1894": "ability",
  "1895": " series",
  "1896": " comes",
  "1897": " trying",
  "1898": "uly",
  "1899": "utes",
  "1900": " almost",
  "1901": " Am",
  "1902": "gether",
  "1903": "ument",
  "1904": " together",
  "1905": "ination",
  "1906": "AT",
  "1907": " America",
  "1908": " idea",
  "1909": "pro",
  "1910": "ief",
  "1911": " access",
  "1912": " foc",
  "1913": "eb",
  "1914": "hers",
  "1915": "ilar",
  "1916": " Fl",
  "1917": "reed",
  "1918": "ails",
  "1919": " commit",
  "1920": "itional",
  "1921": " isn",
  "1922": " Sen",
  "1923": " clear",
  "1924": " 16",
  "1925": " One",
  "1926": " trad",
  "1927": "though",
  "1928": "ring",
  "1929": " What",
  "1930": " pract",
  "1931": " added",
  "1932": " impro",
  "1933": " experience",
  "1934": "erence",
  "1935": " film",
  "1936": "15",
  "1937": " half",
  "1938": "ustom",
  "1939": "ged",
  "1940": " hit",
  "1941": "af",
  "1942": " Bro",
  "1943": "witter",
  "1944": "rict",
  "1945": " anal",
  "1946": " prot",
  "1947": "inton",
  "1948": "ograp",
  "1949": "unch",
  "1950": " 2014",
  "1951": " rul",
  "1952": "ividual",
  "1953": " looking",
  "1954": " six",
  "1955": " live",
  "1956": " anything",
  "1957": " area",
  "1958": " complete",
  "1959": "erman",
  "1960": "minist",
  "1961": " miss",
  "1962": "rael",
  "1963": " Comm",
  "1964": " fav",
  "1965": " Ex",
  "1966": "tempt",
  "1967": " ris",
  "1968": "ai",
  "1969": "nes",
  "1970": " present",
  "1971": "ote",
  "1972": "rug",
  "1973": " saying",
  "1974": "raw",
  "1975": "aid",
  "1976": " Canad",
  "1977": " vict",
  "1978": "IN",
  "1979": "cially",
  "1980": " bad",
  "1981": "ows",
  "1982": "uge",
  "1983": " taken",
  "1984": " entire",
  "1985": "ert",
  "1986": "oto",
  "1987": " Pr",
  "1988": "ators",
  "1989": " mor",
  "1990": " bill",
  "1991": " compet",
  "1992": " Eng",
  "1993": " behind",
  "1994": "ien",
  "1995": " aut",
  "1996": "'m",
  "1997": " To",
  "1998": " court",
  "1999": "play",
  "2000": " try",
  "2001": " tre",
  "2002": "wards",
  "2003": " military",
  "2004": " z",
  "2005": " near",
  "2006": "osp",
  "2007": "What",
  "2008": " face",
  "2009": " mult",
  "2010": " 14",
  "2011": " security",
  "2012": " er",
  "2013": " Pol",
  "2014": "ps",
  "2015": "ev",
  "2016": " proper",
  "2017": " discuss",
  "2018": " threat",
  "2019": " study",
  "2020": " single",
  "2021": " rather",
  "2022": " individual",
  "2023": " Af",
  "2024": " War",
  "2025": " Brit",
  "2026": " sw",
  "2027": " \u00c2",
  "2028": " quick",
  "2029": " tot",
  "2030": " Don",
  "2031": "An",
  "2032": " mind",
  "2033": " Sec",
  "2034": "lement",
  "2035": "ales",
  "2036": "amed",
  "2037": "atic",
  "2038": " North",
  "2039": "aper",
  "2040": " publ",
  "2041": "par",
  "2042": " policy",
  "2043": " mess",
  "2044": "ris",
  "2045": " black",
  "2046": " wanted",
  "2047": " fall",
  "2048": "irc",
  "2049": "**",
  "2050": "off",
  "2051": " food",
  "2052": " sum",
  "2053": " someone",
  "2054": "lling",
  "2055": "ids",
  "2056": "On",
  "2057": " Dep",
  "2058": " Man",
  "2059": " /",
  "2060": " cult",
  "2061": " special",
  "2062": " comb",
  "2063": " key",
  "2064": " player",
  "2065": " redu",
  "2066": " |",
  "2067": " Gr",
  "2068": " bring",
  "2069": " 13",
  "2070": " compan",
  "2071": " 17",
  "2072": "ply",
  "2073": "rote",
  "2074": " attempt",
  "2075": " Bar",
  "2076": " National",
  "2077": " taking",
  "2078": "When",
  "2079": "yn",
  "2080": "ON",
  "2081": "ify",
  "2082": "olution",
  "2083": " :",
  "2084": "viron",
  "2085": " foot",
  "2086": " Cal",
  "2087": "://",
  "2088": " else",
  "2089": " pret",
  "2090": " body",
  "2091": " space",
  "2092": "over",
  "2093": "dd",
  "2094": " coun",
  "2095": "elt",
  "2096": " probably",
  "2097": "16",
  "2098": "icult",
  "2099": ".)",
  "2100": " front",
  "2101": " cou",
  "2102": " nothing",
  "2103": "ashington",
  "2104": " Im",
  "2105": " connect",
  "2106": "ches",
  "2107": " World",
  "2108": " research",
  "2109": "14",
  "2110": "ming",
  "2111": " Clinton",
  "2112": " City",
  "2113": " coming",
  "2114": " points",
  "2115": " Israel",
  "2116": "RE",
  "2117": " however",
  "2118": " describ",
  "2119": "go",
  "2120": " jo",
  "2121": " signific",
  "2122": " similar",
  "2123": "lier",
  "2124": "reme",
  "2125": "cing",
  "2126": " benef",
  "2127": " Aust",
  "2128": " decision",
  "2129": " either",
  "2130": "aces",
  "2131": " Har",
  "2132": "ault",
  "2133": " mass",
  "2134": "mb",
  "2135": " sus",
  "2136": " targ",
  "2137": "ully",
  "2138": "sy",
  "2139": "ana",
  "2140": " feat",
  "2141": "That",
  "2142": " imm",
  "2143": " conv",
  "2144": " exist",
  "2145": "irl",
  "2146": " enc",
  "2147": " 2013",
  "2148": " rights",
  "2149": " service",
  "2150": " Su",
  "2151": "asing",
  "2152": "ung",
  "2153": "IS",
  "2154": "oon",
  "2155": " fire",
  "2156": " doc",
  "2157": " wrote",
  "2158": " further",
  "2159": " house",
  "2160": "rodu",
  "2161": " ban",
  "2162": "ww",
  "2163": " fig",
  "2164": " chall",
  "2165": " third",
  "2166": " protect",
  "2167": " wa",
  "2168": " create",
  "2169": "sw",
  "2170": " stop",
  "2171": " field",
  "2172": "now",
  "2173": " pick",
  "2174": "AN",
  "2175": "ape",
  "2176": "ively",
  "2177": " meas",
  "2178": " repl",
  "2179": " compl",
  "2180": " With",
  "2181": " issues",
  "2182": "pping",
  "2183": " begin",
  "2184": " super",
  "2185": "amer",
  "2186": " step",
  "2187": "ried",
  "2188": "ently",
  "2189": " whole",
  "2190": " relations",
  "2191": " seems",
  "2192": " )",
  "2193": " tem",
  "2194": " companies",
  "2195": "pecially",
  "2196": " due",
  "2197": " exec",
  "2198": " cand",
  "2199": " everything",
  "2200": " federal",
  "2201": " states",
  "2202": " Gu",
  "2203": " ey",
  "2204": " room",
  "2205": "aul",
  "2206": " tra",
  "2207": " watch",
  "2208": " Ge",
  "2209": " custom",
  "2210": " leaders",
  "2211": "ran",
  "2212": "13",
  "2213": "uation",
  "2214": " However",
  "2215": "pite",
  "2216": " Jan",
  "2217": " Washington",
  "2218": "Ch",
  "2219": "lam",
  "2220": " role",
  "2221": " self",
  "2222": "ilt",
  "2223": " sound",
  "2224": " lab",
  "2225": "head",
  "2226": " dam",
  "2227": "ivil",
  "2228": " officials",
  "2229": " stri",
  "2230": "So",
  "2231": "lu",
  "2232": " 2012",
  "2233": "iday",
  "2234": "ibility",
  "2235": " released",
  "2236": " Inst",
  "2237": " began",
  "2238": " Dav",
  "2239": " App",
  "2240": " South",
  "2241": " opt",
  "2242": "obal",
  "2243": " students",
  "2244": " treat",
  "2245": "eal",
  "2246": " final",
  "2247": " character",
  "2248": " position",
  "2249": " matter",
  "2250": "\u00c3\u00a9",
  "2251": "ender",
  "2252": " ener",
  "2253": "lim",
  "2254": " dou",
  "2255": " outside",
  "2256": "ery",
  "2257": "sec",
  "2258": "ades",
  "2259": "vironment",
  "2260": " development",
  "2261": " statement",
  "2262": " himself",
  "2263": " 2017",
  "2264": " stat",
  "2265": " above",
  "2266": "like",
  "2267": " init",
  "2268": " break",
  "2269": " 100",
  "2270": " amount",
  "2271": " provide",
  "2272": "att",
  "2273": " hours",
  "2274": " itself",
  "2275": " themselves",
  "2276": " office",
  "2277": " represent",
  "2278": " action",
  "2279": " di",
  "2280": " became",
  "2281": " 198",
  "2282": " general",
  "2283": " continue",
  "2284": " Part",
  "2285": " countries",
  "2286": " Intern",
  "2287": " neg",
  "2288": "iod",
  "2289": " address",
  "2290": "tee",
  "2291": " 25",
  "2292": " gun",
  "2293": "aced",
  "2294": "ask",
  "2295": " true",
  "2296": " specific",
  "2297": "ograph",
  "2298": "umb",
  "2299": "arter",
  "2300": "reg",
  "2301": " larg",
  "2302": " significant",
  "2303": "lish",
  "2304": " simply",
  "2305": " Ass",
  "2306": " Res",
  "2307": " wasn",
  "2308": "'ll",
  "2309": " interview",
  "2310": "acebook",
  "2311": "ili",
  "2312": " ground",
  "2313": " rad",
  "2314": "oid",
  "2315": "ogn",
  "2316": " difficult",
  "2317": " running",
  "2318": " Just",
  "2319": " evidence",
  "2320": " administ",
  "2321": "BC",
  "2322": " cop",
  "2323": "17",
  "2324": "ream",
  "2325": " drug",
  "2326": " version",
  "2327": " bar",
  "2328": "ogle",
  "2329": " Ed",
  "2330": " agree",
  "2331": "iddle",
  "2332": "eks",
  "2333": " building",
  "2334": " China",
  "2335": " needs",
  "2336": " profess",
  "2337": "angu",
  "2338": " groups",
  "2339": " typ",
  "2340": " respons",
  "2341": " common",
  "2342": " shows",
  "2343": " everyone",
  "2344": " dom",
  "2345": " dest",
  "2346": " needed",
  "2347": " ball",
  "2348": " woman",
  "2349": " German",
  "2350": " lat",
  "2351": " below",
  "2352": "right",
  "2353": " Sep",
  "2354": "light",
  "2355": "ournal",
  "2356": " music",
  "2357": " exc",
  "2358": " release",
  "2359": "ift",
  "2360": " inj",
  "2361": " pretty",
  "2362": " Med",
  "2363": " Ab",
  "2364": "AR",
  "2365": "ribut",
  "2366": " include",
  "2367": " saw",
  "2368": " deep",
  "2369": "body",
  "2370": " ap",
  "2371": "18",
  "2372": " played",
  "2373": " quite",
  "2374": " industry",
  "2375": " charg",
  "2376": " mag",
  "2377": " energy",
  "2378": " playing",
  "2379": " mot",
  "2380": " 50",
  "2381": " candid",
  "2382": " sense",
  "2383": " phys",
  "2384": " late",
  "2385": " alleg",
  "2386": " white",
  "2387": " His",
  "2388": "ival",
  "2389": " friends",
  "2390": " gen",
  "2391": " legal",
  "2392": "atur",
  "2393": " anim",
  "2394": "isc",
  "2395": "bo",
  "2396": "yle",
  "2397": " After",
  "2398": "How",
  "2399": "AS",
  "2400": "where",
  "2401": " abs",
  "2402": "lev",
  "2403": " instead",
  "2404": " red",
  "2405": " billion",
  "2406": " lost",
  "2407": " especially",
  "2408": " value",
  "2409": " Mus",
  "2410": " West",
  "2411": " host",
  "2412": " hom",
  "2413": "time",
  "2414": "osing",
  "2415": "oring",
  "2416": " News",
  "2417": "ager",
  "2418": " ple",
  "2419": "istic",
  "2420": " weeks",
  "2421": "epend",
  "2422": " Not",
  "2423": "ccording",
  "2424": "omm",
  "2425": " forward",
  "2426": "ique",
  "2427": " deter",
  "2428": " election",
  "2429": " recently",
  "2430": " jud",
  "2431": " track",
  "2432": " suff",
  "2433": " vote",
  "2434": "lt",
  "2435": " Twitter",
  "2436": " object",
  "2437": "medi",
  "2438": " period",
  "2439": " changes",
  "2440": " opportun",
  "2441": " White",
  "2442": " Oct",
  "2443": " longer",
  "2444": "irt",
  "2445": "arc",
  "2446": "oke",
  "2447": " pain",
  "2448": " soon",
  "2449": " site",
  "2450": " {",
  "2451": " ep",
  "2452": "hod",
  "2453": "ript",
  "2454": "ached",
  "2455": " accept",
  "2456": " Cong",
  "2457": "____",
  "2458": " shoot",
  "2459": " economic",
  "2460": " hope",
  "2461": "irm",
  "2462": "oe",
  "2463": " moment",
  "2464": " decl",
  "2465": "lege",
  "2466": " consum",
  "2467": " Will",
  "2468": " pie",
  "2469": " tit",
  "2470": " check",
  "2471": "oph",
  "2472": " potential",
  "2473": " block",
  "2474": " March",
  "2475": "ij",
  "2476": "ole",
  "2477": " wrong",
  "2478": "duct",
  "2479": "ners",
  "2480": " Department",
  "2481": " higher",
  "2482": "onse",
  "2483": " cred",
  "2484": " online",
  "2485": " focus",
  "2486": " 24",
  "2487": " consider",
  "2488": "key",
  "2489": " educ",
  "2490": "ancial",
  "2491": " My",
  "2492": "ns",
  "2493": "iding",
  "2494": " circ",
  "2495": " works",
  "2496": " relig",
  "2497": " share",
  "2498": " parent",
  "2499": "cial",
  "2500": " held",
  "2501": "25",
  "2502": " pred",
  "2503": " Dr",
  "2504": " walk",
  "2505": " webs",
  "2506": " led",
  "2507": " lo",
  "2508": "ularly",
  "2509": "==",
  "2510": " reve",
  "2511": "lear",
  "2512": " stay",
  "2513": " These",
  "2514": "overed",
  "2515": " stru",
  "2516": " goal",
  "2517": " Republican",
  "2518": " risk",
  "2519": " words",
  "2520": " Aug",
  "2521": " rev",
  "2522": " sold",
  "2523": " review",
  "2524": "icro",
  "2525": " contract",
  "2526": " results",
  "2527": " services",
  "2528": " laws",
  "2529": "They",
  "2530": " code",
  "2531": "cil",
  "2532": " Mich",
  "2533": " wind",
  "2534": " function",
  "2535": " aud",
  "2536": " Syri",
  "2537": " ce",
  "2538": "put",
  "2539": " total",
  "2540": "aut",
  "2541": "fect",
  "2542": " article",
  "2543": " age",
  "2544": " applic",
  "2545": " minutes",
  "2546": "urd",
  "2547": " Me",
  "2548": " personal",
  "2549": "ilities",
  "2550": " anyone",
  "2551": "uary",
  "2552": "ients",
  "2553": "itution",
  "2554": " June",
  "2555": "asons",
  "2556": "Ad",
  "2557": "ateg",
  "2558": " prim",
  "2559": "anger",
  "2560": " target",
  "2561": " den",
  "2562": " earlier",
  "2563": "ule",
  "2564": " favor",
  "2565": " express",
  "2566": "haps",
  "2567": " dead",
  "2568": "fer",
  "2569": " answ",
  "2570": "che",
  "2571": " upd",
  "2572": " popular",
  "2573": " comput",
  "2574": " vol",
  "2575": "pril",
  "2576": " necess",
  "2577": "ham",
  "2578": " hy",
  "2579": " rate",
  "2580": "ES",
  "2581": "aging",
  "2582": " technology",
  "2583": "apan",
  "2584": " respect",
  "2585": "val",
  "2586": " Pe",
  "2587": " environment",
  "2588": " 2011",
  "2589": "Ph",
  "2590": " received",
  "2591": " Ne",
  "2592": " expected",
  "2593": " Par",
  "2594": "ember",
  "2595": "ude",
  "2596": "ends",
  "2597": " base",
  "2598": " created",
  "2599": " surpr",
  "2600": " anti",
  "2601": " Sm",
  "2602": " July",
  "2603": "alt",
  "2604": "eter",
  "2605": " problems",
  "2606": "uel",
  "2607": " ways",
  "2608": "iple",
  "2609": " port",
  "2610": "action",
  "2611": " private",
  "2612": " Do",
  "2613": " scient",
  "2614": " increase",
  "2615": "ray",
  "2616": "reet",
  "2617": " announced",
  "2618": " comment",
  "2619": "isl",
  "2620": " cannot",
  "2621": " easy",
  "2622": "Al",
  "2623": " shot",
  "2624": " Congress",
  "2625": " questions",
  "2626": " En",
  "2627": "bit",
  "2628": " force",
  "2629": "aterial",
  "2630": "hern",
  "2631": " impact",
  "2632": " et",
  "2633": " Mond",
  "2634": "na",
  "2635": "ples",
  "2636": " pack",
  "2637": " +",
  "2638": " Facebook",
  "2639": " pur",
  "2640": " langu",
  "2641": "atives",
  "2642": " God",
  "2643": "ctor",
  "2644": " involved",
  "2645": "omb",
  "2646": "aving",
  "2647": "ills",
  "2648": "60",
  "2649": "lex",
  "2650": "hood",
  "2651": "onst",
  "2652": " Austral",
  "2653": " div",
  "2654": "uesday",
  "2655": " execut",
  "2656": " model",
  "2657": "itiz",
  "2658": " sen",
  "2659": " speak",
  "2660": " staff",
  "2661": " exact",
  "2662": " civil",
  "2663": "ires",
  "2664": " nearly",
  "2665": " type",
  "2666": "ourt",
  "2667": "okes",
  "2668": " original",
  "2669": " cases",
  "2670": " content",
  "2671": " 197",
  "2672": " relationship",
  "2673": " terror",
  "2674": " Google",
  "2675": "To",
  "2676": " Friday",
  "2677": " leave",
  "2678": " response",
  "2679": " capt",
  "2680": " inside",
  "2681": " <",
  "2682": "rem",
  "2683": " phot",
  "2684": "At",
  "2685": "lled",
  "2686": " fans",
  "2687": "llig",
  "2688": " April",
  "2689": " Red",
  "2690": " international",
  "2691": " coll",
  "2692": " heart",
  "2693": " average",
  "2694": " broad",
  "2695": " arrest",
  "2696": " users",
  "2697": " Count",
  "2698": "cast",
  "2699": " cal",
  "2700": "rel",
  "2701": " cell",
  "2702": " worth",
  "2703": " soft",
  "2704": " ur",
  "2705": " living",
  "2706": " Em",
  "2707": "bor",
  "2708": "ips",
  "2709": " nation",
  "2710": "ky",
  "2711": " killed",
  "2712": " reports",
  "2713": " 2010",
  "2714": "\u00e3\u0081",
  "2715": "ging",
  "2716": " becom",
  "2717": " source",
  "2718": " Monday",
  "2719": " Tuesday",
  "2720": " subject",
  "2721": "ech",
  "2722": " worked",
  "2723": "atural",
  "2724": "ests",
  "2725": " estab",
  "2726": " immedi",
  "2727": "EN",
  "2728": " respond",
  "2729": " global",
  "2730": " associ",
  "2731": "joy",
  "2732": "tember",
  "2733": " club",
  "2734": "ops",
  "2735": " Americans",
  "2736": "ael",
  "2737": " obs",
  "2738": "ites",
  "2739": " Per",
  "2740": " Pal",
  "2741": " chance",
  "2742": " oil",
  "2743": " Act",
  "2744": " ability",
  "2745": " takes",
  "2746": "rought",
  "2747": " weap",
  "2748": "hel",
  "2749": " price",
  "2750": " Japan",
  "2751": "ological",
  "2752": " director",
  "2753": "izing",
  "2754": " workers",
  "2755": " terms",
  "2756": " tou",
  "2757": " road",
  "2758": "mon",
  "2759": " published",
  "2760": " del",
  "2761": " While",
  "2762": " phone",
  "2763": "rain",
  "2764": " collect",
  "2765": " financial",
  "2766": " mid",
  "2767": "osition",
  "2768": " decided",
  "2769": "ises",
  "2770": "OR",
  "2771": " Russia",
  "2772": " Some",
  "2773": " Wed",
  "2774": " mother",
  "2775": " squ",
  "2776": " defin",
  "2777": " lack",
  "2778": "ovember",
  "2779": " 40",
  "2780": " girl",
  "2781": " store",
  "2782": " gave",
  "2783": " buy",
  "2784": " influ",
  "2785": " Calif",
  "2786": " log",
  "2787": " happened",
  "2788": "ino",
  "2789": " require",
  "2790": " Now",
  "2791": " emer",
  "2792": " fem",
  "2793": " San",
  "2794": " capital",
  "2795": "clus",
  "2796": " foreign",
  "2797": " currently",
  "2798": " Off",
  "2799": "based",
  "2800": " goes",
  "2801": " By",
  "2802": "oved",
  "2803": " Geor",
  "2804": "vertise",
  "2805": " situation",
  "2806": " Cor",
  "2807": " indic",
  "2808": " offer",
  "2809": " whose",
  "2810": " @",
  "2811": " tal",
  "2812": " material",
  "2813": " lives",
  "2814": " affect",
  "2815": "rown",
  "2816": "ought",
  "2817": " plans",
  "2818": "nesday",
  "2819": "unt",
  "2820": "ese",
  "2821": " arri",
  "2822": " member",
  "2823": " pict",
  "2824": "ursday",
  "2825": " Feb",
  "2826": " particip",
  "2827": "ruction",
  "2828": " recogn",
  "2829": " turned",
  "2830": " method",
  "2831": " events",
  "2832": " January",
  "2833": " Hill",
  "2834": "\".",
  "2835": " network",
  "2836": "One",
  "2837": "ctions",
  "2838": " teams",
  "2839": " Sund",
  "2840": "fully",
  "2841": " bank",
  "2842": " meeting",
  "2843": "40",
  "2844": " norm",
  "2845": " introdu",
  "2846": " simple",
  "2847": " Islam",
  "2848": " ill",
  "2849": " Ag",
  "2850": " huge",
  "2851": " September",
  "2852": "oud",
  "2853": " regard",
  "2854": " areas",
  "2855": " cy",
  "2856": "order",
  "2857": " TV",
  "2858": " couple",
  "2859": " approach",
  "2860": " career",
  "2861": "aur",
  "2862": " Afric",
  "2863": " Gl",
  "2864": "load",
  "2865": "ttp",
  "2866": "\",",
  "2867": " deli",
  "2868": " race",
  "2869": "lin",
  "2870": " performance",
  "2871": " page",
  "2872": "ety",
  "2873": "apt",
  "2874": " November",
  "2875": " tool",
  "2876": " David",
  "2877": " felt",
  "2878": " quickly",
  "2879": " mis",
  "2880": " numbers",
  "2881": "oor",
  "2882": " email",
  "2883": " 21",
  "2884": "aily",
  "2885": " ord",
  "2886": " El",
  "2887": "istan",
  "2888": "ees",
  "2889": " administration",
  "2890": " hon",
  "2891": " Wednesday",
  "2892": " victim",
  "2893": " Paul",
  "2894": " via",
  "2895": " improve",
  "2896": " engine",
  "2897": " text",
  "2898": "chie",
  "2899": "--------",
  "2900": " fre",
  "2901": " pull",
  "2902": " Ang",
  "2903": " round",
  "2904": "bl",
  "2905": " built",
  "2906": " 22",
  "2907": " pers",
  "2908": " European",
  "2909": " dig",
  "2910": " Thursday",
  "2911": " father",
  "2912": "ened",
  "2913": "ornia",
  "2914": " loss",
  "2915": "avy",
  "2916": " thous",
  "2917": "\u00c2\u00ad",
  "2918": "ructure",
  "2919": " production",
  "2920": " boy",
  "2921": "ume",
  "2922": " heard",
  "2923": "eed",
  "2924": "down",
  "2925": "Sh",
  "2926": " economy",
  "2927": " enjoy",
  "2928": " August",
  "2929": " trade",
  "2930": " Sch",
  "2931": "face",
  "2932": " website",
  "2933": "iment",
  "2934": " secret",
  "2935": " cover",
  "2936": " reveal",
  "2937": " wide",
  "2938": " board",
  "2939": " match",
  "2940": "AL",
  "2941": " allowed",
  "2942": " Court",
  "2943": " hands",
  "2944": " spent",
  "2945": " travel",
  "2946": " lower",
  "2947": " bi",
  "2948": " repe",
  "2949": "atory",
  "2950": " poll",
  "2951": " included",
  "2952": " ste",
  "2953": "cember",
  "2954": " October",
  "2955": " neigh",
  "2956": " legisl",
  "2957": "orters",
  "2958": "uses",
  "2959": " behav",
  "2960": "iction",
  "2961": " knew",
  "2962": " wants",
  "2963": " town",
  "2964": "?\u00e2\u0080\u009d",
  "2965": "ights",
  "2966": " British",
  "2967": " separ",
  "2968": "ences",
  "2969": "estern",
  "2970": " visit",
  "2971": " Canada",
  "2972": "rect",
  "2973": "anks",
  "2974": "With",
  "2975": " perfect",
  "2976": " gets",
  "2977": "ession",
  "2978": " movement",
  "2979": "ze",
  "2980": "ishing",
  "2981": "ground",
  "2982": "agement",
  "2983": " tried",
  "2984": " cause",
  "2985": "\u00e2\u0080\u009d.",
  "2986": "gest",
  "2987": " }",
  "2988": " forces",
  "2989": " Sunday",
  "2990": " ens",
  "2991": "After",
  "2992": "force",
  "2993": "ceed",
  "2994": " attention",
  "2995": " particular",
  "2996": "][",
  "2997": "ening",
  "2998": " veh",
  "2999": " bud",
  "3000": " fear",
  "3001": " population",
  "3002": " various",
  "3003": " UK",
  "3004": " reach",
  "3005": "ma",
  "3006": " looks",
  "3007": " 23",
  "3008": " California",
  "3009": " brought",
  "3010": " vo",
  "3011": " Kore",
  "3012": " link",
  "3013": "ibly",
  "3014": ");",
  "3015": "urning",
  "3016": "arily",
  "3017": " IS",
  "3018": "200",
  "3019": " previous",
  "3020": "ED",
  "3021": " mention",
  "3022": " Russian",
  "3023": " morning",
  "3024": " Qu",
  "3025": "cle",
  "3026": "idered",
  "3027": " Sw",
  "3028": "'d",
  "3029": " fair",
  "3030": " growth",
  "3031": "aker",
  "3032": "undred",
  "3033": "99",
  "3034": "sequ",
  "3035": "yond",
  "3036": " progress",
  "3037": " fell",
  "3038": "raz",
  "3039": "alled",
  "3040": " song",
  "3041": "iam",
  "3042": "AC",
  "3043": " training",
  "3044": "hold",
  "3045": " size",
  "3046": "uk",
  "3047": "Re",
  "3048": " Black",
  "3049": "cies",
  "3050": " December",
  "3051": "idents",
  "3052": "field",
  "3053": "ledge",
  "3054": " Her",
  "3055": " contact",
  "3056": " demand",
  "3057": "While",
  "3058": " image",
  "3059": " hor",
  "3060": " rac",
  "3061": " hot",
  "3062": "ification",
  "3063": "OS",
  "3064": " leader",
  "3065": "ecause",
  "3066": " rules",
  "3067": " liber",
  "3068": " prep",
  "3069": " search",
  "3070": " ess",
  "3071": " Post",
  "3072": "set",
  "3073": " citiz",
  "3074": " upon",
  "3075": " strugg",
  "3076": " Street",
  "3077": " latest",
  "3078": "come",
  "3079": " independ",
  "3080": "US",
  "3081": "uments",
  "3082": "inks",
  "3083": "arth",
  "3084": " features",
  "3085": " coach",
  "3086": "ondon",
  "3087": " Park",
  "3088": "ges",
  "3089": "Tr",
  "3090": " fast",
  "3091": " talking",
  "3092": " Cont",
  "3093": " Jew",
  "3094": " addition",
  "3095": " star",
  "3096": " wond",
  "3097": " Senate",
  "3098": "de",
  "3099": "oo",
  "3100": "IT",
  "3101": " Pat",
  "3102": " speed",
  "3103": " exam",
  "3104": "iant",
  "3105": " considered",
  "3106": "raq",
  "3107": "icles",
  "3108": "aries",
  "3109": " reb",
  "3110": "omp",
  "3111": "bed",
  "3112": " levels",
  "3113": "eth",
  "3114": " Times",
  "3115": " County",
  "3116": "lligence",
  "3117": " slow",
  "3118": " investigation",
  "3119": "ille",
  "3120": " conduct",
  "3121": "aph",
  "3122": " Party",
  "3123": "22",
  "3124": " King",
  "3125": " medical",
  "3126": " mach",
  "3127": "imately",
  "3128": "vent",
  "3129": " achie",
  "3130": " language",
  "3131": "aturday",
  "3132": " card",
  "3133": " sn",
  "3134": "unk",
  "3135": " critic",
  "3136": " sort",
  "3137": "ope",
  "3138": " Center",
  "3139": " Tex",
  "3140": " pen",
  "3141": " und",
  "3142": "wo",
  "3143": " India",
  "3144": " paper",
  "3145": "ysis",
  "3146": "IC",
  "3147": " 2008",
  "3148": "pir",
  "3149": " conserv",
  "3150": " parents",
  "3151": "imin",
  "3152": " sexual",
  "3153": " systems",
  "3154": " prior",
  "3155": "ha",
  "3156": "uit",
  "3157": "asc",
  "3158": " doll",
  "3159": " written",
  "3160": "uf",
  "3161": " safe",
  "3162": " box",
  "3163": " spokes",
  "3164": "igr",
  "3165": " seek",
  "3166": " sens",
  "3167": " document",
  "3168": "het",
  "3169": "idge",
  "3170": "eared",
  "3171": " increasing",
  "3172": " hear",
  "3173": "ani",
  "3174": "atform",
  "3175": " draw",
  "3176": " seven",
  "3177": " son",
  "3178": " Muslim",
  "3179": " effort",
  "3180": "ruary",
  "3181": " jobs",
  "3182": "sych",
  "3183": " Iran",
  "3184": " extreme",
  "3185": " prevent",
  "3186": " learn",
  "3187": "ining",
  "3188": " serious",
  "3189": " regul",
  "3190": " inn",
  "3191": " range",
  "3192": "room",
  "3193": "rast",
  "3194": " violence",
  "3195": " Mark",
  "3196": "80",
  "3197": "ources",
  "3198": " Iraq",
  "3199": "itch",
  "3200": "OP",
  "3201": " surve",
  "3202": " completely",
  "3203": " conc",
  "3204": " ...",
  "3205": " 2009",
  "3206": " message",
  "3207": "tr",
  "3208": "ico",
  "3209": " \u00e2",
  "3210": "She",
  "3211": " obv",
  "3212": " interesting",
  "3213": "reedom",
  "3214": " screen",
  "3215": "abor",
  "3216": " opportunity",
  "3217": " Ke",
  "3218": " Char",
  "3219": "eff",
  "3220": " climate",
  "3221": "24",
  "3222": " majority",
  "3223": "anced",
  "3224": " particularly",
  "3225": " doub",
  "3226": " journal",
  "3227": " Rom",
  "3228": " despite",
  "3229": " claims",
  "3230": " answer",
  "3231": " society",
  "3232": "mp",
  "3233": " London",
  "3234": " defense",
  "3235": " carry",
  "3236": "entially",
  "3237": "aming",
  "3238": " guy",
  "3239": " extra",
  "3240": "ension",
  "3241": " Donald",
  "3242": "isions",
  "3243": " attacks",
  "3244": " required",
  "3245": "erve",
  "3246": "rench",
  "3247": "illed",
  "3248": " biggest",
  "3249": "vertisement",
  "3250": " exactly",
  "3251": " East",
  "3252": " paid",
  "3253": " More",
  "3254": "iers",
  "3255": "ibr",
  "3256": " experien",
  "3257": " aren",
  "3258": "lying",
  "3259": "uclear",
  "3260": "inese",
  "3261": " modern",
  "3262": " remain",
  "3263": " quarter",
  "3264": " officers",
  "3265": " hundred",
  "3266": " cross",
  "3267": " except",
  "3268": " Net",
  "3269": "utions",
  "3270": "ari",
  "3271": " table",
  "3272": " practice",
  "3273": " natural",
  "3274": "inally",
  "3275": " middle",
  "3276": "erc",
  "3277": " 27",
  "3278": " certainly",
  "3279": " dro",
  "3280": "oses",
  "3281": " Saturday",
  "3282": " stories",
  "3283": " histor",
  "3284": " gas",
  "3285": " products",
  "3286": " surv",
  "3287": " looked",
  "3288": " sometimes",
  "3289": "nces",
  "3290": " stuff",
  "3291": " science",
  "3292": " finally",
  "3293": " user",
  "3294": "AM",
  "3295": " summer",
  "3296": " movie",
  "3297": " blood",
  "3298": "ospital",
  "3299": "aves",
  "3300": " communic",
  "3301": " aw",
  "3302": "ously",
  "3303": " lay",
  "3304": " changed",
  "3305": " ones",
  "3306": "add",
  "3307": " leading",
  "3308": " described",
  "3309": " Sand",
  "3310": " imag",
  "3311": " term",
  "3312": " eight",
  "3313": " February",
  "3314": " prison",
  "3315": " convers",
  "3316": "fl",
  "3317": "ny",
  "3318": " details",
  "3319": "icks",
  "3320": " starting",
  "3321": " Spe",
  "3322": " quality",
  "3323": " occur",
  "3324": " pan",
  "3325": "hib",
  "3326": " showed",
  "3327": " named",
  "3328": " giving",
  "3329": " ult",
  "3330": " remains",
  "3331": " McC",
  "3332": "uing",
  "3333": " region",
  "3334": "pper",
  "3335": " provided",
  "3336": " costs",
  "3337": "akers",
  "3338": " Soc",
  "3339": "arr",
  "3340": " damage",
  "3341": " Mor",
  "3342": " mob",
  "3343": " danger",
  "3344": " fit",
  "3345": " TH",
  "3346": " Tur",
  "3347": " chief",
  "3348": "aught",
  "3349": " poor",
  "3350": " path",
  "3351": "ida",
  "3352": " education",
  "3353": " multiple",
  "3354": " continued",
  "3355": "ett",
  "3356": "enge",
  "3357": " growing",
  "3358": "No",
  "3359": " demonst",
  "3360": " *",
  "3361": " Che",
  "3362": " parts",
  "3363": "yl",
  "3364": " 26",
  "3365": " writing",
  "3366": " comments",
  "3367": " 28",
  "3368": " ment",
  "3369": " maintain",
  "3370": " assist",
  "3371": " thinking",
  "3372": " Des",
  "3373": "inary",
  "3374": " Republicans",
  "3375": " Even",
  "3376": " purp",
  "3377": " request",
  "3378": " write",
  "3379": " fix",
  "3380": " item",
  "3381": " purch",
  "3382": " Coun",
  "3383": "ables",
  "3384": " died",
  "3385": " Democratic",
  "3386": "FL",
  "3387": "coin",
  "3388": "ago",
  "3389": " ready",
  "3390": " wouldn",
  "3391": " implement",
  "3392": "23",
  "3393": " increased",
  "3394": " culture",
  "3395": " efforts",
  "3396": " voters",
  "3397": "ux",
  "3398": " camer",
  "3399": " mill",
  "3400": "aly",
  "3401": "....",
  "3402": "pre",
  "3403": "oper",
  "3404": " reading",
  "3405": "mitted",
  "3406": "iminal",
  "3407": " file",
  "3408": " calls",
  "3409": " usually",
  "3410": " spot",
  "3411": " effects",
  "3412": "Im",
  "3413": " Gener",
  "3414": "zz",
  "3415": "ban",
  "3416": " perhaps",
  "3417": "arian",
  "3418": " alone",
  "3419": "fort",
  "3420": "iles",
  "3421": " First",
  "3422": " Mon",
  "3423": " although",
  "3424": " towards",
  "3425": " League",
  "3426": " consist",
  "3427": " Bill",
  "3428": " Texas",
  "3429": " select",
  "3430": " guys",
  "3431": " standard",
  "3432": " Michael",
  "3433": " subst",
  "3434": " cele",
  "3435": " beyond",
  "3436": " directly",
  "3437": " Chinese",
  "3438": " platform",
  "3439": " (@",
  "3440": " hous",
  "3441": "using",
  "3442": "itute",
  "3443": " speech",
  "3444": "tered",
  "3445": " reality",
  "3446": "icated",
  "3447": " kids",
  "3448": " James",
  "3449": " avoid",
  "3450": " throughout",
  "3451": " football",
  "3452": " student",
  "3453": "ara",
  "3454": " couldn",
  "3455": "rowd",
  "3456": "BI",
  "3457": " unf",
  "3458": "ford",
  "3459": " immediately",
  "3460": "oul",
  "3461": " rob",
  "3462": " includes",
  "3463": " cat",
  "3464": " concept",
  "3465": " center",
  "3466": " choice",
  "3467": " scene",
  "3468": " complex",
  "3469": "anch",
  "3470": " additional",
  "3471": "sp",
  "3472": " challeng",
  "3473": " Cons",
  "3474": " wife",
  "3475": " clos",
  "3476": "urt",
  "3477": " tro",
  "3478": " recomm",
  "3479": " researc",
  "3480": " epis",
  "3481": "hest",
  "3482": "itor",
  "3483": " ver",
  "3484": " Minister",
  "3485": " sle",
  "3486": "All",
  "3487": " corpor",
  "3488": " \u00e2\u0080\u00a6",
  "3489": " designed",
  "3490": " Ser",
  "3491": "urg",
  "3492": "agon",
  "3493": " remember",
  "3494": " safety",
  "3495": " software",
  "3496": " Indian",
  "3497": "wise",
  "3498": " gone",
  "3499": " il",
  "3500": "astic",
  "3501": "ports",
  "3502": " sell",
  "3503": " toward",
  "3504": " agency",
  "3505": " ten",
  "3506": " officer",
  "3507": "aches",
  "3508": " figure",
  "3509": " piece",
  "3510": " brain",
  "3511": "omen",
  "3512": " battle",
  "3513": " Jack",
  "3514": "men",
  "3515": " counter",
  "3516": " debate",
  "3517": "airs",
  "3518": "ression",
  "3519": "ston",
  "3520": " thousands",
  "3521": "adem",
  "3522": "rupt",
  "3523": " opin",
  "3524": " ahead",
  "3525": "icient",
  "3526": "Now",
  "3527": "imum",
  "3528": " relative",
  "3529": "irth",
  "3530": " letter",
  "3531": " receive",
  "3532": " pressure",
  "3533": " \u00d0",
  "3534": " blog",
  "3535": "oes",
  "3536": "ilies",
  "3537": "ampions",
  "3538": " >",
  "3539": " sil",
  "3540": " moved",
  "3541": " launch",
  "3542": " appears",
  "3543": " option",
  "3544": " Play",
  "3545": " passed",
  "3546": " ut",
  "3547": " clean",
  "3548": " prec",
  "3549": " stage",
  "3550": "roy",
  "3551": " 60",
  "3552": " Bo",
  "3553": " Serv",
  "3554": "olute",
  "3555": " II",
  "3556": "atever",
  "3557": "berg",
  "3558": "OT",
  "3559": " property",
  "3560": "27",
  "3561": " helped",
  "3562": "amb",
  "3563": " drive",
  "3564": " Apple",
  "3565": "just",
  "3566": " alleged",
  "3567": " Green",
  "3568": " twe",
  "3569": "new",
  "3570": " disapp",
  "3571": " tour",
  "3572": " meaning",
  "3573": " rock",
  "3574": " dog",
  "3575": " x",
  "3576": " cris",
  "3577": "itation",
  "3578": " Associ",
  "3579": " suspect",
  "3580": " date",
  "3581": " Rich",
  "3582": "aughter",
  "3583": " moving",
  "3584": " score",
  "3585": " Democrats",
  "3586": " organization",
  "3587": " sat",
  "3588": " conditions",
  "3589": " touch",
  "3590": " dark",
  "3591": " command",
  "3592": " Then",
  "3593": "?\"",
  "3594": " ign",
  "3595": " reasons",
  "3596": " budget",
  "3597": " park",
  "3598": "more",
  "3599": " nuclear",
  "3600": " myself",
  "3601": " nom",
  "3602": " deg",
  "3603": " happy",
  "3604": " device",
  "3605": " difference",
  "3606": "rief",
  "3607": " Sim",
  "3608": " maybe",
  "3609": "chan",
  "3610": " beginning",
  "3611": "AD",
  "3612": " copy",
  "3613": " nature",
  "3614": " failed",
  "3615": " fan",
  "3616": "yan",
  "3617": "wood",
  "3618": " characters",
  "3619": " cast",
  "3620": " computer",
  "3621": " encour",
  "3622": " aim",
  "3623": " title",
  "3624": " wall",
  "3625": " compared",
  "3626": " league",
  "3627": "ocked",
  "3628": " Super",
  "3629": "ivity",
  "3630": " estim",
  "3631": " Val",
  "3632": " Star",
  "3633": " college",
  "3634": " eyes",
  "3635": " shown",
  "3636": " English",
  "3637": " century",
  "3638": " powerful",
  "3639": " Day",
  "3640": "lease",
  "3641": "ource",
  "3642": " bal",
  "3643": "aint",
  "3644": " limited",
  "3645": " yes",
  "3646": " band",
  "3647": " contribut",
  "3648": " positive",
  "3649": " forced",
  "3650": " sche",
  "3651": " necessary",
  "3652": " refer",
  "3653": " candidate",
  "3654": " stra",
  "3655": " disp",
  "3656": "35",
  "3657": "cient",
  "3658": " books",
  "3659": " trust",
  "3660": "AP",
  "3661": " French",
  "3662": " largest",
  "3663": "26",
  "3664": " arch",
  "3665": "enty",
  "3666": " sal",
  "3667": " Here",
  "3668": " conference",
  "3669": " Rober",
  "3670": "aud",
  "3671": " note",
  "3672": " analysis",
  "3673": "ufact",
  "3674": " spending",
  "3675": " presidential",
  "3676": "45",
  "3677": " Of",
  "3678": " citizens",
  "3679": "orks",
  "3680": " schools",
  "3681": " Mart",
  "3682": "igration",
  "3683": " Syria",
  "3684": " throw",
  "3685": "Be",
  "3686": "venue",
  "3687": " Ben",
  "3688": " aware",
  "3689": " meant",
  "3690": " executive",
  "3691": " eventually",
  "3692": "My",
  "3693": " physical",
  "3694": " followed",
  "3695": " feature",
  "3696": " Tor",
  "3697": " treatment",
  "3698": " crowd",
  "3699": " Wind",
  "3700": " firm",
  "3701": " Air",
  "3702": " streng",
  "3703": " confir",
  "3704": " mix",
  "3705": " bott",
  "3706": "ero",
  "3707": "orney",
  "3708": " 29",
  "3709": "ares",
  "3710": " Dis",
  "3711": " grad",
  "3712": " religious",
  "3713": " easily",
  "3714": "board",
  "3715": " autom",
  "3716": " esc",
  "3717": " pus",
  "3718": "band",
  "3719": "Is",
  "3720": " cool",
  "3721": "etro",
  "3722": " 196",
  "3723": " families",
  "3724": " illeg",
  "3725": "ressed",
  "3726": "craft",
  "3727": "cul",
  "3728": "rated",
  "3729": " actions",
  "3730": " overall",
  "3731": " Mex",
  "3732": " allows",
  "3733": " gives",
  "3734": " feed",
  "3735": " \u00c2\u00a3",
  "3736": "ube",
  "3737": "):",
  "3738": " susp",
  "3739": " yourself",
  "3740": "By",
  "3741": " draft",
  "3742": "bum",
  "3743": "ken",
  "3744": " appeared",
  "3745": " smart",
  "3746": " detail",
  "3747": " income",
  "3748": "iring",
  "3749": " analy",
  "3750": " Bel",
  "3751": " signed",
  "3752": "New",
  "3753": "encies",
  "3754": " central",
  "3755": " ideas",
  "3756": " ang",
  "3757": " Govern",
  "3758": " senior",
  "3759": "Advertisement",
  "3760": " frequ",
  "3761": " weapons",
  "3762": " har",
  "3763": "ID",
  "3764": " display",
  "3765": " promot",
  "3766": " nice",
  "3767": " credit",
  "3768": " decades",
  "3769": " psych",
  "3770": " politics",
  "3771": "Don",
  "3772": " crime",
  "3773": "OM",
  "3774": "EC",
  "3775": " uses",
  "3776": "inn",
  "3777": " door",
  "3778": " dise",
  "3779": "uty",
  "3780": " International",
  "3781": " unique",
  "3782": "28",
  "3783": " swe",
  "3784": " altern",
  "3785": " lif",
  "3786": "According",
  "3787": "mar",
  "3788": " drop",
  "3789": " sales",
  "3790": " developed",
  "3791": "Ar",
  "3792": "resh",
  "3793": " customers",
  "3794": "ET",
  "3795": " benefits",
  "3796": " conflic",
  "3797": "urance",
  "3798": " related",
  "3799": " crisis",
  "3800": " School",
  "3801": " mist",
  "3802": "erry",
  "3803": "iable",
  "3804": " predict",
  "3805": " noted",
  "3806": " Cap",
  "3807": "29",
  "3808": " Australia",
  "3809": " EU",
  "3810": " truth",
  "3811": "box",
  "3812": " goals",
  "3813": "iny",
  "3814": " individuals",
  "3815": " charge",
  "3816": " Earth",
  "3817": "part",
  "3818": " beaut",
  "3819": " continues",
  "3820": "onents",
  "3821": " Union",
  "3822": " Arab",
  "3823": " observ",
  "3824": " rap",
  "3825": " challenge",
  "3826": " sto",
  "3827": "nown",
  "3828": " apparent",
  "3829": " Angel",
  "3830": "itely",
  "3831": " Smith",
  "3832": " lic",
  "3833": " projects",
  "3834": " peace",
  "3835": " measure",
  "3836": " Police",
  "3837": " correct",
  "3838": "oti",
  "3839": " intelligence",
  "3840": " Christian",
  "3841": " previously",
  "3842": " Germany",
  "3843": " fully",
  "3844": " rule",
  "3845": " manager",
  "3846": " brother",
  "3847": " rates",
  "3848": " advant",
  "3849": "Un",
  "3850": "change",
  "3851": " expand",
  "3852": " clearly",
  "3853": " reform",
  "3854": " lines",
  "3855": "net",
  "3856": " successful",
  "3857": "riage",
  "3858": " highly",
  "3859": " larger",
  "3860": "ounds",
  "3861": "21",
  "3862": " traff",
  "3863": " spread",
  "3864": "iance",
  "3865": " seemed",
  "3866": " Council",
  "3867": "ki",
  "3868": " straight",
  "3869": "Some",
  "3870": " Comp",
  "3871": " criminal",
  "3872": " minor",
  "3873": " emb",
  "3874": " George",
  "3875": " programs",
  "3876": "iced",
  "3877": "attle",
  "3878": "owers",
  "3879": " Franc",
  "3880": " incident",
  "3881": " resources",
  "3882": " Tom",
  "3883": " greater",
  "3884": " primary",
  "3885": "IA",
  "3886": "antly",
  "3887": "inated",
  "3888": " knowledge",
  "3889": " studies",
  "3890": "while",
  "3891": "dom",
  "3892": " save",
  "3893": "orter",
  "3894": " web",
  "3895": "ategy",
  "3896": " kept",
  "3897": " attract",
  "3898": " Flor",
  "3899": "olic",
  "3900": " spir",
  "3901": "que",
  "3902": " emot",
  "3903": " color",
  "3904": " feet",
  "3905": "ean",
  "3906": " Cr",
  "3907": "sey",
  "3908": " rare",
  "3909": " reached",
  "3910": "secut",
  "3911": " arm",
  "3912": " High",
  "3913": "levision",
  "3914": " Internet",
  "3915": " Brown",
  "3916": "oday",
  "3917": "iders",
  "3918": "osh",
  "3919": "rs",
  "3920": " favorite",
  "3921": " places",
  "3922": " Rec",
  "3923": " regular",
  "3924": "wide",
  "3925": "ota",
  "3926": " manufact",
  "3927": " laun",
  "3928": " Def",
  "3929": "100",
  "3930": " send",
  "3931": " prem",
  "3932": " Ham",
  "3933": "roll",
  "3934": "lick",
  "3935": "icit",
  "3936": " knows",
  "3937": " shooting",
  "3938": " activity",
  "3939": " pun",
  "3940": " sources",
  "3941": " normal",
  "3942": "icago",
  "3943": "bon",
  "3944": "term",
  "3945": "onent",
  "3946": "ingly",
  "3947": "ser",
  "3948": " Ant",
  "3949": "ville",
  "3950": " status",
  "3951": " fighting",
  "3952": " voice",
  "3953": " rise",
  "3954": "ocks",
  "3955": " fine",
  "3956": " owners",
  "3957": " caused",
  "3958": " claimed",
  "3959": " Mac",
  "3960": " enem",
  "3961": " liter",
  "3962": " Rob",
  "3963": " General",
  "3964": "aith",
  "3965": "EO",
  "3966": " options",
  "3967": " 2007",
  "3968": " integr",
  "3969": "ength",
  "3970": " Up",
  "3971": "usion",
  "3972": " spend",
  "3973": " Gold",
  "3974": "ado",
  "3975": " cities",
  "3976": "miss",
  "3977": " organiz",
  "3978": "ING",
  "3979": " ended",
  "3980": "iled",
  "3981": " researchers",
  "3982": " calling",
  "3983": " shut",
  "3984": " reflect",
  "3985": " La",
  "3986": "mission",
  "3987": "Pro",
  "3988": "mark",
  "3989": "org",
  "3990": "\u00e2\u0080\u009d,",
  "3991": "oles",
  "3992": "70",
  "3993": "roid",
  "3994": " prices",
  "3995": " Every",
  "3996": " album",
  "3997": " From",
  "3998": "ifying",
  "3999": " employees",
  "4000": " female",
  "4001": " England",
  "4002": "ya",
  "4003": "www",
  "4004": " virt",
  "4005": " haven",
  "4006": " ele",
  "4007": " raised",
  "4008": "mittee",
  "4009": " jump",
  "4010": "uana",
  "4011": "33",
  "4012": " supposed",
  "4013": "itness",
  "4014": " happens",
  "4015": " adding",
  "4016": " policies",
  "4017": " names",
  "4018": " charges",
  "4019": " Bre",
  "4020": " pros",
  "4021": " trou",
  "4022": "ribution",
  "4023": "ica",
  "4024": "uman",
  "4025": " basic",
  "4026": "iverse",
  "4027": "Not",
  "4028": " Mag",
  "4029": " concerns",
  "4030": " traditional",
  "4031": " wait",
  "4032": "inger",
  "4033": " absolute",
  "4034": " acqu",
  "4035": " plant",
  "4036": " hospital",
  "4037": " funding",
  "4038": "ram",
  "4039": " Bay",
  "4040": " slight",
  "4041": " commer",
  "4042": "rol",
  "4043": " print",
  "4044": " patients",
  "4045": "Sc",
  "4046": " authorities",
  "4047": " minister",
  "4048": "vere",
  "4049": " creating",
  "4050": " http",
  "4051": " freedom",
  "4052": " AP",
  "4053": " mechan",
  "4054": " scen",
  "4055": " style",
  "4056": " Mo",
  "4057": " seeing",
  "4058": " grand",
  "4059": ".\u00e2\u0080\u0099",
  "4060": " beat",
  "4061": " lik",
  "4062": "rian",
  "4063": "ona",
  "4064": " station",
  "4065": " Scott",
  "4066": "see",
  "4067": " push",
  "4068": "ijuana",
  "4069": " behavior",
  "4070": " beg",
  "4071": " leaving",
  "4072": " cry",
  "4073": " impl",
  "4074": " birth",
  "4075": " ir",
  "4076": " actual",
  "4077": "EL",
  "4078": " ensure",
  "4079": "pen",
  "4080": " offered",
  "4081": " agreement",
  "4082": " Florida",
  "4083": " eth",
  "4084": " Ber",
  "4085": "soft",
  "4086": " Hillary",
  "4087": " posted",
  "4088": " gold",
  "4089": " Sun",
  "4090": " weekend",
  "4091": " green",
  "4092": " Most",
  "4093": " Reg",
  "4094": "alse",
  "4095": " weight",
  "4096": "OU",
  "4097": " eye",
  "4098": ".'",
  "4099": "acing",
  "4100": " determin",
  "4101": " vac",
  "4102": "Here",
  "4103": " revealed",
  "4104": " Well",
  "4105": " application",
  "4106": " mostly",
  "4107": " values",
  "4108": " propos",
  "4109": " Alex",
  "4110": "itude",
  "4111": "aby",
  "4112": " willing",
  "4113": "earch",
  "4114": " rank",
  "4115": " adop",
  "4116": " According",
  "4117": " adult",
  "4118": "ttps",
  "4119": " establ",
  "4120": " records",
  "4121": "\u00e2\u0080\u00a2",
  "4122": "500",
  "4123": " enforce",
  "4124": " picture",
  "4125": " believed",
  "4126": " Let",
  "4127": " mer",
  "4128": "pri",
  "4129": "uild",
  "4130": " brief",
  "4131": " learned",
  "4132": " Law",
  "4133": " install",
  "4134": " strategy",
  "4135": " appl",
  "4136": "SA",
  "4137": "igned",
  "4138": " choose",
  "4139": "istry",
  "4140": " dire",
  "4141": " wonder",
  "4142": " qual",
  "4143": " massive",
  "4144": "cher",
  "4145": " devices",
  "4146": " benefit",
  "4147": " wild",
  "4148": " parties",
  "4149": " Chicago",
  "4150": " lawy",
  "4151": " uns",
  "4152": "gen",
  "4153": " People",
  "4154": " cars",
  "4155": " Trans",
  "4156": " Phil",
  "4157": " arrested",
  "4158": " Mat",
  "4159": " mount",
  "4160": " whatever",
  "4161": " wat",
  "4162": " Oh",
  "4163": " France",
  "4164": " street",
  "4165": " ;",
  "4166": " provides",
  "4167": " whom",
  "4168": " assault",
  "4169": "90",
  "4170": "ties",
  "4171": "liament",
  "4172": " asking",
  "4173": " influence",
  "4174": " judge",
  "4175": " lose",
  "4176": " fat",
  "4177": " feeling",
  "4178": "ste",
  "4179": " operations",
  "4180": " produced",
  "4181": " temper",
  "4182": "cont",
  "4183": " critical",
  "4184": " Secret",
  "4185": " Lou",
  "4186": " negoti",
  "4187": " mission",
  "4188": " enter",
  "4189": " Bush",
  "4190": "Ex",
  "4191": " images",
  "4192": "\u00d0\u00be",
  "4193": " Stud",
  "4194": " confirmed",
  "4195": "point",
  "4196": " showing",
  "4197": "IL",
  "4198": " Port",
  "4199": " district",
  "4200": "ription",
  "4201": " runs",
  "4202": " pattern",
  "4203": " tend",
  "4204": " border",
  "4205": " residents",
  "4206": "ae",
  "4207": "orial",
  "4208": "rav",
  "4209": " debt",
  "4210": "However",
  "4211": " \u00c3",
  "4212": "aked",
  "4213": "no",
  "4214": " cru",
  "4215": " teac",
  "4216": "mine",
  "4217": " Committee",
  "4218": "la",
  "4219": "udd",
  "4220": " opposition",
  "4221": " celebr",
  "4222": " Wall",
  "4223": " Health",
  "4224": " section",
  "4225": " defend",
  "4226": " etc",
  "4227": "estic",
  "4228": " produce",
  "4229": "Le",
  "4230": "icial",
  "4231": " Inte",
  "4232": " Commission",
  "4233": " drink",
  "4234": " independent",
  "4235": " Mod",
  "4236": "ront",
  "4237": "cell",
  "4238": " Why",
  "4239": " brand",
  "4240": "ented",
  "4241": "ags",
  "4242": "ugg",
  "4243": " core",
  "4244": " Press",
  "4245": " tick",
  "4246": " digital",
  "4247": " Bit",
  "4248": " hero",
  "4249": " advoc",
  "4250": " dollars",
  "4251": "ocr",
  "4252": "rial",
  "4253": " effective",
  "4254": " solution",
  "4255": " Mal",
  "4256": " vill",
  "4257": " interested",
  "4258": " Sam",
  "4259": " Korea",
  "4260": "BA",
  "4261": " highest",
  "4262": "ords",
  "4263": " memory",
  "4264": " opening",
  "4265": " worse",
  "4266": " learning",
  "4267": " responsible",
  "4268": " trial",
  "4269": " daily",
  "4270": " kick",
  "4271": " theory",
  "4272": " Other",
  "4273": " offers",
  "4274": " Palest",
  "4275": " replace",
  "4276": " restrict",
  "4277": " Get",
  "4278": " mur",
  "4279": " Office",
  "4280": " agreed",
  "4281": " television",
  "4282": " Francis",
  "4283": "cience",
  "4284": " Micro",
  "4285": " Because",
  "4286": " occas",
  "4287": "CC",
  "4288": "ST",
  "4289": "illing",
  "4290": " vs",
  "4291": " detect",
  "4292": " train",
  "4293": "aste",
  "4294": " investment",
  "4295": " types",
  "4296": "iation",
  "4297": " Western",
  "4298": "aks",
  "4299": "icians",
  "4300": " chair",
  "4301": " miles",
  "4302": " millions",
  "4303": "Con",
  "4304": "uries",
  "4305": " chem",
  "4306": " Justice",
  "4307": " Del",
  "4308": " generally",
  "4309": " basis",
  "4310": " proposed",
  "4311": " 80",
  "4312": " Mike",
  "4313": " Mil",
  "4314": " Cup",
  "4315": "These",
  "4316": "ipe",
  "4317": " heavy",
  "4318": " explained",
  "4319": " map",
  "4320": " Our",
  "4321": "AA",
  "4322": "rad",
  "4323": " der",
  "4324": " bur",
  "4325": "oly",
  "4326": "win",
  "4327": " partners",
  "4328": " Add",
  "4329": "ander",
  "4330": " opinion",
  "4331": " defe",
  "4332": " onto",
  "4333": " protest",
  "4334": "________",
  "4335": "Get",
  "4336": " associated",
  "4337": " load",
  "4338": "rig",
  "4339": "azing",
  "4340": " NFL",
  "4341": "rate",
  "4342": "oom",
  "4343": "44",
  "4344": " Found",
  "4345": " male",
  "4346": " becomes",
  "4347": " reject",
  "4348": "vest",
  "4349": "outhern",
  "4350": "====",
  "4351": " Security",
  "4352": " coal",
  "4353": " obtain",
  "4354": " destroy",
  "4355": " advantage",
  "4356": " assum",
  "4357": " Liber",
  "4358": " condition",
  "4359": " announce",
  "4360": " hundreds",
  "4361": "ading",
  "4362": " achieve",
  "4363": " opened",
  "4364": "Cl",
  "4365": "eline",
  "4366": " understanding",
  "4367": "odes",
  "4368": " Johnson",
  "4369": "coming",
  "4370": "icip",
  "4371": " surround",
  "4372": "well",
  "4373": "orthern",
  "4374": "bert",
  "4375": "upp",
  "4376": " initial",
  "4377": " Big",
  "4378": " sleep",
  "4379": "36",
  "4380": " ship",
  "4381": "rey",
  "4382": " marriage",
  "4383": " management",
  "4384": " Windows",
  "4385": " thus",
  "4386": " limit",
  "4387": " born",
  "4388": "32",
  "4389": " becoming",
  "4390": "known",
  "4391": " photo",
  "4392": " easier",
  "4393": "FC",
  "4394": " Great",
  "4395": " rat",
  "4396": " legislation",
  "4397": " controvers",
  "4398": " unlike",
  "4399": " electric",
  "4400": " Many",
  "4401": " camera",
  "4402": "witch",
  "4403": " accused",
  "4404": " spl",
  "4405": " neighbor",
  "4406": " double",
  "4407": " ice",
  "4408": " species",
  "4409": " shared",
  "4410": " join",
  "4411": " illegal",
  "4412": " 31",
  "4413": " Lab",
  "4414": " 2006",
  "4415": "Mr",
  "4416": " machine",
  "4417": " harm",
  "4418": " served",
  "4419": " Jer",
  "4420": "GB",
  "4421": " extremely",
  "4422": "olf",
  "4423": " active",
  "4424": " 35",
  "4425": " serve",
  "4426": " documents",
  "4427": " Islamic",
  "4428": " frame",
  "4429": "za",
  "4430": " strik",
  "4431": "level",
  "4432": " Dist",
  "4433": " audience",
  "4434": "lant",
  "4435": "BS",
  "4436": " location",
  "4437": " AM",
  "4438": " scientists",
  "4439": " bottom",
  "4440": " victims",
  "4441": "orrow",
  "4442": " wealth",
  "4443": " professional",
  "4444": "ih",
  "4445": " resist",
  "4446": " reduce",
  "4447": " belief",
  "4448": " nine",
  "4449": " solid",
  "4450": " winning",
  "4451": " marijuana",
  "4452": " Uk",
  "4453": " negative",
  "4454": "75",
  "4455": "iful",
  "4456": "lands",
  "4457": " communities",
  "4458": " returned",
  "4459": "ortunately",
  "4460": " bed",
  "4461": "ears",
  "4462": "met",
  "4463": " incred",
  "4464": " PM",
  "4465": " Institute",
  "4466": " church",
  "4467": "PS",
  "4468": " department",
  "4469": "irgin",
  "4470": " Sanders",
  "4471": " ran",
  "4472": " victory",
  "4473": " purpose",
  "4474": " 90",
  "4475": " Commun",
  "4476": " amb",
  "4477": " vehicle",
  "4478": " internet",
  "4479": " leadership",
  "4480": " Hall",
  "4481": "istics",
  "4482": "ios",
  "4483": " bomb",
  "4484": " mobile",
  "4485": "ghan",
  "4486": " instance",
  "4487": "ipped",
  "4488": "38",
  "4489": " separate",
  "4490": " existing",
  "4491": " notice",
  "4492": " hearing",
  "4493": " die",
  "4494": " explain",
  "4495": " doubt",
  "4496": " faith",
  "4497": " teach",
  "4498": "house",
  "4499": " Your",
  "4500": "atically",
  "4501": " Fin",
  "4502": " episode",
  "4503": " watching",
  "4504": " comfort",
  "4505": " Canadian",
  "4506": " Bank",
  "4507": "aran",
  "4508": " notes",
  "4509": " Att",
  "4510": " Ev",
  "4511": " fresh",
  "4512": " unc",
  "4513": " radio",
  "4514": " Inc",
  "4515": " views",
  "4516": " putting",
  "4517": "asy",
  "4518": " supporters",
  "4519": " conservative",
  "4520": " purs",
  "4521": " argument",
  "4522": "omas",
  "4523": " Fox",
  "4524": " micro",
  "4525": "ario",
  "4526": "acity",
  "4527": " launched",
  "4528": "works",
  "4529": "scrib",
  "4530": "OL",
  "4531": " appeal",
  "4532": "iliar",
  "4533": " items",
  "4534": " committee",
  "4535": " Art",
  "4536": "resp",
  "4537": " Mad",
  "4538": "which",
  "4539": " definitely",
  "4540": " dangerous",
  "4541": "iller",
  "4542": "PA",
  "4543": "zen",
  "4544": " coverage",
  "4545": " direction",
  "4546": " Over",
  "4547": " sun",
  "4548": " charged",
  "4549": " floor",
  "4550": " max",
  "4551": "ography",
  "4552": "34",
  "4553": "EM",
  "4554": " Carol",
  "4555": " Church",
  "4556": " issued",
  "4557": " drugs",
  "4558": "Image",
  "4559": "ipp",
  "4560": " task",
  "4561": " background",
  "4562": " competition",
  "4563": " trend",
  "4564": " stated",
  "4565": "vention",
  "4566": "andom",
  "4567": "ada",
  "4568": " traffic",
  "4569": " FBI",
  "4570": " commercial",
  "4571": " Direct",
  "4572": "urb",
  "4573": "NA",
  "4574": " spoke",
  "4575": "inct",
  "4576": " transfer",
  "4577": "ctors",
  "4578": " suggested",
  "4579": " structure",
  "4580": " sett",
  "4581": "gu",
  "4582": "ady",
  "4583": " sites",
  "4584": " hus",
  "4585": " north",
  "4586": " Since",
  "4587": " Like",
  "4588": " restaur",
  "4589": "ampionship",
  "4590": " labor",
  "4591": " decade",
  "4592": " repeated",
  "4593": " Game",
  "4594": " react",
  "4595": "oman",
  "4596": " cards",
  "4597": " animals",
  "4598": "going",
  "4599": " novel",
  "4600": "but",
  "4601": "ribute",
  "4602": " daughter",
  "4603": "anted",
  "4604": " Sl",
  "4605": " driving",
  "4606": " closed",
  "4607": " worst",
  "4608": " contain",
  "4609": " entirely",
  "4610": " ded",
  "4611": " Britain",
  "4612": "gency",
  "4613": " driver",
  "4614": "ga",
  "4615": " Wil",
  "4616": " disease",
  "4617": " nor",
  "4618": " telling",
  "4619": "iling",
  "4620": " smaller",
  "4621": " ge",
  "4622": " discovered",
  "4623": "Bl",
  "4624": "akistan",
  "4625": " Pri",
  "4626": "Americ",
  "4627": " Los",
  "4628": " hack",
  "4629": "!\u00e2\u0080\u009d",
  "4630": "hem",
  "4631": "ference",
  "4632": "ius",
  "4633": " Que",
  "4634": "spe",
  "4635": " false",
  "4636": " cash",
  "4637": "equ",
  "4638": " concerned",
  "4639": "ulf",
  "4640": "ait",
  "4641": " plays",
  "4642": " surface",
  "4643": "semb",
  "4644": "annel",
  "4645": " supported",
  "4646": "ulated",
  "4647": " tools",
  "4648": " compar",
  "4649": "oyal",
  "4650": " Chris",
  "4651": " experiment",
  "4652": " finding",
  "4653": " transport",
  "4654": "night",
  "4655": " categ",
  "4656": "\u00e3\u0082",
  "4657": " aspect",
  "4658": "##",
  "4659": " businesses",
  "4660": " 70",
  "4661": " UN",
  "4662": " farm",
  "4663": " please",
  "4664": " older",
  "4665": "azon",
  "4666": "phone",
  "4667": "how",
  "4668": " activities",
  "4669": " requires",
  "4670": "CH",
  "4671": " gay",
  "4672": "itt",
  "4673": " Jones",
  "4674": "ibrary",
  "4675": "do",
  "4676": " strength",
  "4677": " wel",
  "4678": "48",
  "4679": "andon",
  "4680": " insurance",
  "4681": " consequ",
  "4682": "37",
  "4683": " largely",
  "4684": " murder",
  "4685": "NN",
  "4686": "ici",
  "4687": "55",
  "4688": " caught",
  "4689": " exerc",
  "4690": " candidates",
  "4691": "kins",
  "4692": " Israeli",
  "4693": " allowing",
  "4694": "icy",
  "4695": " blue",
  "4696": " Are",
  "4697": " annual",
  "4698": " Ken",
  "4699": " testing",
  "4700": " Tre",
  "4701": "ossible",
  "4702": " Sup",
  "4703": " strateg",
  "4704": " raise",
  "4705": " stock",
  "4706": "overy",
  "4707": " Robert",
  "4708": "izes",
  "4709": " decisions",
  "4710": " accur",
  "4711": "rick",
  "4712": " context",
  "4713": "lor",
  "4714": " fuel",
  "4715": " Ac",
  "4716": "SP",
  "4717": "osure",
  "4718": " Ukrain",
  "4719": " concern",
  "4720": " afford",
  "4721": " believes",
  "4722": " construction",
  "4723": " truly",
  "4724": "****",
  "4725": " tim",
  "4726": " Ty",
  "4727": " Miss",
  "4728": " justice",
  "4729": "igrants",
  "4730": " generation",
  "4731": " highlight",
  "4732": " unit",
  "4733": "rim",
  "4734": " presence",
  "4735": " Jewish",
  "4736": "anging",
  "4737": "!!",
  "4738": " Sil",
  "4739": "\u00d0\u00b0",
  "4740": "tery",
  "4741": "\u00d0\u00b5",
  "4742": "ception",
  "4743": " Africa",
  "4744": " guess",
  "4745": "ancy",
  "4746": " witness",
  "4747": "itable",
  "4748": " holding",
  "4749": " Gree",
  "4750": " establish",
  "4751": " length",
  "4752": " planning",
  "4753": " African",
  "4754": " sequ",
  "4755": "ava",
  "4756": "cknow",
  "4757": " san",
  "4758": " placed",
  "4759": " refuge",
  "4760": " Afghan",
  "4761": " catch",
  "4762": "inter",
  "4763": " Association",
  "4764": " tells",
  "4765": "\u00e2\u0080\u0098",
  "4766": " scale",
  "4767": " spokesman",
  "4768": "bre",
  "4769": "nel",
  "4770": " rough",
  "4771": " attend",
  "4772": "olly",
  "4773": " Ver",
  "4774": " cells",
  "4775": " joined",
  "4776": " mentioned",
  "4777": " interests",
  "4778": " abuse",
  "4779": "pective",
  "4780": " Jim",
  "4781": "More",
  "4782": " hasn",
  "4783": " PC",
  "4784": " initi",
  "4785": " enforcement",
  "4786": " Pre",
  "4787": " kid",
  "4788": " GOP",
  "4789": " introduced",
  "4790": " deliver",
  "4791": " conflict",
  "4792": " Mer",
  "4793": " rout",
  "4794": " Microsoft",
  "4795": " phil",
  "4796": "\u00e2\u0080\u0094\u00e2\u0080\u0094",
  "4797": " update",
  "4798": "ros",
  "4799": " missing",
  "4800": " providing",
  "4801": " waiting",
  "4802": " cancer",
  "4803": "39",
  "4804": " recommend",
  "4805": "ocracy",
  "4806": " established",
  "4807": "ey",
  "4808": "isation",
  "4809": " eat",
  "4810": "bour",
  "4811": " Yes",
  "4812": " occup",
  "4813": " Frank",
  "4814": " Jeff",
  "4815": " Angeles",
  "4816": " removed",
  "4817": " 2005",
  "4818": "ula",
  "4819": " Fore",
  "4820": " offensive",
  "4821": " Instead",
  "4822": "icon",
  "4823": " injury",
  "4824": " sports",
  "4825": "47",
  "4826": " fant",
  "4827": " discussion",
  "4828": "lig",
  "4829": " operation",
  "4830": " download",
  "4831": " useful",
  "4832": " newsp",
  "4833": " conversation",
  "4834": " homes",
  "4835": "ronic",
  "4836": " south",
  "4837": " cook",
  "4838": " CEO",
  "4839": " assess",
  "4840": " Group",
  "4841": "itz",
  "4842": "formation",
  "4843": " banks",
  "4844": "onto",
  "4845": " stopped",
  "4846": " Const",
  "4847": " obvious",
  "4848": "ications",
  "4849": " measures",
  "4850": " Kh",
  "4851": " models",
  "4852": " fourth",
  "4853": " MP",
  "4854": "Our",
  "4855": "season",
  "4856": "DA",
  "4857": "what",
  "4858": " bul",
  "4859": "anda",
  "4860": " 2018",
  "4861": " files",
  "4862": " girls",
  "4863": " Louis",
  "4864": " stick",
  "4865": "cks",
  "4866": "vant",
  "4867": "azine",
  "4868": "mail",
  "4869": "umn",
  "4870": " managed",
  "4871": "iter",
  "4872": "apped",
  "4873": " Palestin",
  "4874": "oted",
  "4875": " Tim",
  "4876": " figures",
  "4877": "oms",
  "4878": " identified",
  "4879": "Pl",
  "4880": " graph",
  "4881": "kin",
  "4882": " Jud",
  "4883": " Sal",
  "4884": " finished",
  "4885": "igan",
  "4886": " funds",
  "4887": "real",
  "4888": " Pakistan",
  "4889": " setting",
  "4890": " conclud",
  "4891": " prefer",
  "4892": " hair",
  "4893": " committed",
  "4894": " Mexico",
  "4895": "49",
  "4896": " skills",
  "4897": " appropri",
  "4898": " spirit",
  "4899": " Rock",
  "4900": " veter",
  "4901": " focused",
  "4902": " arrived",
  "4903": " THE",
  "4904": " housing",
  "4905": " Leg",
  "4906": " Virgin",
  "4907": "gers",
  "4908": " keeping",
  "4909": " therefore",
  "4910": " acknow",
  "4911": "ulate",
  "4912": "Des",
  "4913": " partner",
  "4914": " exclus",
  "4915": " Android",
  "4916": "enses",
  "4917": "ups",
  "4918": " earth",
  "4919": " transl",
  "4920": "outs",
  "4921": "place",
  "4922": " tough",
  "4923": " Japanese",
  "4924": " 2000",
  "4925": " relatively",
  "4926": "\u00c3\u00a1",
  "4927": " Supreme",
  "4928": "wing",
  "4929": "owl",
  "4930": " identity",
  "4931": " feels",
  "4932": " Met",
  "4933": " otherwise",
  "4934": "rd",
  "4935": " survey",
  "4936": "RA",
  "4937": " Ryan",
  "4938": "ocal",
  "4939": "ication",
  "4940": "itutional",
  "4941": " protection",
  "4942": "agn",
  "4943": " exchange",
  "4944": " owner",
  "4945": "isf",
  "4946": "Trump",
  "4947": " steps",
  "4948": " Inter",
  "4949": " trip",
  "4950": "imb",
  "4951": " husband",
  "4952": " tweet",
  "4953": "gar",
  "4954": " connection",
  "4955": " Army",
  "4956": " slightly",
  "4957": " Prof",
  "4958": "erences",
  "4959": "ka",
  "4960": "eah",
  "4961": " weak",
  "4962": " Government",
  "4963": "verse",
  "4964": "\":",
  "4965": " circum",
  "4966": " click",
  "4967": " elements",
  "4968": " Richard",
  "4969": " strike",
  "4970": " photos",
  "4971": " mere",
  "4972": " defensive",
  "4973": " Nor",
  "4974": "dden",
  "4975": " gain",
  "4976": " fle",
  "4977": " depend",
  "4978": "ucky",
  "4979": " collection",
  "4980": "onym",
  "4981": "hens",
  "4982": " killing",
  "4983": " roll",
  "4984": "ighter",
  "4985": "Go",
  "4986": " corner",
  "4987": " Martin",
  "4988": "ancing",
  "4989": "odies",
  "4990": " suggests",
  "4991": "uct",
  "4992": " aggress",
  "4993": "with",
  "4994": "prof",
  "4995": " guard",
  "4996": "Photo",
  "4997": " gender",
  "4998": "makers",
  "4999": " College",
  "5000": " commission",
  "5001": " Although",
  "5002": "range",
  "5003": " dat",
  "5004": " Sur",
  "5005": "46",
  "5006": " Ir",
  "5007": " Dec",
  "5008": " mental",
  "5009": "icide",
  "5010": " amazing",
  "5011": "rees",
  "5012": " Sub",
  "5013": "hi",
  "5014": "mas",
  "5015": " planet",
  "5016": " Team",
  "5017": "rency",
  "5018": " Out",
  "5019": " bigger",
  "5020": " failure",
  "5021": " Jose",
  "5022": " supply",
  "5023": "Why",
  "5024": "ania",
  "5025": " starts",
  "5026": " sides",
  "5027": "vis",
  "5028": "hedul",
  "5029": " familiar",
  "5030": " remind",
  "5031": " sust",
  "5032": "ils",
  "5033": " spect",
  "5034": "uate",
  "5035": " speaking",
  "5036": " talks",
  "5037": " happening",
  "5038": "ym",
  "5039": " organizations",
  "5040": " hate",
  "5041": "gypt",
  "5042": " window",
  "5043": " army",
  "5044": " Good",
  "5045": " Joe",
  "5046": " none",
  "5047": "uke",
  "5048": " Pet",
  "5049": " taxes",
  "5050": " planned",
  "5051": " thanks",
  "5052": " Mary",
  "5053": " struct",
  "5054": " pit",
  "5055": " decide",
  "5056": " sudden",
  "5057": " wish",
  "5058": " crew",
  "5059": " carried",
  "5060": "lo",
  "5061": " Mont",
  "5062": "oston",
  "5063": " pet",
  "5064": "awn",
  "5065": "agues",
  "5066": "ynam",
  "5067": " regist",
  "5068": "TC",
  "5069": " multi",
  "5070": "idering",
  "5071": " helping",
  "5072": "ano",
  "5073": "Last",
  "5074": " award",
  "5075": " standards",
  "5076": " 32",
  "5077": " Fire",
  "5078": "gn",
  "5079": " revolution",
  "5080": " environmental",
  "5081": " Web",
  "5082": "pm",
  "5083": "arsh",
  "5084": " Thomas",
  "5085": "olit",
  "5086": " script",
  "5087": "ola",
  "5088": " seconds",
  "5089": "run",
  "5090": " Research",
  "5091": " scientific",
  "5092": " Bern",
  "5093": " immigration",
  "5094": " standing",
  "5095": " Their",
  "5096": " 45",
  "5097": " que",
  "5098": "stream",
  "5099": "ocol",
  "5100": " beer",
  "5101": " domestic",
  "5102": "imal",
  "5103": "adium",
  "5104": " pair",
  "5105": "uters",
  "5106": " Also",
  "5107": "fe",
  "5108": " Secretary",
  "5109": " Us",
  "5110": " academ",
  "5111": " cold",
  "5112": " variety",
  "5113": " markets",
  "5114": " sch",
  "5115": "].",
  "5116": "HL",
  "5117": " territ",
  "5118": " dropped",
  "5119": " accounts",
  "5120": "!\"",
  "5121": " filed",
  "5122": "erous",
  "5123": "acks",
  "5124": "illa",
  "5125": " balance",
  "5126": "eless",
  "5127": " impossible",
  "5128": " Ter",
  "5129": "aven",
  "5130": " interact",
  "5131": " rou",
  "5132": " neighborhood",
  "5133": "aren",
  "5134": " degree",
  "5135": "Read",
  "5136": " Atlant",
  "5137": " turns",
  "5138": "ores",
  "5139": "itect",
  "5140": " possibly",
  "5141": " appre",
  "5142": " operating",
  "5143": " princ",
  "5144": " alternative",
  "5145": " union",
  "5146": " votes",
  "5147": " vul",
  "5148": "ader",
  "5149": " professor",
  "5150": " tack",
  "5151": " Service",
  "5152": " increasingly",
  "5153": "ayer",
  "5154": "ruit",
  "5155": " apply",
  "5156": " fellow",
  "5157": " cuts",
  "5158": "stein",
  "5159": " honest",
  "5160": " Prime",
  "5161": " univers",
  "5162": " server",
  "5163": "iser",
  "5164": " developers",
  "5165": "arks",
  "5166": " Syrian",
  "5167": "abb",
  "5168": " apparently",
  "5169": " lived",
  "5170": " changing",
  "5171": " worry",
  "5172": "rastructure",
  "5173": " Carolina",
  "5174": " tests",
  "5175": " units",
  "5176": " rich",
  "5177": " Two",
  "5178": "cious",
  "5179": "icted",
  "5180": "From",
  "5181": "aded",
  "5182": " humans",
  "5183": "IM",
  "5184": " Foundation",
  "5185": " Mos",
  "5186": " agencies",
  "5187": " sounds",
  "5188": "ashed",
  "5189": " twice",
  "5190": " ultimately",
  "5191": "obby",
  "5192": " losing",
  "5193": " philos",
  "5194": " authority",
  "5195": " soldiers",
  "5196": "\u00e3\u0083",
  "5197": " animal",
  "5198": " ath",
  "5199": " Images",
  "5200": " settle",
  "5201": " schedul",
  "5202": " mut",
  "5203": " colle",
  "5204": " corporate",
  "5205": " absolutely",
  "5206": " healthy",
  "5207": " paying",
  "5208": "och",
  "5209": " equip",
  "5210": "iams",
  "5211": " developing",
  "5212": " sea",
  "5213": " closer",
  "5214": " Den",
  "5215": " innov",
  "5216": " Time",
  "5217": "related",
  "5218": " seeking",
  "5219": " regarding",
  "5220": "roud",
  "5221": "coh",
  "5222": " skin",
  "5223": " expensive",
  "5224": "ansion",
  "5225": " possibility",
  "5226": " beautiful",
  "5227": " religion",
  "5228": " Central",
  "5229": " apart",
  "5230": " fundament",
  "5231": " experts",
  "5232": " solar",
  "5233": "65",
  "5234": " yards",
  "5235": " writer",
  "5236": " flight",
  "5237": " vast",
  "5238": " District",
  "5239": " Last",
  "5240": " deploy",
  "5241": " adjust",
  "5242": "Of",
  "5243": " internal",
  "5244": " Under",
  "5245": " Lat",
  "5246": "31",
  "5247": " Peter",
  "5248": " Plan",
  "5249": "apers",
  "5250": " imagine",
  "5251": " Jon",
  "5252": "IV",
  "5253": " applications",
  "5254": "iot",
  "5255": "ologies",
  "5256": " vision",
  "5257": "look",
  "5258": "state",
  "5259": "osen",
  "5260": " Francisco",
  "5261": " Toronto",
  "5262": "den",
  "5263": " sitting",
  "5264": " trail",
  "5265": " unless",
  "5266": " USA",
  "5267": " Jes",
  "5268": "isted",
  "5269": " heat",
  "5270": " gar",
  "5271": " 2004",
  "5272": "Even",
  "5273": " responsibility",
  "5274": " capacity",
  "5275": " Dan",
  "5276": "IP",
  "5277": "atures",
  "5278": " Middle",
  "5279": " error",
  "5280": "aine",
  "5281": "ias",
  "5282": " fol",
  "5283": " symb",
  "5284": " arms",
  "5285": " pil",
  "5286": "pire",
  "5287": " covered",
  "5288": "idden",
  "5289": " Bur",
  "5290": " appoint",
  "5291": " famous",
  "5292": " Camp",
  "5293": " forms",
  "5294": "uzz",
  "5295": "ND",
  "5296": " university",
  "5297": " tight",
  "5298": "top",
  "5299": " presented",
  "5300": "ortion",
  "5301": "oving",
  "5302": "enced",
  "5303": " ST",
  "5304": " Egypt",
  "5305": " earn",
  "5306": " Put",
  "5307": " convention",
  "5308": "under",
  "5309": "Just",
  "5310": " Public",
  "5311": " surprise",
  "5312": " attorney",
  "5313": " elections",
  "5314": " estimated",
  "5315": " fif",
  "5316": " Ari",
  "5317": "gl",
  "5318": " teen",
  "5319": " instit",
  "5320": " vehicles",
  "5321": "rible",
  "5322": " Amazon",
  "5323": "road",
  "5324": " intended",
  "5325": ".\u00e2\u0080\u009d<|",
  "5326": " odd",
  "5327": " rid",
  "5328": " helps",
  "5329": " occurred",
  "5330": "person",
  "5331": " streets",
  "5332": "uster",
  "5333": "hand",
  "5334": "ini",
  "5335": " Boston",
  "5336": " Sol",
  "5337": " =>",
  "5338": "=\"",
  "5339": "sen",
  "5340": " Mur",
  "5341": " sport",
  "5342": " determine",
  "5343": "ressive",
  "5344": " Bitcoin",
  "5345": " expert",
  "5346": "alls",
  "5347": " consult",
  "5348": "uration",
  "5349": "Let",
  "5350": " broken",
  "5351": " guaran",
  "5352": "lets",
  "5353": " fired",
  "5354": " ton",
  "5355": " flow",
  "5356": " domin",
  "5357": " Gal",
  "5358": "inte",
  "5359": "porary",
  "5360": "eder",
  "5361": "LE",
  "5362": " shall",
  "5363": " reserv",
  "5364": " troops",
  "5365": "ION",
  "5366": " Those",
  "5367": " hyp",
  "5368": "Up",
  "5369": " nar",
  "5370": "terday",
  "5371": " pieces",
  "5372": " Chief",
  "5373": " prepared",
  "5374": " Mass",
  "5375": " Cath",
  "5376": " rapid",
  "5377": "orage",
  "5378": " Jo",
  "5379": "rie",
  "5380": " located",
  "5381": " Social",
  "5382": " baby",
  "5383": "----------------",
  "5384": " conclus",
  "5385": " bringing",
  "5386": " prove",
  "5387": " specifically",
  "5388": " Any",
  "5389": " potentially",
  "5390": " sector",
  "5391": "anche",
  "5392": " random",
  "5393": " jail",
  "5394": "OW",
  "5395": " selling",
  "5396": " Ve",
  "5397": " governments",
  "5398": " Once",
  "5399": " scr",
  "5400": "Ab",
  "5401": " equal",
  "5402": "Ne",
  "5403": "class",
  "5404": " faster",
  "5405": " heav",
  "5406": " Spr",
  "5407": " boost",
  "5408": "useum",
  "5409": "vey",
  "5410": "war",
  "5411": " clin",
  "5412": " proposal",
  "5413": "oty",
  "5414": " factors",
  "5415": " plenty",
  "5416": "TH",
  "5417": " equipment",
  "5418": " council",
  "5419": " era",
  "5420": " infrastructure",
  "5421": "Do",
  "5422": " stress",
  "5423": "phas",
  "5424": " stars",
  "5425": " Journal",
  "5426": " Rub",
  "5427": "endment",
  "5428": " Virginia",
  "5429": " breat",
  "5430": " prosecut",
  "5431": " voted",
  "5432": " carbon",
  "5433": " offering",
  "5434": "inent",
  "5435": " expressed",
  "5436": " combat",
  "5437": " vulner",
  "5438": " Paris",
  "5439": " broke",
  "5440": "()",
  "5441": " clot",
  "5442": "ureau",
  "5443": "ours",
  "5444": " Federal",
  "5445": " ruling",
  "5446": " retail",
  "5447": " Guard",
  "5448": " refused",
  "5449": " dram",
  "5450": " elected",
  "5451": " Open",
  "5452": " River",
  "5453": "Every",
  "5454": " secure",
  "5455": "cean",
  "5456": " seasons",
  "5457": " conducted",
  "5458": ",'",
  "5459": " challenges",
  "5460": " remove",
  "5461": "isher",
  "5462": "ht",
  "5463": " methods",
  "5464": " weapon",
  "5465": "noon",
  "5466": " pointed",
  "5467": " Island",
  "5468": " master",
  "5469": " remained",
  "5470": " Australian",
  "5471": " prime",
  "5472": "ENT",
  "5473": " trig",
  "5474": " Mel",
  "5475": " positions",
  "5476": " Cru",
  "5477": " infect",
  "5478": " din",
  "5479": " criticism",
  "5480": "ipping",
  "5481": "First",
  "5482": "ocking",
  "5483": " Medic",
  "5484": " Fe",
  "5485": " Please",
  "5486": "tion",
  "5487": "rog",
  "5488": "onom",
  "5489": "IG",
  "5490": " sale",
  "5491": "olved",
  "5492": " cultural",
  "5493": "that",
  "5494": " weren",
  "5495": " significantly",
  "5496": " brow",
  "5497": "etic",
  "5498": " originally",
  "5499": "Ste",
  "5500": " During",
  "5501": " stret",
  "5502": " affected",
  "5503": " appearance",
  "5504": " cas",
  "5505": " Sant",
  "5506": " tourn",
  "5507": " facing",
  "5508": " greatest",
  "5509": " finish",
  "5510": " Lee",
  "5511": " youth",
  "5512": "yr",
  "5513": " tele",
  "5514": " Who",
  "5515": " Cur",
  "5516": " percentage",
  "5517": " Photo",
  "5518": "col",
  "5519": " determined",
  "5520": " signs",
  "5521": " involve",
  "5522": "95",
  "5523": "cel",
  "5524": "\u00d0\u00b8",
  "5525": "64",
  "5526": " thank",
  "5527": " bought",
  "5528": " 500",
  "5529": "lyn",
  "5530": " Sing",
  "5531": "standing",
  "5532": " chemical",
  "5533": "ashion",
  "5534": " shape",
  "5535": " vir",
  "5536": " regime",
  "5537": " grew",
  "5538": "pired",
  "5539": " remaining",
  "5540": " Steve",
  "5541": "lymp",
  "5542": " minimum",
  "5543": " Saud",
  "5544": "reens",
  "5545": " indeed",
  "5546": " dream",
  "5547": "rier",
  "5548": "aling",
  "5549": "Since",
  "5550": " marg",
  "5551": "Sp",
  "5552": " Ro",
  "5553": " Both",
  "5554": ">>",
  "5555": " mode",
  "5556": " herself",
  "5557": " voting",
  "5558": " Color",
  "5559": " obviously",
  "5560": " Force",
  "5561": " reduced",
  "5562": " Nov",
  "5563": "ordin",
  "5564": " Rem",
  "5565": " wood",
  "5566": " recorded",
  "5567": " argued",
  "5568": " 1990",
  "5569": " revenue",
  "5570": " tact",
  "5571": " wearing",
  "5572": "ighters",
  "5573": " leads",
  "5574": "edia",
  "5575": " hun",
  "5576": " plus",
  "5577": " politicians",
  "5578": " switch",
  "5579": " contrast",
  "5580": " handle",
  "5581": " purchase",
  "5582": " thr",
  "5583": " subs",
  "5584": " concent",
  "5585": " proced",
  "5586": "gment",
  "5587": "\u00d1\u0082",
  "5588": " agent",
  "5589": "arp",
  "5590": " Williams",
  "5591": " appreci",
  "5592": "eds",
  "5593": " experienced",
  "5594": " hurt",
  "5595": " excited",
  "5596": " videos",
  "5597": " https",
  "5598": "cohol",
  "5599": " supporting",
  "5600": "DP",
  "5601": " Haw",
  "5602": "mm",
  "5603": " Free",
  "5604": " surprising",
  "5605": "ller",
  "5606": " minute",
  "5607": "odd",
  "5608": " explos",
  "5609": " Pac",
  "5610": " belong",
  "5611": " consumers",
  "5612": " identify",
  "5613": " considering",
  "5614": "ownt",
  "5615": " Conserv",
  "5616": "apter",
  "5617": " aircraft",
  "5618": " aid",
  "5619": " pulled",
  "5620": " rent",
  "5621": "CL",
  "5622": " basically",
  "5623": " differences",
  "5624": "ogue",
  "5625": " Book",
  "5626": " glass",
  "5627": "http",
  "5628": " afternoon",
  "5629": " Rad",
  "5630": " shift",
  "5631": " diss",
  "5632": " ends",
  "5633": "essions",
  "5634": " turning",
  "5635": " bound",
  "5636": " films",
  "5637": " spring",
  "5638": " depart",
  "5639": " prospect",
  "5640": "ruption",
  "5641": "ket",
  "5642": " Charl",
  "5643": "hab",
  "5644": "05",
  "5645": "life",
  "5646": " treated",
  "5647": " accident",
  "5648": ",[",
  "5649": "01",
  "5650": " motiv",
  "5651": " listen",
  "5652": " seat",
  "5653": " Power",
  "5654": "uts",
  "5655": " combined",
  "5656": " construct",
  "5657": " seriously",
  "5658": "Ind",
  "5659": " privacy",
  "5660": "apping",
  "5661": " evening",
  "5662": "hered",
  "5663": " opportunities",
  "5664": "asp",
  "5665": "hy",
  "5666": " struggle",
  "5667": " 195",
  "5668": " panel",
  "5669": " enemy",
  "5670": " lots",
  "5671": " completed",
  "5672": " Daily",
  "5673": " visual",
  "5674": "His",
  "5675": "pet",
  "5676": "Phone",
  "5677": "Pe",
  "5678": " talked",
  "5679": "pted",
  "5680": " hopes",
  "5681": "oral",
  "5682": " passing",
  "5683": " id",
  "5684": " apps",
  "5685": "osite",
  "5686": " Step",
  "5687": "PD",
  "5688": " calcul",
  "5689": " mort",
  "5690": "Another",
  "5691": " widely",
  "5692": "ensions",
  "5693": " emergency",
  "5694": " Hol",
  "5695": " Show",
  "5696": " element",
  "5697": " suit",
  "5698": "amm",
  "5699": " ast",
  "5700": "anged",
  "5701": "SS",
  "5702": "ucks",
  "5703": "aled",
  "5704": " powers",
  "5705": " Rel",
  "5706": " BBC",
  "5707": " flat",
  "5708": " Olymp",
  "5709": " burn",
  "5710": "TV",
  "5711": " discl",
  "5712": " plants",
  "5713": "obe",
  "5714": " Space",
  "5715": "ato",
  "5716": " liberal",
  "5717": "raud",
  "5718": " opposed",
  "5719": "Well",
  "5720": " proceed",
  "5721": "ompl",
  "5722": " copyright",
  "5723": "oking",
  "5724": " Project",
  "5725": " advance",
  "5726": " factor",
  "5727": " distance",
  "5728": " 2003",
  "5729": "ivered",
  "5730": " dismiss",
  "5731": "plom",
  "5732": " attempts",
  "5733": " tun",
  "5734": " Bet",
  "5735": " Road",
  "5736": "abilities",
  "5737": "Am",
  "5738": " IN",
  "5739": " trouble",
  "5740": "ributed",
  "5741": " hol",
  "5742": "unction",
  "5743": " collabor",
  "5744": " default",
  "5745": "idel",
  "5746": " zone",
  "5747": " encoun",
  "5748": " Jackson",
  "5749": " upgr",
  "5750": "rawn",
  "5751": "ita",
  "5752": " reaction",
  "5753": " reporters",
  "5754": " storm",
  "5755": " Mem",
  "5756": " frust",
  "5757": "PR",
  "5758": "nell",
  "5759": "mosp",
  "5760": "adow",
  "5761": " writes",
  "5762": "mond",
  "5763": "aints",
  "5764": " typically",
  "5765": " Today",
  "5766": "lines",
  "5767": "respond",
  "5768": "UT",
  "5769": " pages",
  "5770": " instruct",
  "5771": "ternal",
  "5772": " reference",
  "5773": " package",
  "5774": " bodies",
  "5775": "zer",
  "5776": " matters",
  "5777": "sts",
  "5778": "42",
  "5779": "free",
  "5780": " denied",
  "5781": "care",
  "5782": "edd",
  "5783": "App",
  "5784": " quant",
  "5785": " disappoint",
  "5786": " sem",
  "5787": " explo",
  "5788": "ette",
  "5789": " NAS",
  "5790": " optim",
  "5791": "ache",
  "5792": " quiet",
  "5793": " entertain",
  "5794": " mal",
  "5795": " responded",
  "5796": " approved",
  "5797": " Turkey",
  "5798": " satisf",
  "5799": "aped",
  "5800": "Rep",
  "5801": " broadcast",
  "5802": "esters",
  "5803": "De",
  "5804": " institutions",
  "5805": " advert",
  "5806": " stands",
  "5807": " Director",
  "5808": " sets",
  "5809": "estival",
  "5810": " elimin",
  "5811": "isters",
  "5812": "razy",
  "5813": "\u00c3\u00a4",
  "5814": " Penn",
  "5815": " valid",
  "5816": "host",
  "5817": " renew",
  "5818": " Ohio",
  "5819": "Cont",
  "5820": "0000",
  "5821": " split",
  "5822": " severe",
  "5823": " William",
  "5824": " sac",
  "5825": "abin",
  "5826": " capable",
  "5827": " Matt",
  "5828": " //",
  "5829": " 2001",
  "5830": " pitch",
  "5831": "aniel",
  "5832": " caption",
  "5833": " cloud",
  "5834": " loved",
  "5835": " technical",
  "5836": " giant",
  "5837": "pass",
  "5838": " cann",
  "5839": " tradition",
  "5840": "water",
  "5841": " bull",
  "5842": " confident",
  "5843": "elly",
  "5844": "uous",
  "5845": " confidence",
  "5846": " numerous",
  "5847": " reportedly",
  "5848": " faces",
  "5849": "],",
  "5850": "writ",
  "5851": " weather",
  "5852": " fly",
  "5853": " Ma",
  "5854": " transition",
  "5855": "rid",
  "5856": " 36",
  "5857": " System",
  "5858": "unte",
  "5859": " Afghanistan",
  "5860": " gra",
  "5861": " Squ",
  "5862": " waste",
  "5863": " creation",
  "5864": " perspective",
  "5865": " unable",
  "5866": " forget",
  "5867": " Labour",
  "5868": " Yet",
  "5869": "43",
  "5870": "astern",
  "5871": "employ",
  "5872": ".\"<|",
  "5873": "oken",
  "5874": " Media",
  "5875": "angers",
  "5876": "II",
  "5877": " craft",
  "5878": " substant",
  "5879": " cooper",
  "5880": " violent",
  "5881": " suffered",
  "5882": "ilit",
  "5883": " mand",
  "5884": "ampion",
  "5885": " coast",
  "5886": " pictures",
  "5887": " experiences",
  "5888": " approx",
  "5889": " route",
  "5890": "abled",
  "5891": "rant",
  "5892": "88",
  "5893": " flag",
  "5894": " advice",
  "5895": " Andrew",
  "5896": "usiness",
  "5897": " declared",
  "5898": " Wal",
  "5899": " ordered",
  "5900": " Human",
  "5901": "razil",
  "5902": " crimes",
  "5903": " coff",
  "5904": " proud",
  "5905": "ishes",
  "5906": " reporting",
  "5907": " messages",
  "5908": "sex",
  "5909": " circumst",
  "5910": " findings",
  "5911": " Lin",
  "5912": " eval",
  "5913": "ulations",
  "5914": "Res",
  "5915": " excell",
  "5916": "Over",
  "5917": " declined",
  "5918": " explains",
  "5919": "can",
  "5920": " delay",
  "5921": " \\",
  "5922": " Follow",
  "5923": " newspaper",
  "5924": "ounded",
  "5925": " connected",
  "5926": "ilty",
  "5927": " shouldn",
  "5928": "evin",
  "5929": "oves",
  "5930": " ongoing",
  "5931": " van",
  "5932": "dule",
  "5933": " movies",
  "5934": " picked",
  "5935": "resents",
  "5936": "77",
  "5937": " admitted",
  "5938": " delivered",
  "5939": "During",
  "5940": " guns",
  "5941": " ML",
  "5942": "ionally",
  "5943": " Scot",
  "5944": " walking",
  "5945": " prin",
  "5946": " agents",
  "5947": "called",
  "5948": " editor",
  "5949": " thoughts",
  "5950": " married",
  "5951": " Tra",
  "5952": " auth",
  "5953": " appropriate",
  "5954": " emails",
  "5955": " emphas",
  "5956": "uations",
  "5957": " edge",
  "5958": " architect",
  "5959": " Grand",
  "5960": " leaves",
  "5961": " updates",
  "5962": " accompl",
  "5963": "OD",
  "5964": " gather",
  "5965": " Muslims",
  "5966": " forg",
  "5967": "ansas",
  "5968": " Wood",
  "5969": " quarterback",
  "5970": " session",
  "5971": "ooth",
  "5972": "41",
  "5973": "arn",
  "5974": " Techn",
  "5975": " pool",
  "5976": " Science",
  "5977": "cos",
  "5978": " injured",
  "5979": " publicly",
  "5980": "ellow",
  "5981": " Sov",
  "5982": " statements",
  "5983": " perman",
  "5984": " legit",
  "5985": "arl",
  "5986": "nergy",
  "5987": "MA",
  "5988": " confirm",
  "5989": " Lake",
  "5990": " ourselves",
  "5991": "Other",
  "5992": " realize",
  "5993": " drivers",
  "5994": " rot",
  "5995": " Av",
  "5996": "Te",
  "5997": " Dou",
  "5998": "TA",
  "5999": "mates",
  "6000": ",\u00e2\u0080\u0099",
  "6001": " armed",
  "6002": "essor",
  "6003": " dial",
  "6004": "cons",
  "6005": " lawyer",
  "6006": "ourney",
  "6007": " rail",
  "6008": " readers",
  "6009": "reland",
  "6010": " sad",
  "6011": " contains",
  "6012": " argue",
  "6013": " Rev",
  "6014": " talent",
  "6015": " filled",
  "6016": " Sum",
  "6017": " allegations",
  "6018": " activists",
  "6019": " Christmas",
  "6020": " dynam",
  "6021": " 1980",
  "6022": " Michigan",
  "6023": "date",
  "6024": " Back",
  "6025": " Ron",
  "6026": "long",
  "6027": " crack",
  "6028": " transform",
  "6029": "Tube",
  "6030": " Read",
  "6031": " buildings",
  "6032": " wear",
  "6033": "Many",
  "6034": " Ill",
  "6035": " terrorist",
  "6036": " sam",
  "6037": " tree",
  "6038": " exercise",
  "6039": "enda",
  "6040": " label",
  "6041": " effectively",
  "6042": "Oh",
  "6043": " practices",
  "6044": " subsequ",
  "6045": "ala",
  "6046": " Jul",
  "6047": " Sher",
  "6048": "TS",
  "6049": "uls",
  "6050": " flo",
  "6051": " fish",
  "6052": " Hy",
  "6053": "enture",
  "6054": " shop",
  "6055": " examples",
  "6056": " See",
  "6057": " patient",
  "6058": " Gen",
  "6059": " Seattle",
  "6060": " objects",
  "6061": " tech",
  "6062": " secretary",
  "6063": "asure",
  "6064": " rain",
  "6065": "gia",
  "6066": " missed",
  "6067": " causes",
  "6068": "illy",
  "6069": "rum",
  "6070": " debut",
  "6071": " Rod",
  "6072": " essentially",
  "6073": "66",
  "6074": " moral",
  "6075": "orders",
  "6076": "amin",
  "6077": "ador",
  "6078": "word",
  "6079": "def",
  "6080": "acter",
  "6081": " Work",
  "6082": "arters",
  "6083": " Ukraine",
  "6084": " Stan",
  "6085": " centre",
  "6086": "Follow",
  "6087": " Vict",
  "6088": "bur",
  "6089": " ID",
  "6090": "icing",
  "6091": " injuries",
  "6092": " Phot",
  "6093": " motor",
  "6094": " iPhone",
  "6095": " artist",
  "6096": " client",
  "6097": " bond",
  "6098": " thinks",
  "6099": "iat",
  "6100": "orse",
  "6101": "ouston",
  "6102": " pure",
  "6103": " hell",
  "6104": "Although",
  "6105": " Saudi",
  "6106": " facts",
  "6107": "\u0082\u00ac",
  "6108": " desire",
  "6109": "agers",
  "6110": "aza",
  "6111": " ske",
  "6112": "orry",
  "6113": " linked",
  "6114": "\u00c3\u00ad",
  "6115": " governor",
  "6116": " Bat",
  "6117": " materials",
  "6118": " performed",
  "6119": "Spe",
  "6120": " franch",
  "6121": "esome",
  "6122": " suc",
  "6123": " philosoph",
  "6124": " initially",
  "6125": "iest",
  "6126": " Sign",
  "6127": " necessarily",
  "6128": " Fer",
  "6129": " expansion",
  "6130": " scheduled",
  "6131": "ERS",
  "6132": " warned",
  "6133": " diplom",
  "6134": " advanced",
  "6135": " ing",
  "6136": " explan",
  "6137": " vari",
  "6138": " everybody",
  "6139": " joint",
  "6140": " decre",
  "6141": " resolution",
  "6142": " increases",
  "6143": "enger",
  "6144": " accepted",
  "6145": "Yes",
  "6146": " incor",
  "6147": " myster",
  "6148": " faced",
  "6149": " bare",
  "6150": "illance",
  "6151": " announcement",
  "6152": " follows",
  "6153": "gent",
  "6154": " Mount",
  "6155": " nations",
  "6156": " playoff",
  "6157": " Life",
  "6158": " abandon",
  "6159": " Second",
  "6160": " radical",
  "6161": " athlet",
  "6162": " neither",
  "6163": " yesterday",
  "6164": " datab",
  "6165": " nearby",
  "6166": " distribution",
  "6167": "otic",
  "6168": " applied",
  "6169": "irty",
  "6170": " magazine",
  "6171": "Most",
  "6172": "athan",
  "6173": "rich",
  "6174": " consequences",
  "6175": " mir",
  "6176": " doctor",
  "6177": " listed",
  "6178": " Columb",
  "6179": " atmosp",
  "6180": "American",
  "6181": " surprised",
  "6182": " fort",
  "6183": " offense",
  "6184": "uy",
  "6185": "Qu",
  "6186": "itors",
  "6187": " CNN",
  "6188": " RE",
  "6189": " spons",
  "6190": " begins",
  "6191": " Week",
  "6192": " threats",
  "6193": " af",
  "6194": "sembly",
  "6195": " represents",
  "6196": "edy",
  "6197": " Jews",
  "6198": " GM",
  "6199": " Aff",
  "6200": " enh",
  "6201": " moves",
  "6202": " remark",
  "6203": " TO",
  "6204": " pra",
  "6205": " songs",
  "6206": "kay",
  "6207": " behavi",
  "6208": "omin",
  "6209": " ride",
  "6210": " adds",
  "6211": "Can",
  "6212": " withd",
  "6213": "\u00c3\u0082",
  "6214": " improved",
  "6215": "rip",
  "6216": " phen",
  "6217": " Blue",
  "6218": " bot",
  "6219": " warm",
  "6220": " alcohol",
  "6221": " output",
  "6222": " AT",
  "6223": "law",
  "6224": " flood",
  "6225": " Develop",
  "6226": " Hen",
  "6227": "whel",
  "6228": " shots",
  "6229": " fill",
  "6230": " Vol",
  "6231": " stood",
  "6232": " brings",
  "6233": " alt",
  "6234": " pushed",
  "6235": " Romney",
  "6236": " guilty",
  "6237": " Kim",
  "6238": " subscrib",
  "6239": "85",
  "6240": " entry",
  "6241": "ocratic",
  "6242": " Dev",
  "6243": " Brazil",
  "6244": " democracy",
  "6245": " boys",
  "6246": " 33",
  "6247": "rac",
  "6248": " row",
  "6249": " Swed",
  "6250": " config",
  "6251": " NBA",
  "6252": " lawsuit",
  "6253": " Ireland",
  "6254": " manufacture",
  "6255": " receiving",
  "6256": " rein",
  "6257": " Barack",
  "6258": "Then",
  "6259": " trib",
  "6260": " totally",
  "6261": " Only",
  "6262": " discussed",
  "6263": " restaurant",
  "6264": " sought",
  "6265": " rising",
  "6266": " entered",
  "6267": " ISIS",
  "6268": " Board",
  "6269": " consistent",
  "6270": " historical",
  "6271": "twitter",
  "6272": " storage",
  "6273": "ideo",
  "6274": " correspond",
  "6275": " plane",
  "6276": " combination",
  "6277": " input",
  "6278": " scored",
  "6279": " 300",
  "6280": " symbol",
  "6281": " bright",
  "6282": " button",
  "6283": "irds",
  "6284": " succeed",
  "6285": "stood",
  "6286": " creative",
  "6287": " investors",
  "6288": " square",
  "6289": " articles",
  "6290": " 2002",
  "6291": " island",
  "6292": "pty",
  "6293": "mes",
  "6294": " deaths",
  "6295": " functions",
  "6296": " networks",
  "6297": " classes",
  "6298": " unlikely",
  "6299": "alty",
  "6300": " heads",
  "6301": "ician",
  "6302": " boss",
  "6303": " native",
  "6304": "icious",
  "6305": " lie",
  "6306": " sav",
  "6307": " Lib",
  "6308": " roughly",
  "6309": " consumer",
  "6310": " Whe",
  "6311": " Walk",
  "6312": " Prem",
  "6313": "fortunately",
  "6314": " Ms",
  "6315": " string",
  "6316": " Maybe",
  "6317": " heavily",
  "6318": " Another",
  "6319": " fairly",
  "6320": " temperature",
  "6321": "arden",
  "6322": "ican",
  "6323": " kit",
  "6324": " existence",
  "6325": " Its",
  "6326": " Asia",
  "6327": " contest",
  "6328": "Add",
  "6329": " plot",
  "6330": "issions",
  "6331": "dis",
  "6332": " Cub",
  "6333": " resident",
  "6334": "Man",
  "6335": "usal",
  "6336": " targets",
  "6337": " Bob",
  "6338": " Korean",
  "6339": " resc",
  "6340": "duc",
  "6341": " lock",
  "6342": " younger",
  "6343": " Str",
  "6344": "',",
  "6345": " colleagues",
  "6346": "PU",
  "6347": " library",
  "6348": "\u00c3\u00b6",
  "6349": " rally",
  "6350": " parliament",
  "6351": " protests",
  "6352": " anywhere",
  "6353": "oked",
  "6354": " Sports",
  "6355": " Sky",
  "6356": " bike",
  "6357": "zona",
  "6358": " breaking",
  "6359": "acle",
  "6360": "ii",
  "6361": " grab",
  "6362": " stores",
  "6363": " expression",
  "6364": " sym",
  "6365": " chain",
  "6366": " blow",
  "6367": " warning",
  "6368": " importance",
  "6369": " defined",
  "6370": " chart",
  "6371": " buying",
  "6372": "greg",
  "6373": " manage",
  "6374": " prohib",
  "6375": " classic",
  "6376": " cere",
  "6377": " snow",
  "6378": " adults",
  "6379": " Each",
  "6380": " illust",
  "6381": "See",
  "6382": " marketing",
  "6383": "Ob",
  "6384": " links",
  "6385": "\u00c3\u00b3",
  "6386": "iques",
  "6387": " shif",
  "6388": "born",
  "6389": "andal",
  "6390": " Club",
  "6391": " tow",
  "6392": " Hist",
  "6393": " fraud",
  "6394": "OC",
  "6395": "pret",
  "6396": " facility",
  "6397": "ollywood",
  "6398": "cho",
  "6399": " hardware",
  "6400": " schol",
  "6401": " allegedly",
  "6402": " 37",
  "6403": " regulations",
  "6404": " bon",
  "6405": " doctors",
  "6406": " Colorado",
  "6407": "agan",
  "6408": " currency",
  "6409": " household",
  "6410": " replaced",
  "6411": " essential",
  "6412": "En",
  "6413": "opy",
  "6414": "onna",
  "6415": " Ram",
  "6416": " somewhat",
  "6417": " Div",
  "6418": "press",
  "6419": "86",
  "6420": " nav",
  "6421": " favour",
  "6422": "power",
  "6423": " promise",
  "6424": " DC",
  "6425": " Boy",
  "6426": " laugh",
  "6427": " Rights",
  "6428": "Pol",
  "6429": " holds",
  "6430": " opposite",
  "6431": "ocket",
  "6432": "ena",
  "6433": "\u00d1\u0081",
  "6434": " moments",
  "6435": "west",
  "6436": " hat",
  "6437": "tering",
  "6438": " opponent",
  "6439": " bug",
  "6440": " Far",
  "6441": " campus",
  "6442": " acts",
  "6443": " rum",
  "6444": "etroit",
  "6445": " versions",
  "6446": " metal",
  "6447": " motion",
  "6448": " evolution",
  "6449": "hips",
  "6450": "ometimes",
  "6451": " vice",
  "6452": "anish",
  "6453": " sees",
  "6454": " Image",
  "6455": " bag",
  "6456": " relevant",
  "6457": " industrial",
  "6458": " zero",
  "6459": " sick",
  "6460": "IR",
  "6461": "oma",
  "6462": " closely",
  "6463": " Ann",
  "6464": "hetic",
  "6465": " emotional",
  "6466": "chen",
  "6467": "game",
  "6468": "IF",
  "6469": " Year",
  "6470": " YouTube",
  "6471": "va",
  "6472": " fewer",
  "6473": " division",
  "6474": "olve",
  "6475": " adm",
  "6476": " downt",
  "6477": " harder",
  "6478": " refere",
  "6479": " customer",
  "6480": " hoping",
  "6481": "ologist",
  "6482": " tom",
  "6483": " Brook",
  "6484": "Donald",
  "6485": " Valley",
  "6486": " hur",
  "6487": " Gra",
  "6488": " mechanism",
  "6489": "ittle",
  "6490": "po",
  "6491": "ml",
  "6492": " Houston",
  "6493": " Elect",
  "6494": "inem",
  "6495": " returns",
  "6496": "NC",
  "6497": "atell",
  "6498": " volunte",
  "6499": " participants",
  "6500": " extent",
  "6501": " intention",
  "6502": "gas",
  "6503": "alian",
  "6504": "pan",
  "6505": " excellent",
  "6506": " Soviet",
  "6507": " syn",
  "6508": " acknowled",
  "6509": "llect",
  "6510": "ulous",
  "6511": " Mot",
  "6512": "oming",
  "6513": " Games",
  "6514": " squad",
  "6515": " circumstances",
  "6516": " fashion",
  "6517": " isol",
  "6518": "\u00c3\u00bc",
  "6519": "otal",
  "6520": " immediate",
  "6521": " Eric",
  "6522": " suffering",
  "6523": "esc",
  "6524": " Watch",
  "6525": " lies",
  "6526": " tiny",
  "6527": " authors",
  "6528": " batt",
  "6529": " 38",
  "6530": " grown",
  "6531": " Gar",
  "6532": "iger",
  "6533": " immigrants",
  "6534": "\u00c3\u0083",
  "6535": "print",
  "6536": "ora",
  "6537": " kinds",
  "6538": "utch",
  "6539": " 49",
  "6540": " Die",
  "6541": " cheap",
  "6542": " mine",
  "6543": " detailed",
  "6544": "ordan",
  "6545": " Hel",
  "6546": "name",
  "6547": " featured",
  "6548": " Wik",
  "6549": "ayers",
  "6550": " meat",
  "6551": " Er",
  "6552": " unus",
  "6553": " Aut",
  "6554": " competitive",
  "6555": " describe",
  "6556": " formed",
  "6557": " Home",
  "6558": " IP",
  "6559": "nic",
  "6560": " carrying",
  "6561": "certain",
  "6562": " tournament",
  "6563": " termin",
  "6564": " trick",
  "6565": " relationships",
  "6566": "friend",
  "6567": " fundamental",
  "6568": "kel",
  "6569": " wave",
  "6570": " cycle",
  "6571": "obb",
  "6572": " crazy",
  "6573": " signing",
  "6574": " Way",
  "6575": " Cy",
  "6576": "rome",
  "6577": " guide",
  "6578": "efully",
  "6579": " wins",
  "6580": " Catholic",
  "6581": " earned",
  "6582": "08",
  "6583": " decline",
  "6584": " regional",
  "6585": "nam",
  "6586": "ensus",
  "6587": "style",
  "6588": " embr",
  "6589": " strange",
  "6590": " Palestinian",
  "6591": " Jesus",
  "6592": " Long",
  "6593": " ancient",
  "6594": " frequently",
  "6595": "06",
  "6596": " acting",
  "6597": " Putin",
  "6598": " Sar",
  "6599": " efficient",
  "6600": " manner",
  "6601": " pushing",
  "6602": " CIA",
  "6603": " comfortable",
  "6604": " Card",
  "6605": " pip",
  "6606": "ORE",
  "6607": "Per",
  "6608": " sharing",
  "6609": " wire",
  "6610": " skill",
  "6611": " Econom",
  "6612": "ockey",
  "6613": "chers",
  "6614": " instru",
  "6615": " owned",
  "6616": " Ell",
  "6617": "bar",
  "6618": " commitment",
  "6619": " alongside",
  "6620": " OF",
  "6621": "uated",
  "6622": " Lord",
  "6623": "anes",
  "6624": "09",
  "6625": " Davis",
  "6626": " cart",
  "6627": "rison",
  "6628": " controversial",
  "6629": " artists",
  "6630": " referred",
  "6631": "weight",
  "6632": " egg",
  "6633": " mouth",
  "6634": " repeatedly",
  "6635": " 48",
  "6636": " Top",
  "6637": "\u00ef\u00bf",
  "6638": " 34",
  "6639": "FP",
  "6640": "awa",
  "6641": " attempted",
  "6642": "Se",
  "6643": " femin",
  "6644": "umber",
  "6645": " updated",
  "6646": "foot",
  "6647": " cert",
  "6648": "vin",
  "6649": " pregn",
  "6650": " Old",
  "6651": " schedule",
  "6652": "ua",
  "6653": "xy",
  "6654": " PS",
  "6655": "amily",
  "6656": "adel",
  "6657": " dedicated",
  "6658": " posts",
  "6659": "\u00d0\u00bd",
  "6660": " AL",
  "6661": " sentence",
  "6662": " upcoming",
  "6663": " Down",
  "6664": " NY",
  "6665": " column",
  "6666": " Di",
  "6667": "hus",
  "6668": " depth",
  "6669": " pled",
  "6670": " virtual",
  "6671": "uable",
  "6672": " journey",
  "6673": " struck",
  "6674": "\u00d1\u0080",
  "6675": " desk",
  "6676": " studio",
  "6677": " realized",
  "6678": " Energy",
  "6679": "Despite",
  "6680": "%)",
  "6681": "ceived",
  "6682": "ographic",
  "6683": "DS",
  "6684": "ko",
  "6685": "ugh",
  "6686": " medic",
  "6687": " serving",
  "6688": "iami",
  "6689": " walked",
  "6690": "rive",
  "6691": "iveness",
  "6692": " king",
  "6693": " ring",
  "6694": " reput",
  "6695": "phy",
  "6696": "you",
  "6697": " urban",
  "6698": "07",
  "6699": " Cle",
  "6700": " Charles",
  "6701": " Wild",
  "6702": " channel",
  "6703": " targeted",
  "6704": "gor",
  "6705": " assets",
  "6706": "luding",
  "6707": " inspired",
  "6708": " hotel",
  "6709": " Arizona",
  "6710": " newslet",
  "6711": "Like",
  "6712": "Two",
  "6713": " Supp",
  "6714": " universe",
  "6715": " agenda",
  "6716": " causing",
  "6717": " watched",
  "6718": " suicide",
  "6719": " tort",
  "6720": " stream",
  "6721": " overwhel",
  "6722": " Py",
  "6723": " usual",
  "6724": " surveillance",
  "6725": " Men",
  "6726": " intent",
  "6727": "sole",
  "6728": "People",
  "6729": " liqu",
  "6730": " sister",
  "6731": " chairman",
  "6732": " opponents",
  "6733": " du",
  "6734": " Wars",
  "6735": "bel",
  "6736": " Cruz",
  "6737": " mainstream",
  "6738": " latter",
  "6739": " hall",
  "6740": " surrounding",
  "6741": " folks",
  "6742": " knowing",
  "6743": " orders",
  "6744": " Inf",
  "6745": " remote",
  "6746": " 75",
  "6747": " sand",
  "6748": " literally",
  "6749": " Java",
  "6750": " observed",
  "6751": " Again",
  "6752": " Right",
  "6753": " subsid",
  "6754": " Defense",
  "6755": " infl",
  "6756": " approval",
  "6757": "rence",
  "6758": "iments",
  "6759": " basket",
  "6760": " Van",
  "6761": "burg",
  "6762": "rations",
  "6763": "avor",
  "6764": " teachers",
  "6765": "azi",
  "6766": "izz",
  "6767": "Fr",
  "6768": "aze",
  "6769": "ta",
  "6770": " winter",
  "6771": "iciency",
  "6772": "alle",
  "6773": " exciting",
  "6774": "acc",
  "6775": "iro",
  "6776": "aylor",
  "6777": " Tal",
  "6778": " format",
  "6779": "boy",
  "6780": " congress",
  "6781": " protected",
  "6782": "ati",
  "6783": " noticed",
  "6784": " simpl",
  "6785": " dealing",
  "6786": " Young",
  "6787": " Pan",
  "6788": " Child",
  "6789": " precise",
  "6790": "67",
  "6791": "xual",
  "6792": " deeply",
  "6793": "ipl",
  "6794": " communication",
  "6795": " gang",
  "6796": " sending",
  "6797": " Jr",
  "6798": " forth",
  "6799": " fasc",
  "6800": " battery",
  "6801": " wal",
  "6802": "mun",
  "6803": " sky",
  "6804": " narr",
  "6805": " fixed",
  "6806": "post",
  "6807": " aside",
  "6808": "abis",
  "6809": " requirements",
  "6810": " properties",
  "6811": "rors",
  "6812": "str",
  "6813": " alive",
  "6814": " narrow",
  "6815": " wake",
  "6816": " passion",
  "6817": "allas",
  "6818": " Arch",
  "6819": "onymous",
  "6820": " eating",
  "6821": "ensity",
  "6822": " mistake",
  "6823": "wart",
  "6824": "woman",
  "6825": " explore",
  "6826": " coffee",
  "6827": " 1970",
  "6828": " rape",
  "6829": " volume",
  "6830": " promised",
  "6831": " diet",
  "6832": "acking",
  "6833": " risks",
  "6834": " exhib",
  "6835": " Polit",
  "6836": " sweet",
  "6837": "May",
  "6838": " Enter",
  "6839": " Wat",
  "6840": " neut",
  "6841": " involving",
  "6842": " selection",
  "6843": " wage",
  "6844": " Max",
  "6845": " tested",
  "6846": "ether",
  "6847": " flu",
  "6848": "ulture",
  "6849": " defeat",
  "6850": " northern",
  "6851": " reward",
  "6852": " welcome",
  "6853": " extended",
  "6854": " puts",
  "6855": " phenomen",
  "6856": " territory",
  "6857": " unemploy",
  "6858": " refugees",
  "6859": " sample",
  "6860": " height",
  "6861": " approximately",
  "6862": " Kevin",
  "6863": "59",
  "6864": " blame",
  "6865": " Brad",
  "6866": " anyway",
  "6867": "ums",
  "6868": " Detroit",
  "6869": " destroyed",
  "6870": "obile",
  "6871": " impressive",
  "6872": " Stephen",
  "6873": "asks",
  "6874": " god",
  "6875": " gap",
  "6876": " proof",
  "6877": " dry",
  "6878": "\u00ef\u00bf\u00bd",
  "6879": " crash",
  "6880": "ingu",
  "6881": " unknown",
  "6882": " locations",
  "6883": "04",
  "6884": " selected",
  "6885": "apse",
  "6886": " west",
  "6887": "anges",
  "6888": "gery",
  "6889": " Fil",
  "6890": "stone",
  "6891": " attacked",
  "6892": " Tit",
  "6893": " Miller",
  "6894": " maximum",
  "6895": "lv",
  "6896": " Wilson",
  "6897": " promote",
  "6898": "\u00e2\u0080\u0099.",
  "6899": " shel",
  "6900": " merely",
  "6901": " franchise",
  "6902": "arry",
  "6903": " requests",
  "6904": " retire",
  "6905": " sho",
  "6906": " suddenly",
  "6907": "aser",
  "6908": " slowly",
  "6909": " protesters",
  "6910": " disag",
  "6911": "dro",
  "6912": " teacher",
  "6913": " typical",
  "6914": " Ins",
  "6915": "ogan",
  "6916": "ixt",
  "6917": " Women",
  "6918": " conver",
  "6919": "list",
  "6920": " chose",
  "6921": " Camer",
  "6922": " Class",
  "6923": " Lu",
  "6924": " matches",
  "6925": " license",
  "6926": " properly",
  "6927": " assume",
  "6928": "oration",
  "6929": " discover",
  "6930": "03",
  "6931": " wid",
  "6932": " PR",
  "6933": " Mic",
  "6934": "Rel",
  "6935": " worried",
  "6936": " moder",
  "6937": "Or",
  "6938": " abortion",
  "6939": "fire",
  "6940": "owered",
  "6941": " allies",
  "6942": " oblig",
  "6943": " terrorism",
  "6944": "02",
  "6945": " supports",
  "6946": "ao",
  "6947": " \u00ce",
  "6948": "uilding",
  "6949": "\u00c3\u0083\u00c3\u0082",
  "6950": "inson",
  "6951": "verty",
  "6952": " arguments",
  "6953": " theme",
  "6954": " adapt",
  "6955": " confront",
  "6956": " facilities",
  "6957": " sustain",
  "6958": "igg",
  "6959": "gender",
  "6960": " pal",
  "6961": " east",
  "6962": " recognize",
  "6963": "igure",
  "6964": " fuck",
  "6965": "\u00c3\u0083\u00c3\u0082\u00c3\u0083\u00c3\u0082",
  "6966": "lies",
  "6967": " equival",
  "6968": " obtained",
  "6969": " poverty",
  "6970": " rub",
  "6971": " Italy",
  "6972": "mo",
  "6973": " nomine",
  "6974": " deals",
  "6975": " fees",
  "6976": "itarian",
  "6977": "osis",
  "6978": "alo",
  "6979": " Hollywood",
  "6980": " understood",
  "6981": " controlled",
  "6982": "VER",
  "6983": " Best",
  "6984": " Dam",
  "6985": " topic",
  "6986": " critics",
  "6987": " Society",
  "6988": " Agency",
  "6989": "axy",
  "6990": " Ford",
  "6991": " sole",
  "6992": " Jersey",
  "6993": "arity",
  "6994": " village",
  "6995": " diagn",
  "6996": " Administ",
  "6997": "raid",
  "6998": "68",
  "6999": " likes",
  "7000": "celer",
  "7001": "sters",
  "7002": " Four",
  "7003": " evil",
  "7004": " punish",
  "7005": " dress",
  "7006": "cript",
  "7007": " ped",
  "7008": " Georgia",
  "7009": "asts",
  "7010": " bunch",
  "7011": " Company",
  "7012": " journalists",
  "7013": "John",
  "7014": " exposed",
  "7015": " regions",
  "7016": "redit",
  "7017": "ocation",
  "7018": " communications",
  "7019": " scheme",
  "7020": "lls",
  "7021": " transp",
  "7022": " stim",
  "7023": " limits",
  "7024": " somehow",
  "7025": " honor",
  "7026": " strongly",
  "7027": " drag",
  "7028": " resistance",
  "7029": " champion",
  "7030": " Labor",
  "7031": " phase",
  "7032": " NASA",
  "7033": "pool",
  "7034": " Carl",
  "7035": " profit",
  "7036": " truck",
  "7037": " constant",
  "7038": " condem",
  "7039": " escape",
  "7040": " personally",
  "7041": " Dun",
  "7042": "rimination",
  "7043": " Night",
  "7044": " Land",
  "7045": "aug",
  "7046": " Fort",
  "7047": " bid",
  "7048": " NHL",
  "7049": " Stand",
  "7050": " vacc",
  "7051": " deck",
  "7052": "CA",
  "7053": "nesota",
  "7054": "iform",
  "7055": " falling",
  "7056": "ads",
  "7057": "GBT",
  "7058": " Network",
  "7059": " somewhere",
  "7060": "cers",
  "7061": " employee",
  "7062": " harass",
  "7063": " bear",
  "7064": " CD",
  "7065": "iner",
  "7066": " comparison",
  "7067": "orted",
  "7068": "ciples",
  "7069": " polls",
  "7070": "owa",
  "7071": " inqu",
  "7072": " Love",
  "7073": "pected",
  "7074": " southern",
  "7075": " decent",
  "7076": "oric",
  "7077": "cow",
  "7078": " Spanish",
  "7079": " encourage",
  "7080": " emissions",
  "7081": " 39",
  "7082": " Kn",
  "7083": " View",
  "7084": "enders",
  "7085": " empty",
  "7086": " Miami",
  "7087": " hits",
  "7088": "oster",
  "7089": " Cam",
  "7090": " definition",
  "7091": "57",
  "7092": " directed",
  "7093": " pic",
  "7094": " Bell",
  "7095": "pes",
  "7096": " flex",
  "7097": "wan",
  "7098": " Ok",
  "7099": "zens",
  "7100": " meetings",
  "7101": " End",
  "7102": "\u00d0\u00be\u00d0",
  "7103": " comprom",
  "7104": " winner",
  "7105": "intend",
  "7106": "icken",
  "7107": " gotten",
  "7108": " Daniel",
  "7109": " Turk",
  "7110": " electricity",
  "7111": " chosen",
  "7112": " officially",
  "7113": " bench",
  "7114": " stretch",
  "7115": " database",
  "7116": " Despite",
  "7117": " intellect",
  "7118": " spin",
  "7119": " stronger",
  "7120": "igation",
  "7121": "Com",
  "7122": " deleg",
  "7123": " purposes",
  "7124": " DNA",
  "7125": "teen",
  "7126": " cutting",
  "7127": " Turn",
  "7128": " fold",
  "7129": "aun",
  "7130": "rary",
  "7131": " extensive",
  "7132": " amounts",
  "7133": " desper",
  "7134": " anx",
  "7135": " trees",
  "7136": " ideal",
  "7137": " Asian",
  "7138": " thread",
  "7139": " fifth",
  "7140": "rett",
  "7141": "\u0088\u0092",
  "7142": "CS",
  "7143": " goods",
  "7144": "UR",
  "7145": " colon",
  "7146": " developer",
  "7147": " claiming",
  "7148": "unning",
  "7149": "Any",
  "7150": " retain",
  "7151": " soul",
  "7152": " captured",
  "7153": " Though",
  "7154": " finds",
  "7155": " driven",
  "7156": "aire",
  "7157": " payments",
  "7158": " Jordan",
  "7159": "ras",
  "7160": " ties",
  "7161": " reasonable",
  "7162": " dogs",
  "7163": "\u00e2\u0096",
  "7164": " somebody",
  "7165": " ending",
  "7166": " Nations",
  "7167": " choices",
  "7168": " ble",
  "7169": " seats",
  "7170": " Services",
  "7171": "asters",
  "7172": " Thank",
  "7173": " pod",
  "7174": " drawn",
  "7175": " engage",
  "7176": " sight",
  "7177": "CE",
  "7178": " param",
  "7179": " threatened",
  "7180": " ruled",
  "7181": " Dar",
  "7182": " Attorney",
  "7183": " Irish",
  "7184": "eping",
  "7185": "ura",
  "7186": " Sea",
  "7187": " trading",
  "7188": "owed",
  "7189": " primarily",
  "7190": " aspects",
  "7191": " fighters",
  "7192": "ML",
  "7193": " answers",
  "7194": " perfectly",
  "7195": "irms",
  "7196": " Academ",
  "7197": " incl",
  "7198": " parking",
  "7199": " rival",
  "7200": " rejected",
  "7201": " Gall",
  "7202": " Cat",
  "7203": " constantly",
  "7204": " Hun",
  "7205": " payment",
  "7206": "fast",
  "7207": " distinct",
  "7208": " flying",
  "7209": " rig",
  "7210": " Real",
  "7211": " technologies",
  "7212": "</",
  "7213": " components",
  "7214": "Police",
  "7215": " admit",
  "7216": " Scotland",
  "7217": " elsewhere",
  "7218": " Dark",
  "7219": " constit",
  "7220": " tur",
  "7221": " anymore",
  "7222": "lder",
  "7223": " Cast",
  "7224": " icon",
  "7225": " fields",
  "7226": " estimates",
  "7227": "EW",
  "7228": "sea",
  "7229": " solutions",
  "7230": " resulting",
  "7231": "78",
  "7232": " Bru",
  "7233": " awesome",
  "7234": " province",
  "7235": "mod",
  "7236": " actor",
  "7237": " worldwide",
  "7238": " regularly",
  "7239": " Moore",
  "7240": " courts",
  "7241": " narrative",
  "7242": "Once",
  "7243": " boot",
  "7244": " Ut",
  "7245": " enemies",
  "7246": " mixed",
  "7247": "regon",
  "7248": " OS",
  "7249": " Disney",
  "7250": "sm",
  "7251": "icer",
  "7252": " houses",
  "7253": " nobody",
  "7254": " Sk",
  "7255": "inations",
  "7256": " controls",
  "7257": " Water",
  "7258": " letters",
  "7259": "agram",
  "7260": "iana",
  "7261": "imp",
  "7262": " 42",
  "7263": " murd",
  "7264": " mayor",
  "7265": " outcome",
  "7266": " MS",
  "7267": " contem",
  "7268": "sell",
  "7269": " Tem",
  "7270": "vy",
  "7271": "Sec",
  "7272": "apes",
  "7273": "ship",
  "7274": " Light",
  "7275": "isan",
  "7276": "onic",
  "7277": " apartment",
  "7278": " Brian",
  "7279": " Steven",
  "7280": " coalition",
  "7281": " contributed",
  "7282": " Bas",
  "7283": " tank",
  "7284": " concluded",
  "7285": " Adam",
  "7286": " exists",
  "7287": " founder",
  "7288": " Lew",
  "7289": " atmosphere",
  "7290": " profile",
  "7291": " brew",
  "7292": " Id",
  "7293": " Tw",
  "7294": " situations",
  "7295": "ls",
  "7296": " Championship",
  "7297": " loan",
  "7298": " Author",
  "7299": "rates",
  "7300": " incredible",
  "7301": " Constitution",
  "7302": " signal",
  "7303": "otes",
  "7304": " Rog",
  "7305": " accurate",
  "7306": "300",
  "7307": " Victor",
  "7308": "otten",
  "7309": " Where",
  "7310": " unp",
  "7311": "ker",
  "7312": " Southern",
  "7313": ".\"[",
  "7314": " employment",
  "7315": "earing",
  "7316": " clients",
  "7317": " keeps",
  "7318": " informed",
  "7319": " continuing",
  "7320": "inity",
  "7321": " baseball",
  "7322": " taste",
  "7323": " generate",
  "7324": " ticket",
  "7325": " conven",
  "7326": "Also",
  "7327": " Conf",
  "7328": "oft",
  "7329": " weird",
  "7330": "lock",
  "7331": " tied",
  "7332": "adelph",
  "7333": " category",
  "7334": "zy",
  "7335": "ilarly",
  "7336": "acked",
  "7337": " Organ",
  "7338": " angry",
  "7339": " routine",
  "7340": "aron",
  "7341": " kil",
  "7342": " raising",
  "7343": "ifer",
  "7344": " machines",
  "7345": " registered",
  "7346": " proved",
  "7347": "there",
  "7348": " demands",
  "7349": " gaming",
  "7350": " Italian",
  "7351": " incredibly",
  "7352": " crucial",
  "7353": "MP",
  "7354": " stuck",
  "7355": " Civil",
  "7356": " Dallas",
  "7357": " terrible",
  "7358": "56",
  "7359": " feedback",
  "7360": " upper",
  "7361": " plastic",
  "7362": " imper",
  "7363": " newly",
  "7364": " Joseph",
  "7365": " consumption",
  "7366": "rage",
  "7367": " dozen",
  "7368": " enthus",
  "7369": " estate",
  "7370": "ali",
  "7371": " innoc",
  "7372": " manip",
  "7373": " conscious",
  "7374": " bills",
  "7375": " Cross",
  "7376": "ept",
  "7377": " Spain",
  "7378": "ifications",
  "7379": "Today",
  "7380": " writers",
  "7381": " excess",
  "7382": "inding",
  "7383": " aggressive",
  "7384": " reporter",
  "7385": " compens",
  "7386": " returning",
  "7387": " stead",
  "7388": " programming",
  "7389": " Thanks",
  "7390": " represented",
  "7391": " conclusion",
  "7392": "98",
  "7393": " rus",
  "7394": " Bowl",
  "7395": "MS",
  "7396": " AR",
  "7397": " origin",
  "7398": " assistant",
  "7399": "adelphia",
  "7400": " roster",
  "7401": " Minnesota",
  "7402": " organized",
  "7403": "ria",
  "7404": " penalty",
  "7405": " drinking",
  "7406": "lers",
  "7407": " paint",
  "7408": " satell",
  "7409": " gro",
  "7410": " Program",
  "7411": " capture",
  "7412": " conspir",
  "7413": " interpret",
  "7414": " explanation",
  "7415": "iscal",
  "7416": "ni",
  "7417": "58",
  "7418": " county",
  "7419": "iscons",
  "7420": "essed",
  "7421": "ima",
  "7422": " %",
  "7423": "Dr",
  "7424": "anny",
  "7425": "mont",
  "7426": "gorith",
  "7427": "isconsin",
  "7428": " assistance",
  "7429": " Roman",
  "7430": " complaint",
  "7431": "star",
  "7432": " ru",
  "7433": " nut",
  "7434": "LA",
  "7435": " magic",
  "7436": " tall",
  "7437": " Oper",
  "7438": " granted",
  "7439": "Ed",
  "7440": "Because",
  "7441": " Contin",
  "7442": "Off",
  "7443": " Parliament",
  "7444": " complicated",
  "7445": "emen",
  "7446": " audio",
  "7447": " chances",
  "7448": " extract",
  "7449": " Gi",
  "7450": " 1999",
  "7451": " Educ",
  "7452": "era",
  "7453": " shares",
  "7454": " hel",
  "7455": " successfully",
  "7456": "rete",
  "7457": " Win",
  "7458": "esy",
  "7459": "........",
  "7460": " Hot",
  "7461": " pilot",
  "7462": " IT",
  "7463": " Ep",
  "7464": " myth",
  "7465": " recovery",
  "7466": " Test",
  "7467": " techniques",
  "7468": " iron",
  "7469": " Care",
  "7470": " Zeal",
  "7471": " SC",
  "7472": " scenes",
  "7473": " Fre",
  "7474": " veteran",
  "7475": " ($",
  "7476": " degrees",
  "7477": "actions",
  "7478": "ked",
  "7479": "thew",
  "7480": " sympt",
  "7481": " lawmakers",
  "7482": " western",
  "7483": " operate",
  "7484": " ads",
  "7485": "rating",
  "7486": " habit",
  "7487": "rep",
  "7488": " aimed",
  "7489": "Inst",
  "7490": "anchester",
  "7491": " phr",
  "7492": "idency",
  "7493": " engaged",
  "7494": " privile",
  "7495": " 55",
  "7496": "========",
  "7497": "uan",
  "7498": " rating",
  "7499": " teaching",
  "7500": " Os",
  "7501": " academic",
  "7502": "!<|",
  "7503": "itar",
  "7504": " therap",
  "7505": " passes",
  "7506": " dollar",
  "7507": " automatically",
  "7508": "hent",
  "7509": " Pacific",
  "7510": " monit",
  "7511": " blocks",
  "7512": "abama",
  "7513": " attended",
  "7514": " permanent",
  "7515": " survive",
  "7516": " anticip",
  "7517": " enable",
  "7518": " Look",
  "7519": " extrem",
  "7520": " Foreign",
  "7521": "chain",
  "7522": " chat",
  "7523": " marked",
  "7524": "itals",
  "7525": " hidden",
  "7526": " accomp",
  "7527": " titles",
  "7528": " Senator",
  "7529": " NBC",
  "7530": "cr",
  "7531": " taught",
  "7532": "aed",
  "7533": " Linux",
  "7534": " bom",
  "7535": " index",
  "7536": "everal",
  "7537": " elite",
  "7538": "ibilities",
  "7539": " lawyers",
  "7540": " depending",
  "7541": "from",
  "7542": " valuable",
  "7543": " installed",
  "7544": " championship",
  "7545": " root",
  "7546": " compre",
  "7547": "mal",
  "7548": " Bull",
  "7549": " downtown",
  "7550": " equivalent",
  "7551": " solve",
  "7552": "rific",
  "7553": " duty",
  "7554": " Special",
  "7555": " Business",
  "7556": " 64",
  "7557": " pace",
  "7558": "HS",
  "7559": " reputation",
  "7560": " uncertain",
  "7561": " phones",
  "7562": " overse",
  "7563": "uine",
  "7564": "bal",
  "7565": " Taylor",
  "7566": " personnel",
  "7567": " pin",
  "7568": " sufficient",
  "7569": "aturally",
  "7570": "reams",
  "7571": " visited",
  "7572": " warming",
  "7573": " principles",
  "7574": " vulnerable",
  "7575": " enjoyed",
  "7576": " fake",
  "7577": " Nick",
  "7578": " advis",
  "7579": " negotiations",
  "7580": "inder",
  "7581": " generated",
  "7582": " exposure",
  "7583": "ye",
  "7584": "Me",
  "7585": " recording",
  "7586": " collected",
  "7587": " regardless",
  "7588": " dict",
  "7589": "%.",
  "7590": "EA",
  "7591": " bitcoin",
  "7592": " elev",
  "7593": "\u00e3\u0080",
  "7594": "active",
  "7595": " Kelly",
  "7596": " Anth",
  "7597": " cup",
  "7598": " patterns",
  "7599": "Getty",
  "7600": " Take",
  "7601": "))",
  "7602": " Avenue",
  "7603": " Josh",
  "7604": "bro",
  "7605": " cable",
  "7606": " disaster",
  "7607": " 65",
  "7608": " worker",
  "7609": " mainly",
  "7610": "lla",
  "7611": " racial",
  "7612": "quarters",
  "7613": " Viet",
  "7614": " Coast",
  "7615": "month",
  "7616": " pounds",
  "7617": " 150",
  "7618": " Call",
  "7619": " portion",
  "7620": " Ah",
  "7621": " afraid",
  "7622": " inspir",
  "7623": " bes",
  "7624": " defence",
  "7625": " Eastern",
  "7626": " Tony",
  "7627": " tracks",
  "7628": " busy",
  "7629": "da",
  "7630": " shit",
  "7631": " intense",
  "7632": " LGBT",
  "7633": " Series",
  "7634": "orne",
  "7635": " Still",
  "7636": "athy",
  "7637": " funny",
  "7638": " apolog",
  "7639": "mann",
  "7640": " surgery",
  "7641": " Moscow",
  "7642": " Coll",
  "7643": " possession",
  "7644": " prominent",
  "7645": " Mars",
  "7646": " comic",
  "7647": " Ger",
  "7648": "ashes",
  "7649": "97",
  "7650": "ules",
  "7651": " Ray",
  "7652": " thin",
  "7653": " engineering",
  "7654": " troub",
  "7655": " Kurd",
  "7656": "this",
  "7657": " processes",
  "7658": " Nation",
  "7659": " Kent",
  "7660": " Come",
  "7661": "fall",
  "7662": " entit",
  "7663": " \u00e2\u0080\u0099",
  "7664": " unusual",
  "7665": "raph",
  "7666": "etary",
  "7667": " describes",
  "7668": "Col",
  "7669": "world",
  "7670": "96",
  "7671": " resulted",
  "7672": " emerged",
  "7673": " taxp",
  "7674": " gall",
  "7675": "iler",
  "7676": " dim",
  "7677": " propag",
  "7678": " Iowa",
  "7679": " Oregon",
  "7680": " coordin",
  "7681": " corruption",
  "7682": " stations",
  "7683": " Invest",
  "7684": " fought",
  "7685": " AD",
  "7686": " brut",
  "7687": " extension",
  "7688": "prise",
  "7689": " blind",
  "7690": " adopted",
  "7691": " compete",
  "7692": " recru",
  "7693": "tes",
  "7694": " grant",
  "7695": " Zealand",
  "7696": " hadn",
  "7697": "Pr",
  "7698": " 400",
  "7699": " mail",
  "7700": "ref",
  "7701": " everywhere",
  "7702": " Balt",
  "7703": " Hom",
  "7704": "ba",
  "7705": "Rec",
  "7706": "Mean",
  "7707": "icate",
  "7708": " crypt",
  "7709": "herent",
  "7710": " contracts",
  "7711": " Ali",
  "7712": " neuro",
  "7713": " Int",
  "7714": "front",
  "7715": " Dead",
  "7716": " Rick",
  "7717": " feelings",
  "7718": " firms",
  "7719": "idelines",
  "7720": " minority",
  "7721": "\u00e2\u0080\u0099,",
  "7722": "HA",
  "7723": "cles",
  "7724": " advertising",
  "7725": " rarely",
  "7726": " spr",
  "7727": " discipl",
  "7728": "gun",
  "7729": "making",
  "7730": " Northern",
  "7731": " sanctions",
  "7732": "scape",
  "7733": " Philadelphia",
  "7734": "upid",
  "7735": " cameras",
  "7736": "log",
  "7737": " explicit",
  "7738": " strict",
  "7739": "viously",
  "7740": " enorm",
  "7741": " finance",
  "7742": " cited",
  "7743": "ifies",
  "7744": " Before",
  "7745": " shortly",
  "7746": " Policy",
  "7747": "UL",
  "7748": " expectations",
  "7749": " implementation",
  "7750": "ogen",
  "7751": " recip",
  "7752": "cling",
  "7753": " Greek",
  "7754": "olt",
  "7755": " thick",
  "7756": " thousand",
  "7757": "antic",
  "7758": " Mu",
  "7759": " loud",
  "7760": "istent",
  "7761": " affili",
  "7762": "orough",
  "7763": "urrent",
  "7764": " Navy",
  "7765": " inev",
  "7766": "cus",
  "7767": " photograph",
  "7768": " medium",
  "7769": "azz",
  "7770": " Wisconsin",
  "7771": " scenario",
  "7772": " Food",
  "7773": " Live",
  "7774": " sup",
  "7775": "ilton",
  "7776": "test",
  "7777": " plug",
  "7778": " veget",
  "7779": "Co",
  "7780": " ho",
  "7781": " visible",
  "7782": " lights",
  "7783": " creates",
  "7784": "LC",
  "7785": " priority",
  "7786": " ven",
  "7787": " bridge",
  "7788": "inking",
  "7789": " obst",
  "7790": " agric",
  "7791": "ATE",
  "7792": " permission",
  "7793": "Mar",
  "7794": " Foot",
  "7795": " algorith",
  "7796": "izon",
  "7797": " participate",
  "7798": "aska",
  "7799": " wing",
  "7800": "who",
  "7801": "asion",
  "7802": " tor",
  "7803": " Prote",
  "7804": " browser",
  "7805": " Global",
  "7806": " tag",
  "7807": "car",
  "7808": " Has",
  "7809": " mel",
  "7810": " Ash",
  "7811": " acceler",
  "7812": " dozens",
  "7813": "elect",
  "7814": " Kingdom",
  "7815": "ez",
  "7816": " computers",
  "7817": " historic",
  "7818": " laid",
  "7819": " basketball",
  "7820": " losses",
  "7821": " Saf",
  "7822": " unw",
  "7823": "76",
  "7824": "ogether",
  "7825": "::",
  "7826": " Amendment",
  "7827": " strikes",
  "7828": " principle",
  "7829": " Development",
  "7830": " formal",
  "7831": "EP",
  "7832": "54",
  "7833": " scoring",
  "7834": "lan",
  "7835": "athered",
  "7836": "obs",
  "7837": " 44",
  "7838": " counsel",
  "7839": "++",
  "7840": " shock",
  "7841": " wonderful",
  "7842": " SP",
  "7843": " behalf",
  "7844": "abs",
  "7845": " uncom",
  "7846": "profit",
  "7847": "igen",
  "7848": "52",
  "7849": "enth",
  "7850": "ems",
  "7851": " interface",
  "7852": " establishment",
  "7853": " toler",
  "7854": " Henry",
  "7855": "lete",
  "7856": "bell",
  "7857": " Greg",
  "7858": "amber",
  "7859": " Major",
  "7860": " Thus",
  "7861": "Us",
  "7862": " gained",
  "7863": " fee",
  "7864": "jo",
  "7865": " founded",
  "7866": " foundation",
  "7867": "etime",
  "7868": "51",
  "7869": " ESP",
  "7870": "ilipp",
  "7871": " clubs",
  "7872": " cannabis",
  "7873": " ju",
  "7874": " airport",
  "7875": "ystem",
  "7876": " Key",
  "7877": " borrow",
  "7878": "olis",
  "7879": "iel",
  "7880": "weet",
  "7881": "BO",
  "7882": " manufacturing",
  "7883": " rely",
  "7884": " Hit",
  "7885": " Pay",
  "7886": " Alabama",
  "7887": " Royal",
  "7888": " genuine",
  "7889": "rators",
  "7890": "Before",
  "7891": " component",
  "7892": " ridic",
  "7893": "osexual",
  "7894": " wheel",
  "7895": "rative",
  "7896": " Oak",
  "7897": " journalist",
  "7898": " relief",
  "7899": " Sn",
  "7900": " saved",
  "7901": " hole",
  "7902": " yield",
  "7903": " headed",
  "7904": " cyber",
  "7905": "she",
  "7906": " Moh",
  "7907": "uer",
  "7908": "ependent",
  "7909": " Ol",
  "7910": " gift",
  "7911": "aus",
  "7912": " withdraw",
  "7913": " fault",
  "7914": " indicate",
  "7915": " drawing",
  "7916": " uniform",
  "7917": "umer",
  "7918": " Rand",
  "7919": " Vis",
  "7920": "arlier",
  "7921": " stable",
  "7922": " ships",
  "7923": " ->",
  "7924": " banned",
  "7925": " magn",
  "7926": " Mid",
  "7927": " footage",
  "7928": "Meanwhile",
  "7929": "rous",
  "7930": " doors",
  "7931": " recognized",
  "7932": " 1960",
  "7933": " containing",
  "7934": "pread",
  "7935": " FC",
  "7936": " river",
  "7937": " struggling",
  "7938": "Sub",
  "7939": " spark",
  "7940": " Academy",
  "7941": " walls",
  "7942": " achieved",
  "7943": "opher",
  "7944": "ounced",
  "7945": " neighb",
  "7946": "aning",
  "7947": " plate",
  "7948": " edition",
  "7949": " HT",
  "7950": "portion",
  "7951": "mate",
  "7952": " movements",
  "7953": " deliber",
  "7954": "uce",
  "7955": "Post",
  "7956": " sharp",
  "7957": " AS",
  "7958": " Snow",
  "7959": "ulating",
  "7960": " Three",
  "7961": " episodes",
  "7962": " neutral",
  "7963": " Premier",
  "7964": " Ret",
  "7965": " Fund",
  "7966": " exception",
  "7967": "etts",
  "7968": " producer",
  "7969": "________________",
  "7970": " Fred",
  "7971": " destruction",
  "7972": " 1998",
  "7973": "ami",
  "7974": "osa",
  "7975": "oured",
  "7976": ":<|",
  "7977": " beliefs",
  "7978": " 47",
  "7979": " Review",
  "7980": " McG",
  "7981": " legend",
  "7982": " pump",
  "7983": " backed",
  "7984": "umin",
  "7985": " hired",
  "7986": " liked",
  "7987": "idespread",
  "7988": "cription",
  "7989": "ca",
  "7990": " roles",
  "7991": " languages",
  "7992": " profession",
  "7993": " entering",
  "7994": " VR",
  "7995": "oen",
  "7996": " interviews",
  "7997": " hang",
  "7998": "isp",
  "7999": " Kir",
  "8000": " tox",
  "8001": " philosophy",
  "8002": " Administration",
  "8003": " arrange",
  "8004": "interest",
  "8005": " flaw",
  "8006": " Nob",
  "8007": "Those",
  "8008": "sylv",
  "8009": "imore",
  "8010": " stadium",
  "8011": " Atlanta",
  "8012": " Jac",
  "8013": " dinner",
  "8014": " reduction",
  "8015": " bath",
  "8016": "ja",
  "8017": "uper",
  "8018": " Turkish",
  "8019": "eman",
  "8020": " Report",
  "8021": "400",
  "8022": " aver",
  "8023": " finger",
  "8024": " Note",
  "8025": " Conference",
  "8026": " tackle",
  "8027": "burgh",
  "8028": " cha",
  "8029": " gonna",
  "8030": " Diego",
  "8031": " Centre",
  "8032": " crop",
  "8033": " farmers",
  "8034": " Manchester",
  "8035": " nominee",
  "8036": " 41",
  "8037": "53",
  "8038": "aching",
  "8039": " Jason",
  "8040": " barely",
  "8041": "ATO",
  "8042": " structures",
  "8043": " contained",
  "8044": " synt",
  "8045": " delivery",
  "8046": " convin",
  "8047": " Ott",
  "8048": "%,",
  "8049": " processing",
  "8050": " discrimination",
  "8051": " incent",
  "8052": "riers",
  "8053": " Fair",
  "8054": "erved",
  "8055": "RS",
  "8056": " Data",
  "8057": " Lo",
  "8058": "then",
  "8059": " Arm",
  "8060": "abinet",
  "8061": " intellectual",
  "8062": "amsung",
  "8063": " 46",
  "8064": " Radio",
  "8065": " Bry",
  "8066": " Field",
  "8067": " OK",
  "8068": " Did",
  "8069": " upset",
  "8070": " Perhaps",
  "8071": " Mir",
  "8072": " Education",
  "8073": "sylvania",
  "8074": "away",
  "8075": "President",
  "8076": " challenging",
  "8077": " proven",
  "8078": " restrictions",
  "8079": "rik",
  "8080": "gener",
  "8081": " forever",
  "8082": "https",
  "8083": "olen",
  "8084": " electronic",
  "8085": " hitting",
  "8086": " Hay",
  "8087": " euro",
  "8088": " unex",
  "8089": "ho",
  "8090": " reviews",
  "8091": " Christians",
  "8092": " Fed",
  "8093": " 43",
  "8094": " Hor",
  "8095": "Star",
  "8096": " convicted",
  "8097": " illness",
  "8098": " smooth",
  "8099": "Dav",
  "8100": "page",
  "8101": " retired",
  "8102": " indicated",
  "8103": "usive",
  "8104": " producing",
  "8105": " Harry",
  "8106": " About",
  "8107": " rapidly",
  "8108": " rose",
  "8109": " hide",
  "8110": " corporations",
  "8111": " ocean",
  "8112": " NC",
  "8113": " Rus",
  "8114": " Point",
  "8115": "aying",
  "8116": "owing",
  "8117": " Sat",
  "8118": " listening",
  "8119": " Reuters",
  "8120": " UFC",
  "8121": " technique",
  "8122": " mo",
  "8123": "yard",
  "8124": "sels",
  "8125": " Nic",
  "8126": " loyal",
  "8127": "lessly",
  "8128": "iy",
  "8129": " robot",
  "8130": " climb",
  "8131": " notion",
  "8132": " begun",
  "8133": " ren",
  "8134": "87",
  "8135": " util",
  "8136": " recognition",
  "8137": "ouver",
  "8138": "engers",
  "8139": "inf",
  "8140": " perpet",
  "8141": " association",
  "8142": " milk",
  "8143": " asks",
  "8144": " websites",
  "8145": " description",
  "8146": " Pack",
  "8147": " tickets",
  "8148": " Pen",
  "8149": " flash",
  "8150": "achus",
  "8151": " bra",
  "8152": " suggesting",
  "8153": "enny",
  "8154": " Judge",
  "8155": " exclusive",
  "8156": " reaching",
  "8157": " prepare",
  "8158": "iti",
  "8159": " Kansas",
  "8160": "found",
  "8161": "ione",
  "8162": "Who",
  "8163": " bail",
  "8164": " frag",
  "8165": " progressive",
  "8166": " burd",
  "8167": " exceed",
  "8168": " equally",
  "8169": " Hard",
  "8170": " hardly",
  "8171": " widespread",
  "8172": " ABC",
  "8173": " campaigns",
  "8174": " Mayor",
  "8175": " contribute",
  "8176": "udes",
  "8177": "elf",
  "8178": "ologists",
  "8179": " branch",
  "8180": "Look",
  "8181": " Rose",
  "8182": " grass",
  "8183": " initiative",
  "8184": " Market",
  "8185": " ethnic",
  "8186": " external",
  "8187": "ikes",
  "8188": " Circ",
  "8189": "uma",
  "8190": "rient",
  "8191": " sensitive",
  "8192": " practical",
  "8193": "usted",
  "8194": " unclear",
  "8195": " normally",
  "8196": "Ref",
  "8197": " representative",
  "8198": "pat",
  "8199": "89",
  "8200": " welf",
  "8201": " Full",
  "8202": " reducing",
  "8203": "thon",
  "8204": "appy",
  "8205": " friendly",
  "8206": "bec",
  "8207": " carefully",
  "8208": " Arabia",
  "8209": " Ref",
  "8210": "lad",
  "8211": " Ly",
  "8212": "PM",
  "8213": " Luc",
  "8214": " racist",
  "8215": " invent",
  "8216": "rical",
  "8217": "PG",
  "8218": "ouch",
  "8219": " CO",
  "8220": " respectively",
  "8221": "senal",
  "8222": " exem",
  "8223": "rator",
  "8224": " tail",
  "8225": "imm",
  "8226": " McCain",
  "8227": " Bernie",
  "8228": "ancouver",
  "8229": " overwhelming",
  "8230": " viewers",
  "8231": " Beach",
  "8232": " welfare",
  "8233": "arrass",
  "8234": "stract",
  "8235": " Further",
  "8236": " convinced",
  "8237": " smoke",
  "8238": "UN",
  "8239": "umes",
  "8240": " collapse",
  "8241": " involvement",
  "8242": " Lind",
  "8243": "ester",
  "8244": " thrown",
  "8245": "pload",
  "8246": " connections",
  "8247": "heast",
  "8248": " terrorists",
  "8249": " Battle",
  "8250": " strategic",
  "8251": " hook",
  "8252": " 00",
  "8253": " Latin",
  "8254": " recover",
  "8255": "omething",
  "8256": " Ont",
  "8257": " wine",
  "8258": " Next",
  "8259": "Mc",
  "8260": "inois",
  "8261": " Music",
  "8262": "rolled",
  "8263": " minds",
  "8264": "igrant",
  "8265": " vital",
  "8266": " settlement",
  "8267": " statistics",
  "8268": " lists",
  "8269": " vary",
  "8270": " Sir",
  "8271": " featuring",
  "8272": " ESPN",
  "8273": "ecut",
  "8274": " Dig",
  "8275": "achusetts",
  "8276": " behaviour",
  "8277": " independence",
  "8278": "worth",
  "8279": " fantasy",
  "8280": " devast",
  "8281": "nedy",
  "8282": "core",
  "8283": "uties",
  "8284": " invited",
  "8285": " complaints",
  "8286": " joining",
  "8287": "dem",
  "8288": " scores",
  "8289": " fiscal",
  "8290": " deeper",
  "8291": "abil",
  "8292": " Pennsylvania",
  "8293": "ifest",
  "8294": " steal",
  "8295": " anger",
  "8296": " deputy",
  "8297": " elig",
  "8298": " wars",
  "8299": " Square",
  "8300": " Tenn",
  "8301": " investigate",
  "8302": " Town",
  "8303": " sugar",
  "8304": " constitutional",
  "8305": " III",
  "8306": " Pit",
  "8307": " scholars",
  "8308": " anybody",
  "8309": " iOS",
  "8310": " subjects",
  "8311": " AND",
  "8312": " array",
  "8313": " alien",
  "8314": "FA",
  "8315": " Gov",
  "8316": " lobby",
  "8317": " ownership",
  "8318": " framework",
  "8319": " Ult",
  "8320": " unemployment",
  "8321": " Division",
  "8322": " transgender",
  "8323": "bn",
  "8324": " improvements",
  "8325": " SS",
  "8326": " menu",
  "8327": " peak",
  "8328": " screens",
  "8329": "Back",
  "8330": "ihad",
  "8331": " inject",
  "8332": " luck",
  "8333": "iversary",
  "8334": " define",
  "8335": " Xbox",
  "8336": " tasks",
  "8337": " democratic",
  "8338": " scandal",
  "8339": "icking",
  "8340": " jury",
  "8341": " Anton",
  "8342": "Che",
  "8343": " Ministry",
  "8344": " Kat",
  "8345": " cos",
  "8346": " comprehens",
  "8347": "osit",
  "8348": " Es",
  "8349": " discovery",
  "8350": " remem",
  "8351": "unior",
  "8352": " register",
  "8353": " casual",
  "8354": " citizen",
  "8355": "RI",
  "8356": " fab",
  "8357": "Under",
  "8358": " roads",
  "8359": " disagree",
  "8360": " failing",
  "8361": " Never",
  "8362": " Little",
  "8363": " Jay",
  "8364": " dynamic",
  "8365": " serves",
  "8366": " Cameron",
  "8367": " Brother",
  "8368": " Mah",
  "8369": " testim",
  "8370": " gathered",
  "8371": " Information",
  "8372": " Stone",
  "8373": "Sm",
  "8374": "asty",
  "8375": " soph",
  "8376": "oding",
  "8377": " implemented",
  "8378": " controversy",
  "8379": " collective",
  "8380": " trained",
  "8381": "anna",
  "8382": " NSA",
  "8383": " fears",
  "8384": " neighbour",
  "8385": " guarante",
  "8386": "leveland",
  "8387": " samples",
  "8388": " fiction",
  "8389": " prosec",
  "8390": " estimate",
  "8391": " Community",
  "8392": "69",
  "8393": " Ice",
  "8394": " Medical",
  "8395": " Sept",
  "8396": "agg",
  "8397": " 1997",
  "8398": " Philipp",
  "8399": " referring",
  "8400": " tip",
  "8401": " captain",
  "8402": "Will",
  "8403": " 1996",
  "8404": " spaces",
  "8405": "cific",
  "8406": " Walker",
  "8407": " versus",
  "8408": " legs",
  "8409": " Santa",
  "8410": " temporary",
  "8411": " noise",
  "8412": " sin",
  "8413": " HD",
  "8414": "PC",
  "8415": " incorpor",
  "8416": " tone",
  "8417": "eland",
  "8418": "acon",
  "8419": " overt",
  "8420": " visitors",
  "8421": " reven",
  "8422": " civilians",
  "8423": " wages",
  "8424": " hypot",
  "8425": " remarks",
  "8426": " awareness",
  "8427": " ON",
  "8428": " Spring",
  "8429": " recommended",
  "8430": " stupid",
  "8431": " Allen",
  "8432": " heading",
  "8433": " handful",
  "8434": " regulation",
  "8435": "icket",
  "8436": " Action",
  "8437": " Core",
  "8438": " platforms",
  "8439": " accus",
  "8440": " Anthony",
  "8441": " affairs",
  "8442": " touchdown",
  "8443": " rural",
  "8444": " attacking",
  "8445": " extend",
  "8446": " ultimate",
  "8447": " attached",
  "8448": " Vegas",
  "8449": " discussions",
  "8450": " horse",
  "8451": "mad",
  "8452": " Brew",
  "8453": " reprodu",
  "8454": " attempting",
  "8455": " expanded",
  "8456": " genetic",
  "8457": "phones",
  "8458": " Matthew",
  "8459": " races",
  "8460": "including",
  "8461": " Queen",
  "8462": "iry",
  "8463": " raw",
  "8464": " ignore",
  "8465": " Columbia",
  "8466": "serv",
  "8467": " Pent",
  "8468": " Guardian",
  "8469": "hour",
  "8470": " Cook",
  "8471": "itionally",
  "8472": " gear",
  "8473": " iP",
  "8474": " symptoms",
  "8475": " Patrick",
  "8476": " suffer",
  "8477": " settings",
  "8478": " Make",
  "8479": "\u00e2\u0080\u0094\u00e2\u0080\u0094\u00e2\u0080\u0094\u00e2\u0080\u0094",
  "8480": "alling",
  "8481": " salary",
  "8482": "han",
  "8483": "case",
  "8484": " licens",
  "8485": " roof",
  "8486": "mary",
  "8487": "GO",
  "8488": " tweeted",
  "8489": "angel",
  "8490": "'.",
  "8491": " publication",
  "8492": " brill",
  "8493": " factory",
  "8494": " suspected",
  "8495": " purchased",
  "8496": " intervention",
  "8497": "aret",
  "8498": " eastern",
  "8499": " holiday",
  "8500": "type",
  "8501": "2014",
  "8502": " prompt",
  "8503": "esh",
  "8504": " theat",
  "8505": "About",
  "8506": " displ",
  "8507": " ranked",
  "8508": " Budd",
  "8509": " neck",
  "8510": " Austin",
  "8511": " Conservative",
  "8512": " Museum",
  "8513": " Roy",
  "8514": "\")",
  "8515": " cro",
  "8516": " enormous",
  "8517": "Sen",
  "8518": "####",
  "8519": "intendo",
  "8520": " cogn",
  "8521": " logic",
  "8522": "ultural",
  "8523": "ictions",
  "8524": " API",
  "8525": " improvement",
  "8526": " viewed",
  "8527": " ingred",
  "8528": " entertainment",
  "8529": "Ass",
  "8530": " legitimate",
  "8531": " Professor",
  "8532": "ommod",
  "8533": " presum",
  "8534": " Albert",
  "8535": " Massachusetts",
  "8536": " 2019",
  "8537": " Ball",
  "8538": " www",
  "8539": "News",
  "8540": " actors",
  "8541": " substantial",
  "8542": " humanity",
  "8543": " involves",
  "8544": " resource",
  "8545": "arms",
  "8546": " brothers",
  "8547": " liquid",
  "8548": " rational",
  "8549": " seemingly",
  "8550": " sorry",
  "8551": " layer",
  "8552": " loans",
  "8553": " rook",
  "8554": " investigating",
  "8555": " absence",
  "8556": " providers",
  "8557": " tomorrow",
  "8558": " bureau",
  "8559": " fallen",
  "8560": "rec",
  "8561": " grounds",
  "8562": " coaches",
  "8563": " stake",
  "8564": " resign",
  "8565": " outs",
  "8566": " advocates",
  "8567": " \u00e2\u0082\u00ac",
  "8568": "RC",
  "8569": " investigators",
  "8570": " conspiracy",
  "8571": " dramatic",
  "8572": " medicine",
  "8573": "Where",
  "8574": " fulf",
  "8575": " monitor",
  "8576": " Chair",
  "8577": "repre",
  "8578": "EST",
  "8579": " chapter",
  "8580": " Season",
  "8581": " coc",
  "8582": "oval",
  "8583": " overs",
  "8584": "GE",
  "8585": "lah",
  "8586": "plete",
  "8587": ".-",
  "8588": " activist",
  "8589": " boat",
  "8590": "ped",
  "8591": " Check",
  "8592": "aka",
  "8593": " Control",
  "8594": " jur",
  "8595": " suspended",
  "8596": " papers",
  "8597": "Script",
  "8598": " Greece",
  "8599": " opinions",
  "8600": " Such",
  "8601": " Ross",
  "8602": " missile",
  "8603": " Golden",
  "8604": " celeb",
  "8605": " Revolution",
  "8606": "2016",
  "8607": " stayed",
  "8608": " covers",
  "8609": " Head",
  "8610": " diversity",
  "8611": "iverpool",
  "8612": "otype",
  "8613": " bars",
  "8614": " gam",
  "8615": "Russ",
  "8616": "rets",
  "8617": " je",
  "8618": "xit",
  "8619": " embarrass",
  "8620": " offices",
  "8621": " Acc",
  "8622": "ourse",
  "8623": " Pot",
  "8624": "claim",
  "8625": "Part",
  "8626": "hot",
  "8627": " Iranian",
  "8628": "ammed",
  "8629": " disrupt",
  "8630": "cover",
  "8631": " WW",
  "8632": " preced",
  "8633": " forest",
  "8634": " poly",
  "8635": "mat",
  "8636": " careful",
  "8637": "wered",
  "8638": " Ap",
  "8639": "reprene",
  "8640": "vard",
  "8641": " amid",
  "8642": " History",
  "8643": "79",
  "8644": " Ho",
  "8645": " Hospital",
  "8646": "isting",
  "8647": " Ale",
  "8648": " authent",
  "8649": "quest",
  "8650": " Illinois",
  "8651": " CBS",
  "8652": " Sony",
  "8653": " ham",
  "8654": "uction",
  "8655": "geon",
  "8656": "Related",
  "8657": "dit",
  "8658": "72",
  "8659": "74",
  "8660": "rine",
  "8661": " transportation",
  "8662": " Vancouver",
  "8663": " Gaza",
  "8664": " handed",
  "8665": " protocol",
  "8666": " consistently",
  "8667": " mountain",
  "8668": " 52",
  "8669": " reads",
  "8670": " Stat",
  "8671": " pref",
  "8672": " clothes",
  "8673": " attitude",
  "8674": "iability",
  "8675": "ection",
  "8676": " Po",
  "8677": " Share",
  "8678": " Kennedy",
  "8679": " porn",
  "8680": " princip",
  "8681": " Freedom",
  "8682": "bi",
  "8683": " depends",
  "8684": " mining",
  "8685": " petition",
  "8686": " noting",
  "8687": " conce",
  "8688": "des",
  "8689": " colors",
  "8690": " lowest",
  "8691": " Anderson",
  "8692": " warrant",
  "8693": " addressed",
  "8694": " Tri",
  "8695": " Family",
  "8696": "unes",
  "8697": " entr",
  "8698": " Ra",
  "8699": "ptions",
  "8700": "xx",
  "8701": " Stadium",
  "8702": " throwing",
  "8703": " virtually",
  "8704": " fruit",
  "8705": "!)",
  "8706": " stone",
  "8707": " Mean",
  "8708": " foss",
  "8709": " guarantee",
  "8710": " referend",
  "8711": "Both",
  "8712": " speaks",
  "8713": " Baltimore",
  "8714": "inch",
  "8715": "??",
  "8716": " steel",
  "8717": " closing",
  "8718": " reader",
  "8719": "FF",
  "8720": " buff",
  "8721": "dri",
  "8722": " personality",
  "8723": " Cre",
  "8724": " appreciate",
  "8725": " surf",
  "8726": " Iraqi",
  "8727": "pton",
  "8728": " Environment",
  "8729": " nerv",
  "8730": "iences",
  "8731": "keep",
  "8732": "maker",
  "8733": " km",
  "8734": " handling",
  "8735": " profits",
  "8736": " grav",
  "8737": "ordon",
  "8738": "low",
  "8739": " marks",
  "8740": " tries",
  "8741": " Broad",
  "8742": " Ext",
  "8743": " contributions",
  "8744": " Engine",
  "8745": "ropri",
  "8746": "zed",
  "8747": " spiritual",
  "8748": " conversations",
  "8749": " Tro",
  "8750": " fantastic",
  "8751": " lands",
  "8752": " console",
  "8753": " horror",
  "8754": "ila",
  "8755": "ppers",
  "8756": "\".[",
  "8757": "icity",
  "8758": " gains",
  "8759": "Her",
  "8760": " covering",
  "8761": " tea",
  "8762": "ivals",
  "8763": " Harris",
  "8764": " astron",
  "8765": " hint",
  "8766": "aval",
  "8767": " shoulder",
  "8768": "scale",
  "8769": " wrest",
  "8770": " guest",
  "8771": " Bad",
  "8772": " accommod",
  "8773": "uted",
  "8774": "uits",
  "8775": " depression",
  "8776": " _",
  "8777": " CA",
  "8778": " Lewis",
  "8779": " lucky",
  "8780": " Bang",
  "8781": " encouraged",
  "8782": "flix",
  "8783": "amac",
  "8784": " judges",
  "8785": " incidents",
  "8786": " Cleveland",
  "8787": " drew",
  "8788": " subsequent",
  "8789": "ira",
  "8790": " spoken",
  "8791": " Howard",
  "8792": " Ren",
  "8793": " brown",
  "8794": " bacter",
  "8795": "Please",
  "8796": "annels",
  "8797": "ixed",
  "8798": " ranks",
  "8799": " rhet",
  "8800": " Getty",
  "8801": " photograp",
  "8802": " inflation",
  "8803": " inner",
  "8804": " Intelligence",
  "8805": "eding",
  "8806": "itting",
  "8807": " Ba",
  "8808": " maps",
  "8809": "abeth",
  "8810": " Patri",
  "8811": "ported",
  "8812": "ijing",
  "8813": "plate",
  "8814": " divided",
  "8815": " 1995",
  "8816": " NATO",
  "8817": "********",
  "8818": " paralle",
  "8819": " drama",
  "8820": " Mexican",
  "8821": " distributed",
  "8822": " gal",
  "8823": " innovation",
  "8824": " swing",
  "8825": " cust",
  "8826": "unicip",
  "8827": " Unfortunately",
  "8828": " premium",
  "8829": " permit",
  "8830": " voter",
  "8831": " revel",
  "8832": " Kong",
  "8833": " trem",
  "8834": " dance",
  "8835": " clim",
  "8836": "pled",
  "8837": " Las",
  "8838": " efficiency",
  "8839": " Indeed",
  "8840": " promises",
  "8841": "Note",
  "8842": " CH",
  "8843": " Which",
  "8844": " ballot",
  "8845": " 51",
  "8846": " temperatures",
  "8847": " Samsung",
  "8848": " portray",
  "8849": " spokesperson",
  "8850": " locked",
  "8851": " lying",
  "8852": " improving",
  "8853": " threw",
  "8854": " joy",
  "8855": " dump",
  "8856": " musical",
  "8857": "PP",
  "8858": " mistakes",
  "8859": "dated",
  "8860": " shout",
  "8861": "conf",
  "8862": " homeless",
  "8863": " replacement",
  "8864": "eries",
  "8865": " Start",
  "8866": " comedy",
  "8867": " checks",
  "8868": " Moon",
  "8869": " Without",
  "8870": " instrument",
  "8871": " Connect",
  "8872": "ounce",
  "8873": " acknowledged",
  "8874": " barrel",
  "8875": " responses",
  "8876": " protecting",
  "8877": "backs",
  "8878": " Det",
  "8879": "\u00c2\u0092",
  "8880": " silver",
  "8881": " copies",
  "8882": "heim",
  "8883": " AC",
  "8884": " les",
  "8885": " dad",
  "8886": " breaks",
  "8887": " Plus",
  "8888": " Buff",
  "8889": "Ke",
  "8890": " commonly",
  "8891": " lets",
  "8892": " legacy",
  "8893": "itage",
  "8894": " protein",
  "8895": " mathem",
  "8896": " joke",
  "8897": "amacare",
  "8898": "erted",
  "8899": "hop",
  "8900": " passengers",
  "8901": "2015",
  "8902": " yellow",
  "8903": " Marvel",
  "8904": " naturally",
  "8905": "Your",
  "8906": " Scient",
  "8907": " nomination",
  "8908": "Source",
  "8909": " measured",
  "8910": "aping",
  "8911": "oded",
  "8912": "alia",
  "8913": " Use",
  "8914": " abandoned",
  "8915": " mad",
  "8916": " Prince",
  "8917": " studied",
  "8918": "800",
  "8919": " Football",
  "8920": "Art",
  "8921": "helsea",
  "8922": "asted",
  "8923": " diverse",
  "8924": " rom",
  "8925": "argo",
  "8926": " acquired",
  "8927": " Lyn",
  "8928": "ieties",
  "8929": "Cons",
  "8930": " Marsh",
  "8931": " soil",
  "8932": " demonstrated",
  "8933": " rear",
  "8934": " funded",
  "8935": " headquarters",
  "8936": "hesis",
  "8937": "esty",
  "8938": " stolen",
  "8939": "yo",
  "8940": " scan",
  "8941": "yer",
  "8942": " counts",
  "8943": " partnership",
  "8944": " tape",
  "8945": " midfield",
  "8946": " NOT",
  "8947": " (\u00e2\u0080\u009c",
  "8948": " upgrade",
  "8949": " Cost",
  "8950": " Atlantic",
  "8951": " march",
  "8952": " ordinary",
  "8953": " Aud",
  "8954": " Nev",
  "8955": "aware",
  "8956": " literature",
  "8957": " plain",
  "8958": " stages",
  "8959": " \u00e2\u0080\u00a2",
  "8960": " assert",
  "8961": " 1994",
  "8962": "high",
  "8963": " AI",
  "8964": " helpful",
  "8965": " arrive",
  "8966": " exit",
  "8967": " scope",
  "8968": " falls",
  "8969": "63",
  "8970": "dog",
  "8971": " ignored",
  "8972": "BM",
  "8973": " twenty",
  "8974": "eters",
  "8975": " Master",
  "8976": " clock",
  "8977": " compe",
  "8978": "inction",
  "8979": " virus",
  "8980": " Trib",
  "8981": " referendum",
  "8982": " inequ",
  "8983": " unions",
  "8984": " Does",
  "8985": "assador",
  "8986": " conservatives",
  "8987": " Gun",
  "8988": " rif",
  "8989": " grid",
  "8990": " symp",
  "8991": " festival",
  "8992": " fro",
  "8993": " shopping",
  "8994": " waters",
  "8995": " Pop",
  "8996": " capabilities",
  "8997": " Bron",
  "8998": " ax",
  "8999": "lahoma",
  "9000": " Hind",
  "9001": " usage",
  "9002": "iate",
  "9003": "zing",
  "9004": " Empire",
  "9005": "aeda",
  "9006": " Abb",
  "9007": "ington",
  "9008": " Indiana",
  "9009": "iley",
  "9010": " transactions",
  "9011": " hoped",
  "9012": "erg",
  "9013": " distract",
  "9014": " guitar",
  "9015": "VE",
  "9016": " Eag",
  "9017": "ctic",
  "9018": " sty",
  "9019": " assessment",
  "9020": " ramp",
  "9021": " universities",
  "9022": " Dave",
  "9023": " moon",
  "9024": " monitoring",
  "9025": "ormal",
  "9026": "acket",
  "9027": " representing",
  "9028": "bridge",
  "9029": "Facebook",
  "9030": " Death",
  "9031": " ratio",
  "9032": "encing",
  "9033": "62",
  "9034": "ught",
  "9035": " Prov",
  "9036": " Ast",
  "9037": "orge",
  "9038": "ji",
  "9039": " conventional",
  "9040": "comes",
  "9041": "UST",
  "9042": " Set",
  "9043": " trave",
  "9044": " tracking",
  "9045": "door",
  "9046": "ntil",
  "9047": "pie",
  "9048": " Sometimes",
  "9049": "61",
  "9050": "only",
  "9051": "shire",
  "9052": " Sus",
  "9053": " hung",
  "9054": " reliable",
  "9055": " tie",
  "9056": " proposals",
  "9057": " skept",
  "9058": " replied",
  "9059": "uh",
  "9060": " Ros",
  "9061": " criticized",
  "9062": " appearances",
  "9063": "rimin",
  "9064": "ecutive",
  "9065": " racism",
  "9066": " insisted",
  "9067": "organ",
  "9068": " 2020",
  "9069": " introduction",
  "9070": " appointed",
  "9071": "dney",
  "9072": " Bureau",
  "9073": "olph",
  "9074": "agic",
  "9075": " Pass",
  "9076": "cut",
  "9077": " Line",
  "9078": " beauty",
  "9079": " concrete",
  "9080": " receiver",
  "9081": "fund",
  "9082": " supplies",
  "9083": " performing",
  "9084": "made",
  "9085": " bub",
  "9086": " exch",
  "9087": "rite",
  "9088": " Ha",
  "9089": " Hell",
  "9090": " visiting",
  "9091": " Technology",
  "9092": " Denver",
  "9093": "ocument",
  "9094": "EE",
  "9095": "theless",
  "9096": " Capt",
  "9097": "omes",
  "9098": "RL",
  "9099": " letting",
  "9100": "AND",
  "9101": " deficit",
  "9102": " classified",
  "9103": " Galaxy",
  "9104": " render",
  "9105": " absor",
  "9106": "HT",
  "9107": " Orig",
  "9108": " swim",
  "9109": " accomplish",
  "9110": " auto",
  "9111": " programme",
  "9112": " presidency",
  "9113": "crib",
  "9114": " Sweden",
  "9115": " blocked",
  "9116": " Jam",
  "9117": " ec",
  "9118": "archy",
  "9119": " dust",
  "9120": " Utah",
  "9121": " drove",
  "9122": " landscape",
  "9123": " cance",
  "9124": " Portland",
  "9125": " dismissed",
  "9126": "plus",
  "9127": " LA",
  "9128": " hyper",
  "9129": " abroad",
  "9130": " bonus",
  "9131": " Tour",
  "9132": " sequence",
  "9133": " predicted",
  "9134": " senator",
  "9135": "\u00c2\u00b0",
  "9136": "ela",
  "9137": " Age",
  "9138": " warn",
  "9139": " domain",
  "9140": " Code",
  "9141": " Bon",
  "9142": " museum",
  "9143": " Associated",
  "9144": " persons",
  "9145": "NS",
  "9146": " dub",
  "9147": "aga",
  "9148": " requested",
  "9149": " trigger",
  "9150": " Ontario",
  "9151": "iano",
  "9152": " Corpor",
  "9153": " hockey",
  "9154": " artific",
  "9155": " dates",
  "9156": " testimony",
  "9157": " centers",
  "9158": "\u00d0\u00bb",
  "9159": " rocket",
  "9160": "irts",
  "9161": " transit",
  "9162": " ves",
  "9163": " congressional",
  "9164": " entitled",
  "9165": "ultane",
  "9166": "acco",
  "9167": " spokeswoman",
  "9168": " Front",
  "9169": " Nintendo",
  "9170": " Alexander",
  "9171": " rescue",
  "9172": " Cooper",
  "9173": "mony",
  "9174": " assign",
  "9175": " equality",
  "9176": " patch",
  "9177": " urged",
  "9178": "afe",
  "9179": " bread",
  "9180": " Olympic",
  "9181": " documentary",
  "9182": " veterans",
  "9183": " clar",
  "9184": "fol",
  "9185": "93",
  "9186": "king",
  "9187": " \u00e2\u0080\u009d",
  "9188": " recall",
  "9189": " populations",
  "9190": "94",
  "9191": "ais",
  "9192": " breath",
  "9193": " Low",
  "9194": "Still",
  "9195": "92",
  "9196": "ounding",
  "9197": "rooms",
  "9198": "Are",
  "9199": " whenever",
  "9200": " violation",
  "9201": " tactics",
  "9202": " wider",
  "9203": "71",
  "9204": " targeting",
  "9205": "Yet",
  "9206": "through",
  "9207": " pursue",
  "9208": "\">",
  "9209": " salt",
  "9210": " firing",
  "9211": "izabeth",
  "9212": "don",
  "9213": " Mill",
  "9214": "Comp",
  "9215": " acid",
  "9216": "har",
  "9217": " mole",
  "9218": "inating",
  "9219": " restaurants",
  "9220": " compare",
  "9221": "73",
  "9222": "fare",
  "9223": "orous",
  "9224": " wedd",
  "9225": "ennis",
  "9226": "ective",
  "9227": " employed",
  "9228": " Roberts",
  "9229": " contrad",
  "9230": " Bible",
  "9231": " politically",
  "9232": " phrase",
  "9233": " satellite",
  "9234": " Cro",
  "9235": " survival",
  "9236": " retirement",
  "9237": " banking",
  "9238": " Form",
  "9239": " Girl",
  "9240": " brilliant",
  "9241": "isons",
  "9242": " channels",
  "9243": " servers",
  "9244": " Beijing",
  "9245": " soccer",
  "9246": "trans",
  "9247": " Mach",
  "9248": "they",
  "9249": " introduce",
  "9250": " Justin",
  "9251": "atar",
  "9252": " experiments",
  "9253": "aver",
  "9254": "enez",
  "9255": " prisoners",
  "9256": "rapped",
  "9257": " cig",
  "9258": " WH",
  "9259": "jud",
  "9260": " fighter",
  "9261": "600",
  "9262": " scientist",
  "9263": "OK",
  "9264": " YOU",
  "9265": "usalem",
  "9266": " List",
  "9267": " submit",
  "9268": " approached",
  "9269": " Award",
  "9270": " monthly",
  "9271": " Liverpool",
  "9272": "rell",
  "9273": " designs",
  "9274": " representatives",
  "9275": " cul",
  "9276": " titled",
  "9277": "ordinary",
  "9278": " quote",
  "9279": " popularity",
  "9280": "olves",
  "9281": " abilities",
  "9282": "oenix",
  "9283": " PD",
  "9284": " membership",
  "9285": " investigations",
  "9286": " focusing",
  "9287": "pa",
  "9288": "mans",
  "9289": " bab",
  "9290": " hosp",
  "9291": " Bridge",
  "9292": "Though",
  "9293": " Maryland",
  "9294": " Adv",
  "9295": " saving",
  "9296": " rush",
  "9297": " Governor",
  "9298": " mit",
  "9299": " shadow",
  "9300": "bow",
  "9301": "ouri",
  "9302": " Hur",
  "9303": " Base",
  "9304": " objective",
  "9305": "berry",
  "9306": " Ted",
  "9307": " encry",
  "9308": "ederation",
  "9309": "erts",
  "9310": " prepar",
  "9311": " tips",
  "9312": " Was",
  "9313": " pipeline",
  "9314": "David",
  "9315": " childhood",
  "9316": "ika",
  "9317": " ratings",
  "9318": " thorough",
  "9319": " entreprene",
  "9320": " Kar",
  "9321": "enter",
  "9322": " Vill",
  "9323": "tel",
  "9324": " Dutch",
  "9325": "was",
  "9326": "break",
  "9327": "emed",
  "9328": " actively",
  "9329": " Harvard",
  "9330": " Som",
  "9331": " pig",
  "9332": " demanding",
  "9333": " loose",
  "9334": " Bra",
  "9335": " unexpected",
  "9336": "CO",
  "9337": " smoking",
  "9338": " deny",
  "9339": " smell",
  "9340": " universal",
  "9341": " forecast",
  "9342": " argues",
  "9343": " phenomenon",
  "9344": " overseas",
  "9345": "mers",
  "9346": "olds",
  "9347": " settled",
  "9348": "walk",
  "9349": " Beck",
  "9350": " generations",
  "9351": " chicken",
  "9352": " weekly",
  "9353": " preparing",
  "9354": " 95",
  "9355": " smartphone",
  "9356": " producers",
  "9357": " butt",
  "9358": " PA",
  "9359": " legislative",
  "9360": " Cry",
  "9361": " anxiety",
  "9362": " Have",
  "9363": " disturb",
  "9364": " innocent",
  "9365": " Click",
  "9366": "minute",
  "9367": " mortg",
  "9368": " celebrate",
  "9369": "Dem",
  "9370": "iki",
  "9371": " provision",
  "9372": " DO",
  "9373": " keys",
  "9374": " Ur",
  "9375": "ded",
  "9376": " shame",
  "9377": " arguing",
  "9378": " Design",
  "9379": " questioned",
  "9380": "held",
  "9381": " forcing",
  "9382": " Cow",
  "9383": " Hop",
  "9384": "agh",
  "9385": "ompson",
  "9386": "\u00e2\u0094",
  "9387": " broader",
  "9388": " encounter",
  "9389": " flags",
  "9390": "SL",
  "9391": " fool",
  "9392": " mac",
  "9393": " 53",
  "9394": " deadly",
  "9395": " fur",
  "9396": "84",
  "9397": " reverse",
  "9398": " weigh",
  "9399": " Edward",
  "9400": " Among",
  "9401": " tens",
  "9402": " ~",
  "9403": " mos",
  "9404": " wealthy",
  "9405": " Obamacare",
  "9406": " unpre",
  "9407": " maintained",
  "9408": " surely",
  "9409": " shield",
  "9410": " Prop",
  "9411": "ocolate",
  "9412": "oret",
  "9413": " secondary",
  "9414": "isa",
  "9415": "aved",
  "9416": "Sim",
  "9417": " savings",
  "9418": "irlf",
  "9419": " stability",
  "9420": " civilian",
  "9421": " tab",
  "9422": "\u00c4\u0083",
  "9423": " Carter",
  "9424": " reveals",
  "9425": "mind",
  "9426": " mini",
  "9427": "elson",
  "9428": " alarm",
  "9429": " anniversary",
  "9430": " sorts",
  "9431": " Ak",
  "9432": "vernment",
  "9433": " tonight",
  "9434": "El",
  "9435": " releases",
  "9436": "isk",
  "9437": " Hon",
  "9438": " rooms",
  "9439": "irlfriend",
  "9440": " Gulf",
  "9441": " outrage",
  "9442": " prosecutors",
  "9443": " Left",
  "9444": "ois",
  "9445": "ele",
  "9446": " disorder",
  "9447": "inals",
  "9448": " exha",
  "9449": "orious",
  "9450": " relax",
  "9451": " shr",
  "9452": " windows",
  "9453": " threatening",
  "9454": " differently",
  "9455": " harassment",
  "9456": " quoted",
  "9457": " healthcare",
  "9458": " submitted",
  "9459": " arbit",
  "9460": " lunch",
  "9461": "step",
  "9462": "itter",
  "9463": " Run",
  "9464": " reforms",
  "9465": " torture",
  "9466": "rection",
  "9467": " fate",
  "9468": " stored",
  "9469": " okay",
  "9470": " Belg",
  "9471": " propaganda",
  "9472": " spots",
  "9473": " instructions",
  "9474": " Vietnam",
  "9475": " sevent",
  "9476": " rounds",
  "9477": " odds",
  "9478": " 1992",
  "9479": " aer",
  "9480": "html",
  "9481": "tenance",
  "9482": "aa",
  "9483": " errors",
  "9484": " Oklahoma",
  "9485": " hydro",
  "9486": "icism",
  "9487": "GA",
  "9488": " delic",
  "9489": "ailed",
  "9490": " Liberal",
  "9491": " silence",
  "9492": " Graham",
  "9493": "acts",
  "9494": " Warren",
  "9495": " graduate",
  "9496": " Sab",
  "9497": " affordable",
  "9498": " circle",
  "9499": "sect",
  "9500": " Bloom",
  "9501": "oz",
  "9502": " cooperation",
  "9503": " picks",
  "9504": " sear",
  "9505": "itary",
  "9506": " Sarah",
  "9507": " Fall",
  "9508": "orship",
  "9509": " Expl",
  "9510": " striking",
  "9511": " puzz",
  "9512": "van",
  "9513": " persu",
  "9514": " streaming",
  "9515": " comprehensive",
  "9516": " importantly",
  "9517": " cow",
  "9518": " possess",
  "9519": " fing",
  "9520": "Watch",
  "9521": " execution",
  "9522": " Ruby",
  "9523": "lined",
  "9524": "rows",
  "9525": " intim",
  "9526": " struggled",
  "9527": " Person",
  "9528": " Silver",
  "9529": " assass",
  "9530": " Leader",
  "9531": "uten",
  "9532": "ahu",
  "9533": " gent",
  "9534": " Price",
  "9535": "Ty",
  "9536": "Reuters",
  "9537": "ishop",
  "9538": " Jerusalem",
  "9539": " deserve",
  "9540": " landing",
  "9541": " calm",
  "9542": " alter",
  "9543": " hal",
  "9544": " ceremony",
  "9545": " assumed",
  "9546": " demonstrate",
  "9547": " difficulty",
  "9548": "fr",
  "9549": "83",
  "9550": " ages",
  "9551": " pron",
  "9552": " dying",
  "9553": " distingu",
  "9554": "asury",
  "9555": "ethe",
  "9556": " stepped",
  "9557": " borders",
  "9558": "asting",
  "9559": " chest",
  "9560": " Wolf",
  "9561": " Lt",
  "9562": " adventure",
  "9563": " pointing",
  "9564": " Deb",
  "9565": " waves",
  "9566": "ova",
  "9567": " kilomet",
  "9568": "essee",
  "9569": "ierce",
  "9570": " Netflix",
  "9571": "atern",
  "9572": " autonom",
  "9573": " precisely",
  "9574": " architecture",
  "9575": " greatly",
  "9576": "bury",
  "9577": " promising",
  "9578": " consent",
  "9579": "eals",
  "9580": " consideration",
  "9581": " drives",
  "9582": " dialogue",
  "9583": " Main",
  "9584": " tremend",
  "9585": " Ten",
  "9586": " Bud",
  "9587": " newsletter",
  "9588": " rookie",
  "9589": "asant",
  "9590": " awarded",
  "9591": " Meanwhile",
  "9592": " repeat",
  "9593": "after",
  "9594": " Story",
  "9595": " contribution",
  "9596": " Tele",
  "9597": " burning",
  "9598": "party",
  "9599": " simultane",
  "9600": " Scottish",
  "9601": " Vice",
  "9602": "akh",
  "9603": " Indust",
  "9604": " donations",
  "9605": " interf",
  "9606": " Magic",
  "9607": "itol",
  "9608": " voices",
  "9609": " analyst",
  "9610": " Bruce",
  "9611": " Tech",
  "9612": "ceptions",
  "9613": " gif",
  "9614": " frequency",
  "9615": " Common",
  "9616": " procedure",
  "9617": " wanting",
  "9618": " Pres",
  "9619": " executives",
  "9620": " playoffs",
  "9621": "oice",
  "9622": " staying",
  "9623": "lee",
  "9624": "apolis",
  "9625": " birds",
  "9626": " bias",
  "9627": "iev",
  "9628": "VD",
  "9629": " Hong",
  "9630": " Az",
  "9631": "izer",
  "9632": " inches",
  "9633": " trillion",
  "9634": "omy",
  "9635": "holders",
  "9636": " highlights",
  "9637": " semi",
  "9638": " remarkable",
  "9639": " whereas",
  "9640": "EX",
  "9641": " Palestinians",
  "9642": "ributes",
  "9643": " knee",
  "9644": "open",
  "9645": " ans",
  "9646": " Jonathan",
  "9647": "raig",
  "9648": "scribe",
  "9649": " implications",
  "9650": " formation",
  "9651": " superior",
  "9652": " strategies",
  "9653": "itual",
  "9654": " Berlin",
  "9655": " Link",
  "9656": "div",
  "9657": " Sydney",
  "9658": "stal",
  "9659": " MORE",
  "9660": " Ark",
  "9661": " categories",
  "9662": " fet",
  "9663": " followers",
  "9664": " cream",
  "9665": "Story",
  "9666": "FO",
  "9667": "portation",
  "9668": " contacted",
  "9669": "Ms",
  "9670": " judgment",
  "9671": "annon",
  "9672": " smile",
  "9673": "yes",
  "9674": " info",
  "9675": " emerging",
  "9676": "igious",
  "9677": "rif",
  "9678": "js",
  "9679": "onder",
  "9680": "omed",
  "9681": "bered",
  "9682": "vision",
  "9683": " Eff",
  "9684": "vertisements",
  "9685": "iffs",
  "9686": " accessible",
  "9687": "hatt",
  "9688": " crimin",
  "9689": "TP",
  "9690": " assigned",
  "9691": " physically",
  "9692": " 54",
  "9693": " guidelines",
  "9694": " defeated",
  "9695": " wounded",
  "9696": " stem",
  "9697": " trials",
  "9698": " managing",
  "9699": " spell",
  "9700": " ministry",
  "9701": " grade",
  "9702": " coinc",
  "9703": " riding",
  "9704": " centuries",
  "9705": " indicates",
  "9706": "Christ",
  "9707": "cest",
  "9708": " Affairs",
  "9709": " opens",
  "9710": "aki",
  "9711": " pharm",
  "9712": " meaningful",
  "9713": "->",
  "9714": " tiss",
  "9715": " Mrs",
  "9716": " ease",
  "9717": "child",
  "9718": " margin",
  "9719": " Store",
  "9720": " clothing",
  "9721": " Six",
  "9722": " \u00e2\u0088\u0092",
  "9723": " Tes",
  "9724": " Capital",
  "9725": " participation",
  "9726": "cedented",
  "9727": "Mus",
  "9728": " revers",
  "9729": "aria",
  "9730": "Int",
  "9731": " poison",
  "9732": " Brexit",
  "9733": " 120",
  "9734": " Yemen",
  "9735": " lapt",
  "9736": " competing",
  "9737": " memories",
  "9738": " CS",
  "9739": " theories",
  "9740": " recipe",
  "9741": " gross",
  "9742": "author",
  "9743": "umble",
  "9744": "hard",
  "9745": " passage",
  "9746": "91",
  "9747": "sl",
  "9748": " aged",
  "9749": " Credit",
  "9750": " bin",
  "9751": " drone",
  "9752": " blank",
  "9753": " dispute",
  "9754": " damaged",
  "9755": " 1993",
  "9756": " Hamilton",
  "9757": "base",
  "9758": " hosted",
  "9759": " substance",
  "9760": "Google",
  "9761": "TER",
  "9762": " Chelsea",
  "9763": " promoting",
  "9764": " facilit",
  "9765": " openly",
  "9766": " Instagram",
  "9767": " Lam",
  "9768": " 1950",
  "9769": " Vik",
  "9770": "View",
  "9771": " Children",
  "9772": " Crime",
  "9773": " clinical",
  "9774": "Out",
  "9775": " nic",
  "9776": "even",
  "9777": "eremy",
  "9778": " Hold",
  "9779": "bits",
  "9780": "erent",
  "9781": " investments",
  "9782": " consensus",
  "9783": " Fal",
  "9784": " Leon",
  "9785": "igate",
  "9786": "ses",
  "9787": " educational",
  "9788": "const",
  "9789": " dish",
  "9790": "ito",
  "9791": " manifest",
  "9792": " custody",
  "9793": "82",
  "9794": "week",
  "9795": " eligible",
  "9796": " Hawai",
  "9797": " legally",
  "9798": " endorse",
  "9799": " missions",
  "9800": " gate",
  "9801": " memo",
  "9802": " GT",
  "9803": "eria",
  "9804": " Pict",
  "9805": " tables",
  "9806": " nin",
  "9807": " studying",
  "9808": "Hz",
  "9809": "adi",
  "9810": " charity",
  "9811": "aration",
  "9812": " addresses",
  "9813": " ?",
  "9814": " inspect",
  "9815": " discount",
  "9816": "rix",
  "9817": "left",
  "9818": " battles",
  "9819": "ALL",
  "9820": " 250",
  "9821": " Der",
  "9822": " Assembly",
  "9823": " athletes",
  "9824": " Trade",
  "9825": " fossil",
  "9826": " enthusi",
  "9827": " Management",
  "9828": "Pre",
  "9829": " suspects",
  "9830": " tired",
  "9831": "iac",
  "9832": " helic",
  "9833": "Act",
  "9834": " counterpart",
  "9835": " na",
  "9836": " dating",
  "9837": " Eth",
  "9838": " spectrum",
  "9839": " Metro",
  "9840": "ateral",
  "9841": " Station",
  "9842": " Bal",
  "9843": " lux",
  "9844": " presentation",
  "9845": "gered",
  "9846": " bottle",
  "9847": " tap",
  "9848": "riors",
  "9849": " vig",
  "9850": " fundra",
  "9851": " enhance",
  "9852": " Sean",
  "9853": "assy",
  "9854": " therapy",
  "9855": " Wales",
  "9856": " Exper",
  "9857": " perceived",
  "9858": "market",
  "9859": " Tok",
  "9860": "Def",
  "9861": "math",
  "9862": " backing",
  "9863": " Festival",
  "9864": " defending",
  "9865": " underlying",
  "9866": " Through",
  "9867": " discussing",
  "9868": " racing",
  "9869": " burden",
  "9870": " expanding",
  "9871": " muscle",
  "9872": " stops",
  "9873": " dominant",
  "9874": "uz",
  "9875": " beings",
  "9876": " Marx",
  "9877": " Equ",
  "9878": " transaction",
  "9879": "achel",
  "9880": " Uber",
  "9881": " 99",
  "9882": "Cal",
  "9883": " recruit",
  "9884": "itudes",
  "9885": " Gary",
  "9886": " mood",
  "9887": " picking",
  "9888": "81",
  "9889": "lando",
  "9890": "ylum",
  "9891": "player",
  "9892": "acher",
  "9893": " managers",
  "9894": "orable",
  "9895": " gathering",
  "9896": " hopefully",
  "9897": "angle",
  "9898": " Mit",
  "9899": " Son",
  "9900": "alysis",
  "9901": " Video",
  "9902": "section",
  "9903": " crus",
  "9904": " Libya",
  "9905": " impression",
  "9906": "olar",
  "9907": " hip",
  "9908": "\u00c3\u00a2",
  "9909": " scrut",
  "9910": " roy",
  "9911": " Tai",
  "9912": " institution",
  "9913": "igenous",
  "9914": " Batman",
  "9915": " stere",
  "9916": "}}",
  "9917": " Boe",
  "9918": " procedures",
  "9919": " Andre",
  "9920": "\u00c3\u00b1",
  "9921": " pocket",
  "9922": " creatures",
  "9923": "sa",
  "9924": " compat",
  "9925": " arrival",
  "9926": "watch",
  "9927": " eager",
  "9928": " pollution",
  "9929": "iture",
  "9930": " foods",
  "9931": " kitchen",
  "9932": "ocial",
  "9933": " recre",
  "9934": " surviv",
  "9935": " Morgan",
  "9936": "roph",
  "9937": " organic",
  "9938": " Pentagon",
  "9939": " shipping",
  "9940": " capitalism",
  "9941": "aders",
  "9942": " timing",
  "9943": " insult",
  "9944": "odox",
  "9945": " requirement",
  "9946": " Bi",
  "9947": "sub",
  "9948": " unfair",
  "9949": " 56",
  "9950": " Op",
  "9951": " mice",
  "9952": " Assad",
  "9953": "Rem",
  "9954": " Represent",
  "9955": " Mess",
  "9956": " MLS",
  "9957": "bing",
  "9958": "atively",
  "9959": " Elizabeth",
  "9960": " diseases",
  "9961": "Mod",
  "9962": " industries",
  "9963": " Oakland",
  "9964": "dy",
  "9965": " bowl",
  "9966": "oln",
  "9967": " Murray",
  "9968": " Creat",
  "9969": " sed",
  "9970": " helicop",
  "9971": " divor",
  "9972": "agger",
  "9973": " beach",
  "9974": " punishment",
  "9975": "abet",
  "9976": " shell",
  "9977": " fled",
  "9978": "***",
  "9979": " hospitals",
  "9980": "missions",
  "9981": " tons",
  "9982": "AF",
  "9983": " Kick",
  "9984": " seed",
  "9985": "ogy",
  "9986": " Comey",
  "9987": " terr",
  "9988": "opyright",
  "9989": " statist",
  "9990": " engineers",
  "9991": " hire",
  "9992": " obsc",
  "9993": " module",
  "9994": "SC",
  "9995": "AY",
  "9996": " coaching",
  "9997": "amous",
  "9998": "oca",
  "9999": " answered",
  "10000": "TR",
  "10001": " graphics",
  "10002": " intr",
  "10003": " regulatory",
  "10004": " sovere",
  "10005": " stance",
  "10006": " bow",
  "10007": " Keep",
  "10008": "alties",
  "10009": "Click",
  "10010": " explaining",
  "10011": " rhetoric",
  "10012": " beating",
  "10013": " Email",
  "10014": " Friend",
  "10015": " tut",
  "10016": "rior",
  "10017": " Yeah",
  "10018": "Ge",
  "10019": " acknowledge",
  "10020": " Michel",
  "10021": " principal",
  "10022": " pulling",
  "10023": "erves",
  "10024": " signature",
  "10025": "brid",
  "10026": " convince",
  "10027": "olving",
  "10028": "een",
  "10029": " Roll",
  "10030": " variable",
  "10031": "cosystem",
  "10032": " pill",
  "10033": " searching",
  "10034": " Ox",
  "10035": " dies",
  "10036": " overcome",
  "10037": " preferred",
  "10038": "duction",
  "10039": " sixth",
  "10040": " adviser",
  "10041": " Tennessee",
  "10042": " trends",
  "10043": " Russell",
  "10044": " (\"",
  "10045": " Thompson",
  "10046": "arre",
  "10047": " merch",
  "10048": " rebels",
  "10049": " interaction",
  "10050": " periods",
  "10051": " Yan",
  "10052": " psychological",
  "10053": "Mich",
  "10054": " Sure",
  "10055": "emic",
  "10056": " Using",
  "10057": " economics",
  "10058": " Charlie",
  "10059": " outlets",
  "10060": " Gil",
  "10061": " Ze",
  "10062": " signals",
  "10063": " Executive",
  "10064": " echo",
  "10065": " Kentucky",
  "10066": " tempor",
  "10067": " billions",
  "10068": "pg",
  "10069": " lineup",
  "10070": " math",
  "10071": "2013",
  "10072": " 1991",
  "10073": " setup",
  "10074": " rend",
  "10075": "Finally",
  "10076": "netic",
  "10077": "mic",
  "10078": " eggs",
  "10079": " segment",
  "10080": " badly",
  "10081": " arr",
  "10082": "kee",
  "10083": " Li",
  "10084": " sentenced",
  "10085": " Dragon",
  "10086": " everyday",
  "10087": " Jean",
  "10088": " commander",
  "10089": " Hart",
  "10090": " Holl",
  "10091": " AN",
  "10092": "ds",
  "10093": " loves",
  "10094": "unicipal",
  "10095": "will",
  "10096": " genes",
  "10097": "NBC",
  "10098": " bold",
  "10099": " requiring",
  "10100": " bullet",
  "10101": " invasion",
  "10102": "Comm",
  "10103": " Intel",
  "10104": " escal",
  "10105": " partly",
  "10106": "check",
  "10107": " gene",
  "10108": " arts",
  "10109": " removal",
  "10110": " undert",
  "10111": " upload",
  "10112": " instant",
  "10113": "liest",
  "10114": " topics",
  "10115": " Iron",
  "10116": " !",
  "10117": "enezuel",
  "10118": " inquiry",
  "10119": " amendment",
  "10120": " weakness",
  "10121": " Rather",
  "10122": "news",
  "10123": " concepts",
  "10124": "PL",
  "10125": "has",
  "10126": " shoes",
  "10127": " Sound",
  "10128": "grade",
  "10129": " fabric",
  "10130": "izza",
  "10131": "Earlier",
  "10132": " Delhi",
  "10133": "tsburgh",
  "10134": " frequent",
  "10135": "via",
  "10136": " sections",
  "10137": "cor",
  "10138": "Reg",
  "10139": " occurs",
  "10140": "oli",
  "10141": " migrants",
  "10142": " compensation",
  "10143": " Box",
  "10144": " engineer",
  "10145": "eness",
  "10146": " gig",
  "10147": " lad",
  "10148": " Finally",
  "10149": " fo",
  "10150": " attractive",
  "10151": " unve",
  "10152": "instein",
  "10153": " ).",
  "10154": "ui",
  "10155": " citing",
  "10156": " tweets",
  "10157": " McK",
  "10158": " utility",
  "10159": "arency",
  "10160": " posting",
  "10161": " ridiculous",
  "10162": " blockchain",
  "10163": " cler",
  "10164": " Clark",
  "10165": " speaker",
  "10166": "\u00e2\u0094\u0080",
  "10167": " diam",
  "10168": "gus",
  "10169": "\u00d8\u00a7",
  "10170": " corrupt",
  "10171": " talented",
  "10172": " lect",
  "10173": " collaps",
  "10174": " mask",
  "10175": "\u00e2\u0080\u0090",
  "10176": "necess",
  "10177": "screen",
  "10178": " notable",
  "10179": " Therefore",
  "10180": " elder",
  "10181": " genre",
[...]
