{
  "0": "\u0000",
  "1": "\u0001",
  "2": "\u0002",
  "3": "\u0003",
  "4": "\u0004",
  "5": "\u0005",
  "6": "\u0006",
  "7": "\u0007",
  "8": "\u0008",
  "9": "\t",
  "10": "\n",
  "11": "\u000b",
  "12": "\u000c",
  "13": "\r",
  "14": "\u000e",
  "15": "\u000f",
  "16": "\u0010",
  "17": "\u0011",
  "18": "\u0012",
  "19": "\u0013",
  "20": "\u0014",
  "21": "\u0015",
  "22": "\u0016",
  "23": "\u0017",
  "24": "\u0018",
  "25": "\u0019",
  "26": "\u001a",
  "27": "\u001b",
  "28": "\u001c",
  "29": "\u001d",
  "30": "\u001e",
  "31": "\u001f",
  "32": " ",
  "33": "!",
  "34": "\"",
  "35": "#",
  "36": "$",
  "37": "%",
  "38": "&",
  "39": "'",
  "40": "(",
  "41": ")",
  "42": "*",
  "43": "+",
  "44": ",",
  "45": "-",
  "46": ".",
  "47": "/",
  "48": "0",
  "49": "1",
  "50": "2",
  "51": "3",
  "52": "4",
  "53": "5",
  "54": "6",
  "55": "7",
  "56": "8",
  "57": "9",
  "58": ":",
  "59": ";",
  "60": "<",
  "61": "=",
  "62": ">",
  "63": "?",
  "64": "@",
  "65": "A",
  "66": "B",
  "67": "C",
  "68": "D",
  "69": "E",
  "70": "F",
  "71": "G",
  "72": "H",
  "73": "I",
  "74": "J",
  "75": "K",
  "76": "L",
  "77": "M",
  "78": "N",
  "79": "O",
  "80": "P",
  "81": "Q",
  "82": "R",
  "83": "S",
  "84": "T",
  "85": "U",
  "86": "V",
  "87": "W",
  "88": "X",
  "89": "Y",
  "90": "Z",
  "91": "[",
  "92": "\\",
  "93": "]",
  "94": "^",
  "95": "_",
  "96": "`",
  "97": "a",
  "98": "b",
  "99": "c",
  "100": "d",
  "101": "e",
  "102": "f",
  "103": "g",
  "104": "h",
  "105": "i",
  "106": "j",
  "107": "k",
  "108": "l",
  "109": "m",
  "110": "n",
  "111": "o",
  "112": "p",
  "113": "q",
  "114": "r",
  "115": "s",
  "116": "t",
  "117": "u",
  "118": "v",
  "119": "w",
  "120": "x",
  "121": "y",
  "122": "z",
  "123": "{",
  "124": "|",
  "125": "}",
  "126": "~",
  "127": "\u007f",
  "128": "\u0080",
  "129": "\u0081",
  "130": "\u0082",
  "131": "\u0083",
  "132": "\u0084",
  "133": "\u0085",
  "134": "\u0086",
  "135": "\u0087",
  "136": "\u0088",
  "137": "\u0089",
  "138": "\u008a",
  "139": "\u008b",
  "140": "\u008c",
  "141": "\u008d",
  "142": "\u008e",
  "143": "\u008f",
  "144": "\u0090",
  "145": "\u0091",
  "146": "\u0092",
  "147": "\u0093",
  "148": "\u0094",
  "149": "\u0095",
  "150": "\u0096",
  "151": "\u0097",
  "152": "\u0098",
  "153": "\u0099",
  "154": "\u009a",
  "155": "\u009b",
  "156": "\u009c",
  "157": "\u009d",
  "158": "\u009e",
  "159": "\u009f",
  "160": "\u00a0",
  "161": "\u00a1",
  "162": "\u00a2",
  "163": "\u00a3",
  "164": "\u00a4",
  "165": "\u00a5",
  "166": "\u00a6",
  "167": "\u00a7",
  "168": "\u00a8",
  "169": "\u00a9",
  "170": "\u00aa",
  "171": "\u00ab",
  "172": "\u00ac",
  "173": "\u00ad",
  "174": "\u00ae",
  "175": "\u00af",
  "176": "\u00b0",
  "177": "\u00b1",
  "178": "\u00b2",
  "179": "\u00b3",
  "180": "\u00b4",
  "181": "\u00b5",
  "182": "\u00b6",
  "183": "\u00b7",
  "184": "\u00b8",
  "185": "\u00b9",
  "186": "\u00ba",
  "187": "\u00bb",
  "188": "\u00bc",
  "189": "\u00bd",
  "190": "\u00be",
  "191": "\u00bf",
  "192": "\u00c0",
  "193": "\u00c1",
  "194": "\u00c2",
  "195": "\u00c3",
  "196": "\u00c4",
  "197": "\u00c5",
  "198": "\u00c6",
  "199": "\u00c7",
  "200": "\u00c8",
  "201": "\u00c9",
  "202": "\u00ca",
  "203": "\u00cb",
  "204": "\u00cc",
  "205": "\u00cd",
  "206": "\u00ce",
  "207": "\u00cf",
  "208": "\u00d0",
  "209": "\u00d1",
  "210": "\u00d2",
  "211": "\u00d3",
  "212": "\u00d4",
  "213": "\u00d5",
  "214": "\u00d6",
  "215": "\u00d7",
  "216": "\u00d8",
  "217": "\u00d9",
  "218": "\u00da",
  "219": "\u00db",
  "220": "\u00dc",
  "221": "\u00dd",
  "222": "\u00de",
  "223": "\u00df",
  "224": "\u00e0",
  "225": "\u00e1",
  "226": "\u00e2",
  "227": "\u00e3",
  "228": "\u00e4",
  "229": "\u00e5",
  "230": "\u00e6",
  "231": "\u00e7",
  "232": "\u00e8",
  "233": "\u00e9",
  "234": "\u00ea",
  "235": "\u00eb",
  "236": "\u00ec",
  "237": "\u00ed",
  "238": "\u00ee",
  "239": "\u00ef",
  "240": "\u00f0",
  "241": "\u00f1",
  "242": "\u00f2",
  "243": "\u00f3",
  "244": "\u00f4",
  "245": "\u00f5",
  "246": "\u00f6",
  "247": "\u00f7",
  "248": "\u00f8",
  "249": "\u00f9",
  "250": "\u00fa",
  "251": "\u00fb",
  "252": "\u00fc",
  "253": "\u00fd",
  "254": "\u00fe",
  "255": "\u00ff",
  "256": "<|endoftext|>",
  "257": " t",
  "258": "he",
  "259": " a",
  "260": " s",
  "261": "nd",
  "262": " w",
  "263": " the",
  "264": "ed",
  "265": " b",
  "266": " to",
  "267": " and",
  "268": " h",
  "269": " f",
  "270": "in",
  "271": " T",
  "272": " wa",
  "273": "re",
  "274": "it",
  "275": "ou",
  "276": " l",
  "277": " d",
  "278": " c",
  "279": " p",
  "280": "ay",
  "281": " m",
  "282": "er",
  "283": " was",
  "284": "om",
  "285": " The",
  "286": " he",
  "287": "is",
  "288": "ar",
  "289": " n",
  "290": "im",
  "291": "on",
  "292": " sa",
  "293": "id",
  "294": "ll",
  "295": " ha",
  "296": " g",
  "297": "at",
  "298": " S",
  "299": "ing",
  "300": "ot",
  "301": "en",
  "302": "an",
  "303": "le",
  "304": "or",
  "305": "end",
  "306": "ir",
  "307": "of",
  "308": "am",
  "309": "et",
  "310": " H",
  "311": " it",
  "312": " th",
  "313": "ig",
  "314": " They",
  "315": " in",
  "316": "il",
  "317": " pl",
  "318": " He",
  "319": " \"",
  "320": "ow",
  "321": "ver",
  "322": "ri",
  "323": "ut",
  "324": " be",
  "325": " u",
  "326": " said",
  "327": " play",
  "328": "ith",
  "329": " day",
  "330": " with",
  "331": "pp",
  "332": "On",
  "333": " y",
  "334": "oo",
  "335": "ked",
  "336": " r",
  "337": " her",
  "338": "ex",
  "339": "ce",
  "340": " I",
  "341": " She",
  "342": "ld",
  "343": " Tim",
  "344": " his",
  "345": " st",
  "346": "ke",
  "347": " big",
  "348": "nt",
  "349": "ck",
  "350": " you",
  "351": "very",
  "352": "st",
  "353": "ve",
  "354": " on",
  "355": "un",
  "356": " happ",
  "357": "riend",
  "358": " friend",
  "359": "all",
  "360": "ily",
  "361": "ext",
  "362": " L",
  "363": " they",
  "364": "oft",
  "365": " we",
  "366": " had",
  "367": " not",
  "368": " li",
  "369": " up",
  "370": "her",
  "371": " want",
  "372": " of",
  "373": "ad",
  "374": "itt",
  "375": "<|",
  "376": "|>",
  "377": "endoft",
  "378": "endoftext",
  "379": "se",
  "380": " B",
  "381": " do",
  "382": " e",
  "383": " happy",
  "384": "ent",
  "385": " very",
  "386": " M",
  "387": "es",
  "388": " that",
  "389": " saw",
  "390": "One",
  "391": "'s",
  "392": "ould",
  "393": " mom",
  "394": " for",
  "395": " sh",
  "396": "ittle",
  "397": " little",
  "398": " she",
  "399": "ch",
  "400": "ime",
  "401": " nam",
  "402": ".\"",
  "403": " time",
  "404": " k",
  "405": "ound",
  "406": " so",
  "407": " there",
  "408": " named",
  "409": " sm",
  "410": " bo",
  "411": " were",
  "412": " Lily",
  "413": " ne",
  "414": " wanted",
  "415": " but",
  "416": "out",
  "417": "The",
  "418": " friends",
  "419": "ved",
  "420": "!\"",
  "421": "ht",
  "422": " Tom",
  "423": "ird",
  "424": "el",
  "425": " bird",
  "426": "al",
  "427": " an",
  "428": "ake",
  "429": " too",
  "430": "ome",
  "431": " It",
  "432": "ug",
  "433": "ide",
  "434": " went",
  "435": " wh",
  "436": " hel",
  "437": "Once",
  "438": " is",
  "439": " all",
  "440": " help",
  "441": "ue",
  "442": " loo",
  "443": " lo",
  "444": "ter",
  "445": " A",
  "446": " upon",
  "447": "ry",
  "448": "ore",
  "449": "ind",
  "450": " fun",
  "451": "get",
  "452": " toy",
  "453": "ill",
  "454": "ame",
  "455": " as",
  "456": " at",
  "457": "ra",
  "458": " j",
  "459": " did",
  "460": "gether",
  "461": " re",
  "462": "ur",
  "463": " o",
  "464": " se",
  "465": " together",
  "466": "ack",
  "467": " cat",
  "468": "ly",
  "469": " tre",
  "470": "ood",
  "471": "ic",
  "472": "ted",
  "473": " dog",
  "474": " could",
  "475": " can",
  "476": " their",
  "477": "ard",
  "478": "ec",
  "479": "ark",
  "480": " gir",
  "481": " played",
  "482": " him",
  "483": " ball",
  "484": "?\"",
  "485": " girl",
  "486": " ro",
  "487": "way",
  "488": " go",
  "489": "hed",
  "490": "my",
  "491": " are",
  "492": " out",
  "493": " le",
  "494": " fr",
  "495": "ain",
  "496": " kn",
  "497": "hen",
  "498": " them",
  "499": "um",
  "500": "'t",
  "501": "ax",
  "502": " sad",
  "503": "ul",
  "504": " boy",
  "505": " tree",
  "506": "other",
  "507": " have",
  "508": " man",
  "509": " cl",
  "510": " loved",
  "511": " looked",
  "512": "oug",
  "513": " found",
  "514": " sp",
  "515": " star",
  "516": " Sue",
  "517": "one",
  "518": "hing",
  "519": " sc",
  "520": " back",
  "521": "own",
  "522": " Max",
  "523": "are",
  "524": " like",
  "525": "ful",
  "526": "side",
  "527": " me",
  "528": " bec",
  "529": " park",
  "530": "ight",
  "531": "ong",
  "532": " car",
  "533": "op",
  "534": "elt",
  "535": " One",
  "536": " liked",
  "537": " would",
  "538": " make",
  "539": "round",
  "540": " la",
  "541": " fa",
  "542": " felt",
  "543": "You",
  "544": " W",
  "545": "ell",
  "546": " see",
  "547": " But",
  "548": "omet",
  "549": " asked",
  "550": "ag",
  "551": " new",
  "552": " no",
  "553": "ice",
  "554": " Sam",
  "555": "ouse",
  "556": " started",
  "557": "ared",
  "558": " came",
  "559": " Ben",
  "560": " al",
  "561": " other",
  "562": "ought",
  "563": "iled",
  "564": " somet",
  "565": " ag",
  "566": " good",
  "567": " small",
  "568": "ss",
  "569": " br",
  "570": " smiled",
  "571": " say",
  "572": "ried",
  "573": "ade",
  "574": "ings",
  "575": "ob",
  "576": "pot",
  "577": " wor",
  "578": " find",
  "579": "ia",
  "580": " away",
  "581": "ty",
  "582": " put",
  "583": " ex",
  "584": " what",
  "585": " something",
  "586": " from",
  "587": " made",
  "588": " thought",
  "589": "ened",
  "590": " home",
  "591": " playing",
  "592": " co",
  "593": "ook",
  "594": " every",
  "595": " wal",
  "596": " mu",
  "597": "uc",
  "598": "ach",
  "599": "arn",
  "600": " Spot",
  "601": " ran",
  "602": "ile",
  "603": " F",
  "604": "ie",
  "605": " J",
  "606": "ave",
  "607": " again",
  "608": " some",
  "609": " laug",
  "610": "dd",
  "611": " house",
  "612": " down",
  "613": " fl",
  "614": "king",
  "615": " took",
  "616": " scared",
  "617": " pr",
  "618": "ny",
  "619": "ure",
  "620": " toys",
  "621": " learn",
  "622": " You",
  "623": "if",
  "624": " will",
  "625": " box",
  "626": "ick",
  "627": "ret",
  "628": "ab",
  "629": "ep",
  "630": " my",
  "631": " around",
  "632": " things",
  "633": " your",
  "634": "oud",
  "635": " bl",
  "636": "uck",
  "637": " when",
  "638": "ish",
  "639": " lived",
  "640": " fe",
  "641": " then",
  "642": " sun",
  "643": "as",
  "644": " sw",
  "645": ",\"",
  "646": " ch",
  "647": "us",
  "648": "pped",
  "649": " ab",
  "650": " Mia",
  "651": "ank",
  "652": " get",
  "653": "ucy",
  "654": "Tim",
  "655": "ump",
  "656": "Th",
  "657": " lot",
  "658": "ist",
  "659": "oth",
  "660": " tried",
  "661": "ap",
  "662": " know",
  "663": " says",
  "664": " got",
  "665": "ited",
  "666": " who",
  "667": " kne",
  "668": "ust",
  "669": " many",
  "670": "nder",
  "671": " int",
  "672": " about",
  "673": "Lily",
  "674": " pret",
  "675": " dec",
  "676": " any",
  "677": " red",
  "678": " D",
  "679": "ive",
  "680": " knew",
  "681": "ace",
  "682": "ous",
  "683": " more",
  "684": "ise",
  "685": " v",
  "686": " care",
  "687": "ally",
  "688": " pic",
  "689": "au",
  "690": "qu",
  "691": " hug",
  "692": " Lucy",
  "693": " learned",
  "694": " po",
  "695": " water",
  "696": "fter",
  "697": " became",
  "698": " best",
  "699": "ause",
  "700": " op",
  "701": " gre",
  "702": " exc",
  "703": "urp",
  "704": "ways",
  "705": "\u00e2\u0080",
  "706": " outside",
  "707": " laughed",
  "708": " look",
  "709": " always",
  "710": " decid",
  "711": " show",
  "712": " un",
  "713": "ant",
  "714": " Bob",
  "715": " room",
  "716": "fe",
  "717": " decided",
  "718": " ho",
  "719": " because",
  "720": " into",
  "721": " So",
  "722": " eat",
  "723": "ite",
  "724": " jump",
  "725": " And",
  "726": " pe",
  "727": " both",
  "728": "ers",
  "729": " Mom",
  "730": " dad",
  "731": "They",
  "732": "udd",
  "733": " ke",
  "734": " one",
  "735": "nn",
  "736": " this",
  "737": " excited",
  "738": " fast",
  "739": " nice",
  "740": " E",
  "741": " feel",
  "742": "Tom",
  "743": "Yes",
  "744": " run",
  "745": " long",
  "746": " told",
  "747": " sk",
  "748": " am",
  "749": "urpr",
  "750": "our",
  "751": " inside",
  "752": "ull",
  "753": " tr",
  "754": " surpr",
  "755": " mo",
  "756": "ink",
  "757": " pretty",
  "758": "iny",
  "759": " sor",
  "760": "Wh",
  "761": " take",
  "762": "og",
  "763": " sl",
  "764": " each",
  "765": " gave",
  "766": " much",
  "767": " gra",
  "768": "lew",
  "769": "nna",
  "770": " rock",
  "771": " how",
  "772": " str",
  "773": "ara",
  "774": "imal",
  "775": " animal",
  "776": "ged",
  "777": " need",
  "778": " than",
  "779": "But",
  "780": "ven",
  "781": "etter",
  "782": " tow",
  "783": " or",
  "784": " C",
  "785": " under",
  "786": "ess",
  "787": " old",
  "788": " sorry",
  "789": "ge",
  "790": "ised",
  "791": "ro",
  "792": "urt",
  "793": " cle",
  "794": " fish",
  "795": " walked",
  "796": " clo",
  "797": "and",
  "798": " bear",
  "799": "ase",
  "800": "ast",
  "801": " hand",
  "802": "urn",
  "803": " We",
  "804": " kind",
  "805": " His",
  "806": "here",
  "807": " happened",
  "808": " just",
  "809": " flow",
  "810": " food",
  "811": " list",
  "812": " didn",
  "813": " te",
  "814": " animals",
  "815": " hig",
  "816": "pl",
  "817": " near",
  "818": " wat",
  "819": " ide",
  "820": " try",
  "821": "ched",
  "822": " sky",
  "823": "ine",
  "824": " sn",
  "825": "ving",
  "826": " fi",
  "827": "rom",
  "828": " us",
  "829": " idea",
  "830": " better",
  "831": " Amy",
  "832": " bug",
  "833": " heard",
  "834": "gry",
  "835": " its",
  "836": " tw",
  "837": " let",
  "838": "pec",
  "839": "ate",
  "840": "able",
  "841": "ff",
  "842": " en",
  "843": " careful",
  "844": " share",
  "845": " if",
  "846": "Thank",
  "847": "Mom",
  "848": " fly",
  "849": " stor",
  "850": "ial",
  "851": " flew",
  "852": "more",
  "853": " anymore",
  "854": " Th",
  "855": " spec",
  "856": " special",
  "857": "ion",
  "858": " com",
  "859": " lots",
  "860": " never",
  "861": " by",
  "862": "lf",
  "863": "ream",
  "864": " dan",
  "865": " bu",
  "866": " fo",
  "867": " wind",
  "868": " don",
  "869": " tal",
  "870": " clean",
  "871": "ort",
  "872": " gr",
  "873": " love",
  "874": "rm",
  "875": "ber",
  "876": " end",
  "877": " Then",
  "878": "ople",
  "879": " even",
  "880": "\n\n",
  "881": " mag",
  "882": " hard",
  "883": " shiny",
  "884": "udden",
  "885": " fore",
  "886": " over",
  "887": " cake",
  "888": "ak",
  "889": " book",
  "890": " col",
  "891": " turn",
  "892": " fam",
  "893": " bad",
  "894": " safe",
  "895": " after",
  "896": "ady",
  "897": " Anna",
  "898": "uddenly",
  "899": " people",
  "900": " proud",
  "901": " Every",
  "902": " surprised",
  "903": "pected",
  "904": "Let",
  "905": " high",
  "906": " cu",
  "907": " hurt",
  "908": " come",
  "909": "imb",
  "910": "arden",
  "911": " door",
  "912": " garden",
  "913": "bb",
  "914": " ground",
  "915": " opened",
  "916": " picked",
  "917": " loud",
  "918": " climb",
  "919": "expected",
  "920": " unexpected",
  "921": " gl",
  "922": " che",
  "923": "ild",
  "924": " im",
  "925": "As",
  "926": " give",
  "927": " way",
  "928": "ail",
  "929": "'m",
  "930": " thanked",
  "931": " color",
  "932": " blue",
  "933": " still",
  "934": " ever",
  "935": " hugged",
  "936": " From",
  "937": " call",
  "938": " far",
  "939": "ip",
  "940": " Her",
  "941": " Sara",
  "942": " When",
  "943": "No",
  "944": " off",
  "945": " magic",
  "946": "iz",
  "947": "ough",
  "948": "age",
  "949": "ummy",
  "950": " K",
  "951": " jumped",
  "952": " should",
  "953": " family",
  "954": " par",
  "955": "ool",
  "956": " kid",
  "957": " smile",
  "958": "hes",
  "959": "uff",
  "960": " place",
  "961": "kay",
  "962": " walk",
  "963": " now",
  "964": "ct",
  "965": " In",
  "966": " great",
  "967": "em",
  "968": " qu",
  "969": "les",
  "970": " strong",
  "971": " stay",
  "972": " unt",
  "973": " sto",
  "974": "aut",
  "975": " forest",
  "976": "ture",
  "977": "ane",
  "978": " bra",
  "979": "itty",
  "980": " P",
  "981": " frog",
  "982": " bro",
  "983": " until",
  "984": "oon",
  "985": " beaut",
  "986": "dy",
  "987": " squ",
  "988": " stick",
  "989": " next",
  "990": " boat",
  "991": "lease",
  "992": "ning",
  "993": " happily",
  "994": " listen",
  "995": "aking",
  "996": " kids",
  "997": " tra",
  "998": "ies",
  "999": "iful",
  "1000": " beautiful",
  "1001": " app",
  "1002": "th",
  "1003": " helped",
  "1004": " dra",
  "1005": " showed",
  "1006": " clos",
  "1007": "be",
  "1008": " imp",
  "1009": " story",
  "1010": "unny",
  "1011": "oy",
  "1012": " while",
  "1013": " town",
  "1014": "rel",
  "1015": "pt",
  "1016": " rain",
  "1017": "ress",
  "1018": " picture",
  "1019": " being",
  "1020": " rem",
  "1021": " everyone",
  "1022": "It",
  "1023": "ary",
  "1024": "ree",
  "1025": " mor",
  "1026": " hat",
  "1027": " called",
  "1028": " met",
  "1029": " stopped",
  "1030": " ad",
  "1031": " game",
  "1032": "Now",
  "1033": "He",
  "1034": " wo",
  "1035": "Can",
  "1036": " angry",
  "1037": "ger",
  "1038": "uffy",
  "1039": " soft",
  "1040": " open",
  "1041": " truck",
  "1042": " keep",
  "1043": "When",
  "1044": " cry",
  "1045": " yummy",
  "1046": " lost",
  "1047": " bed",
  "1048": " Let",
  "1049": " Sally",
  "1050": " warm",
  "1051": "by",
  "1052": "vent",
  "1053": " brave",
  "1054": " mouse",
  "1055": " Wh",
  "1056": " ate",
  "1057": " Kitty",
  "1058": "ished",
  "1059": " de",
  "1060": "fore",
  "1061": " doll",
  "1062": "so",
  "1063": " couldn",
  "1064": " watch",
  "1065": " leave",
  "1066": " also",
  "1067": "dded",
  "1068": " fell",
  "1069": " green",
  "1070": " face",
  "1071": " two",
  "1072": "gan",
  "1073": "iss",
  "1074": " flowers",
  "1075": "bit",
  "1076": "What",
  "1077": " R",
  "1078": "ble",
  "1079": " noise",
  "1080": "abbit",
  "1081": "irst",
  "1082": "owl",
  "1083": " where",
  "1084": "az",
  "1085": "ock",
  "1086": " soon",
  "1087": "self",
  "1088": " slide",
  "1089": " rabbit",
  "1090": " hole",
  "1091": "luffy",
  "1092": " before",
  "1093": "irrel",
  "1094": " pus",
  "1095": "ired",
  "1096": " sat",
  "1097": "illy",
  "1098": " hear",
  "1099": " use",
  "1100": "\u00e2\u0080\u009d",
  "1101": "Hi",
  "1102": " pa",
  "1103": " kept",
  "1104": "\u00e2\u0080\u009c",
  "1105": "That",
  "1106": " squirrel",
  "1107": "ear",
  "1108": "Then",
  "1109": "ma",
  "1110": " nodded",
  "1111": " expl",
  "1112": " store",
  "1113": " cook",
  "1114": " hands",
  "1115": "Look",
  "1116": " birds",
  "1117": " pain",
  "1118": " going",
  "1119": " funny",
  "1120": " having",
  "1121": "day",
  "1122": " sing",
  "1123": "aybe",
  "1124": "uch",
  "1125": " ey",
  "1126": "aug",
  "1127": " catch",
  "1128": "aught",
  "1129": " Can",
  "1130": " Fluffy",
  "1131": "uit",
  "1132": " yell",
  "1133": " think",
  "1134": "leep",
  "1135": " cra",
  "1136": " fin",
  "1137": "Ben",
  "1138": " bre",
  "1139": " fix",
  "1140": " tired",
  "1141": " bunny",
  "1142": " used",
  "1143": " looking",
  "1144": " bus",
  "1145": "ange",
  "1146": "air",
  "1147": " work",
  "1148": " wr",
  "1149": "ting",
  "1150": " our",
  "1151": " pull",
  "1152": "We",
  "1153": " thr",
  "1154": "thing",
  "1155": " Now",
  "1156": " wait",
  "1157": " kit",
  "1158": " sound",
  "1159": " jo",
  "1160": " has",
  "1161": " G",
  "1162": " mean",
  "1163": " pond",
  "1164": "ember",
  "1165": " beh",
  "1166": " dr",
  "1167": " sunny",
  "1168": "led",
  "1169": " others",
  "1170": " ask",
  "1171": "ng",
  "1172": "chen",
  "1173": " kitchen",
  "1174": " talk",
  "1175": " flo",
  "1176": " dif",
  "1177": " pie",
  "1178": "rew",
  "1179": " Jo",
  "1180": " head",
  "1181": " real",
  "1182": " first",
  "1183": " tri",
  "1184": " mommy",
  "1185": " eyes",
  "1186": "ello",
  "1187": " import",
  "1188": "Hello",
  "1189": " fav",
  "1190": "ath",
  "1191": "joy",
  "1192": " z",
  "1193": " remember",
  "1194": " right",
  "1195": " flower",
  "1196": " con",
  "1197": " mess",
  "1198": " party",
  "1199": " cold",
  "1200": " Do",
  "1201": " vo",
  "1202": " swe",
  "1203": "ious",
  "1204": "ft",
  "1205": " sand",
  "1206": " \u00e2\u0080\u009c",
  "1207": "ac",
  "1208": "orn",
  "1209": " race",
  "1210": " curi",
  "1211": "imes",
  "1212": " important",
  "1213": " duck",
  "1214": " moral",
  "1215": " shared",
  "1216": "zy",
  "1217": "ount",
  "1218": " Jack",
  "1219": " ice",
  "1220": " okay",
  "1221": " advent",
  "1222": " worked",
  "1223": "llow",
  "1224": "At",
  "1225": " enjoy",
  "1226": " dress",
  "1227": " bright",
  "1228": " making",
  "1229": " curious",
  "1230": " own",
  "1231": " tall",
  "1232": " dir",
  "1233": " hop",
  "1234": "reed",
  "1235": " hid",
  "1236": " favor",
  "1237": " ri",
  "1238": "hn",
  "1239": " sleep",
  "1240": " dis",
  "1241": "Wow",
  "1242": " favorite",
  "1243": " thing",
  "1244": " began",
  "1245": " mon",
  "1246": " bag",
  "1247": " hill",
  "1248": "Don",
  "1249": " cla",
  "1250": " draw",
  "1251": " rest",
  "1252": " here",
  "1253": " yard",
  "1254": " tell",
  "1255": " Fin",
  "1256": "ster",
  "1257": " watched",
  "1258": "que",
  "1259": " follow",
  "1260": " move",
  "1261": " bel",
  "1262": "ect",
  "1263": " cut",
  "1264": " night",
  "1265": " agreed",
  "1266": " pick",
  "1267": "co",
  "1268": " block",
  "1269": " hun",
  "1270": "aper",
  "1271": "lly",
  "1272": " stop",
  "1273": " behind",
  "1274": " This",
  "1275": " surprise",
  "1276": "ied",
  "1277": " sho",
  "1278": " hot",
  "1279": "After",
  "1280": " table",
  "1281": " grass",
  "1282": " worry",
  "1283": " dark",
  "1284": " trees",
  "1285": " voice",
  "1286": " walking",
  "1287": "fere",
  "1288": " floor",
  "1289": " farm",
  "1290": " lion",
  "1291": " top",
  "1292": " differe",
  "1293": " please",
  "1294": " ru",
  "1295": " song",
  "1296": " butter",
  "1297": " tail",
  "1298": " sweet",
  "1299": "Max",
  "1300": " shout",
  "1301": " colors",
  "1302": " read",
  "1303": " Dad",
  "1304": " lady",
  "1305": " forg",
  "1306": "isy",
  "1307": " leaves",
  "1308": " closer",
  "1309": "ign",
  "1310": " cars",
  "1311": " turned",
  "1312": " needed",
  "1313": " tast",
  "1314": "Why",
  "1315": "aring",
  "1316": " wood",
  "1317": " cried",
  "1318": " different",
  "1319": " laugh",
  "1320": " del",
  "1321": " piece",
  "1322": "\u00e2\u0080\u0099",
  "1323": "ered",
  "1324": " Mr",
  "1325": " roll",
  "1326": " adventure",
  "1327": " fire",
  "1328": " does",
  "1329": "ike",
  "1330": " cr",
  "1331": " hungry",
  "1332": " hair",
  "1333": " Suddenly",
  "1334": " paper",
  "1335": " feeling",
  "1336": " yellow",
  "1337": " full",
  "1338": "bo",
  "1339": " prin",
  "1340": "Sue",
  "1341": " touch",
  "1342": " As",
  "1343": "Anna",
  "1344": "Sam",
  "1345": " wet",
  "1346": " friendly",
  "1347": " per",
  "1348": "oom",
  "1349": "ken",
  "1350": "cked",
  "1351": "ached",
  "1352": " swing",
  "1353": " fruit",
  "1354": "ient",
  "1355": " broken",
  "1356": " ready",
  "1357": "bye",
  "1358": "ppy",
  "1359": " prom",
  "1360": " That",
  "1361": " another",
  "1362": " light",
  "1363": " pretend",
  "1364": " dance",
  "1365": "ater",
  "1366": " climbed",
  "1367": "where",
  "1368": " listened",
  "1369": " Bobo",
  "1370": " danc",
  "1371": " running",
  "1372": " only",
  "1373": " plan",
  "1374": " gone",
  "1375": " swim",
  "1376": "bbed",
  "1377": "Suddenly",
  "1378": "sh",
  "1379": " train",
  "1380": "ila",
  "1381": "ndma",
  "1382": "Sara",
  "1383": " Jane",
  "1384": " close",
  "1385": "av",
  "1386": "She",
  "1387": " smell",
  "1388": "aby",
  "1389": " amaz",
  "1390": "So",
  "1391": " hold",
  "1392": " blocks",
  "1393": " wonder",
  "1394": " Timmy",
  "1395": " repl",
  "1396": " All",
  "1397": " butterf",
  "1398": " sees",
  "1399": " reached",
  "1400": " wall",
  "1401": " pu",
  "1402": "oney",
  "1403": "red",
  "1404": " slow",
  "1405": " helping",
  "1406": " dri",
  "1407": " cream",
  "1408": " cool",
  "1409": " glad",
  "1410": "af",
  "1411": " ant",
  "1412": " less",
  "1413": " been",
  "1414": " goodbye",
  "1415": " ac",
  "1416": " fight",
  "1417": "ather",
  "1418": "Mia",
  "1419": " pushed",
  "1420": "iced",
  "1421": " fair",
  "1422": " must",
  "1423": " hide",
  "1424": " moment",
  "1425": " window",
  "1426": " O",
  "1427": " sit",
  "1428": " balloon",
  "1429": " snow",
  "1430": " child",
  "1431": " explore",
  "1432": " Everyone",
  "1433": " ar",
  "1434": " wished",
  "1435": " baby",
  "1436": " done",
  "1437": " wag",
  "1438": " ste",
  "1439": " buy",
  "1440": " stuck",
  "1441": " perf",
  "1442": " thank",
  "1443": " might",
  "1444": "icy",
  "1445": " name",
  "1446": "ized",
  "1447": " trying",
  "1448": " bit",
  "1449": " coming",
  "1450": " bar",
  "1451": " quick",
  "1452": " fall",
  "1453": " apple",
  "1454": "ash",
  "1455": " scary",
  "1456": " looks",
  "1457": " build",
  "1458": " doing",
  "1459": " win",
  "1460": " underst",
  "1461": "aisy",
  "1462": " din",
  "1463": " dream",
  "1464": " dirty",
  "1465": " held",
  "1466": "ames",
  "1467": " books",
  "1468": " mar",
  "1469": "In",
  "1470": " butterfly",
  "1471": " left",
  "1472": " shouted",
  "1473": " count",
  "1474": " replied",
  "1475": "avy",
  "1476": " reach",
  "1477": " tiny",
  "1478": " through",
  "1479": "ott",
  "1480": " dro",
  "1481": " why",
  "1482": " air",
  "1483": " bran",
  "1484": " land",
  "1485": "key",
  "1486": " three",
  "1487": " pulled",
  "1488": " spl",
  "1489": " grow",
  "1490": " treat",
  "1491": " brother",
  "1492": " wise",
  "1493": " woods",
  "1494": " sure",
  "1495": "'re",
  "1496": " chair",
  "1497": "ix",
  "1498": " mat",
  "1499": "ins",
  "1500": " seen",
  "1501": " pink",
  "1502": " clapped",
  "1503": " plant",
  "1504": "ely",
  "1505": " owl",
  "1506": " cup",
  "1507": "ield",
  "1508": " sometimes",
  "1509": "andy",
  "1510": " fill",
  "1511": " cloud",
  "1512": "ask",
  "1513": " swam",
  "1514": "outh",
  "1515": " job",
  "1516": " colorful",
  "1517": " remembered",
  "1518": " bigger",
  "1519": " nest",
  "1520": " mouth",
  "1521": "pe",
  "1522": "Okay",
  "1523": " lesson",
  "1524": " join",
  "1525": " cre",
  "1526": "ph",
  "1527": " There",
  "1528": "oup",
  "1529": "room",
  "1530": "art",
  "1531": " waved",
  "1532": "uddy",
  "1533": " grabbed",
  "1534": " stayed",
  "1535": "Oh",
  "1536": " paint",
  "1537": "This",
  "1538": " clot",
  "1539": " cont",
  "1540": " clothes",
  "1541": "ower",
  "1542": " After",
  "1543": " waited",
  "1544": " quickly",
  "1545": "cle",
  "1546": " word",
  "1547": " broke",
  "1548": "ucky",
  "1549": " games",
  "1550": " cast",
  "1551": " blew",
  "1552": " gent",
  "1553": " Mommy",
  "1554": " enjoyed",
  "1555": " noticed",
  "1556": "Jo",
  "1557": "ries",
  "1558": "ation",
  "1559": " set",
  "1560": " likes",
  "1561": " pictures",
  "1562": "ton",
  "1563": "de",
  "1564": " sea",
  "1565": " heavy",
  "1566": " mus",
  "1567": " alone",
  "1568": " gif",
  "1569": "asure",
  "1570": " anything",
  "1571": " spot",
  "1572": " miss",
  "1573": " hopped",
  "1574": " world",
  "1575": " turns",
  "1576": "orm",
  "1577": " year",
  "1578": "der",
  "1579": " bott",
  "1580": " pat",
  "1581": " pot",
  "1582": " pen",
  "1583": "lc",
  "1584": "Her",
  "1585": " mix",
  "1586": " arm",
  "1587": " bike",
  "1588": " tight",
  "1589": " everywhere",
  "1590": " won",
  "1591": "Lucy",
  "1592": " tower",
  "1593": " threw",
  "1594": " himself",
  "1595": " followed",
  "1596": " Buddy",
  "1597": " ride",
  "1598": "man",
  "1599": "less",
  "1600": " ju",
  "1601": " je",
  "1602": "amp",
  "1603": "Bob",
  "1604": "ape",
  "1605": " comp",
  "1606": " key",
  "1607": "row",
  "1608": "\".",
  "1609": " white",
  "1610": "ctor",
  "1611": " wrong",
  "1612": " Daisy",
  "1613": " makes",
  "1614": " What",
  "1615": " break",
  "1616": " black",
  "1617": "arent",
  "1618": "ee",
  "1619": "ner",
  "1620": "Spot",
  "1621": "Do",
  "1622": " deep",
  "1623": "thy",
  "1624": " music",
  "1625": " pol",
  "1626": " delic",
  "1627": "cess",
  "1628": "ued",
  "1629": " forgot",
  "1630": " bee",
  "1631": " parent",
  "1632": " castle",
  "1633": "ves",
  "1634": "olly",
  "1635": " em",
  "1636": "iet",
  "1637": " wear",
  "1638": " hit",
  "1639": " ve",
  "1640": "ister",
  "1641": "oun",
  "1642": " quiet",
  "1643": " round",
  "1644": "ance",
  "1645": " stu",
  "1646": " danced",
  "1647": " vis",
  "1648": "ully",
  "1649": " wants",
  "1650": " leaf",
  "1651": " monster",
  "1652": " nap",
  "1653": " John",
  "1654": " understand",
  "1655": "ang",
  "1656": " bowl",
  "1657": "os",
  "1658": "rot",
  "1659": "ren",
  "1660": " bor",
  "1661": " talked",
  "1662": "itten",
  "1663": " dry",
  "1664": " faster",
  "1665": " cookies",
  "1666": " brought",
  "1667": "fully",
  "1668": " leg",
  "1669": "ross",
  "1670": " mum",
  "1671": "zz",
  "1672": " side",
  "1673": "ts",
  "1674": "From",
  "1675": " sign",
  "1676": " Inside",
  "1677": " smart",
  "1678": "cy",
  "1679": " rocks",
  "1680": " someone",
  "1681": "His",
  "1682": " poin",
  "1683": " sec",
  "1684": " sharing",
  "1685": " fox",
  "1686": " well",
  "1687": " res",
  "1688": " rel",
  "1689": " happen",
  "1690": " button",
  "1691": " branch",
  "1692": " Lila",
  "1693": " really",
  "1694": " finished",
  "1695": "ence",
  "1696": "ards",
  "1697": " dinner",
  "1698": " sister",
  "1699": " flying",
  "1700": "eddy",
  "1701": " contin",
  "1702": " worried",
  "1703": " ele",
  "1704": " To",
  "1705": " visit",
  "1706": " Maybe",
  "1707": " beach",
  "1708": " que",
  "1709": " secret",
  "1710": " el",
  "1711": " Sarah",
  "1712": " king",
  "1713": "John",
  "1714": "gy",
  "1715": " today",
  "1716": " perfect",
  "1717": " river",
  "1718": " everything",
  "1719": " silly",
  "1720": " shin",
  "1721": " Joe",
  "1722": " danger",
  "1723": "ipp",
  "1724": " children",
  "1725": " gu",
  "1726": " Soon",
  "1727": " field",
  "1728": " filled",
  "1729": " fur",
  "1730": " else",
  "1731": " smiles",
  "1732": " welc",
  "1733": " At",
  "1734": " wish",
  "1735": " Em",
  "1736": " sang",
  "1737": "While",
  "1738": " gi",
  "1739": "ze",
  "1740": " pudd",
  "1741": " snack",
  "1742": " eating",
  "1743": " realized",
  "1744": " pieces",
  "1745": " promised",
  "1746": "ord",
  "1747": " spr",
  "1748": " pig",
  "1749": " free",
  "1750": " continued",
  "1751": " bite",
  "1752": "ead",
  "1753": " parents",
  "1754": " carefully",
  "1755": "ated",
  "1756": " ear",
  "1757": "itting",
  "1758": "Just",
  "1759": " jar",
  "1760": "Maybe",
  "1761": " cow",
  "1762": "Amy",
  "1763": " blank",
  "1764": " drag",
  "1765": "stead",
  "1766": " orange",
  "1767": " mud",
  "1768": " crying",
  "1769": " blanket",
  "1770": " enough",
  "1771": " rolled",
  "1772": "cket",
  "1773": " soup",
  "1774": " sail",
  "1775": " purp",
  "1776": "imi",
  "1777": " yes",
  "1778": "ale",
  "1779": " drink",
  "1780": " snake",
  "1781": "ses",
  "1782": " boun",
  "1783": " pet",
  "1784": " crab",
  "1785": " laughing",
  "1786": " throw",
  "1787": " fairy",
  "1788": " words",
  "1789": " amazing",
  "1790": " bath",
  "1791": "ich",
  "1792": " purple",
  "1793": " Z",
  "1794": " without",
  "1795": "ire",
  "1796": " bottle",
  "1797": " Billy",
  "1798": " gift",
  "1799": " grandma",
  "1800": "Fin",
  "1801": "used",
  "1802": "ons",
  "1803": " past",
  "1804": " money",
  "1805": "iver",
  "1806": "fort",
  "1807": " mail",
  "1808": " Gra",
  "1809": " barked",
  "1810": " wagged",
  "1811": " att",
  "1812": "chool",
  "1813": " monkey",
  "1814": " doctor",
  "1815": "unch",
  "1816": " brown",
  "1817": " moved",
  "1818": "ises",
  "1819": " asks",
  "1820": " getting",
  "1821": " closed",
  "1822": " whe",
  "1823": " welcome",
  "1824": " su",
  "1825": " candy",
  "1826": " school",
  "1827": " morning",
  "1828": " owner",
  "1829": "gg",
  "1830": " lon",
  "1831": " mother",
  "1832": " higher",
  "1833": " sitting",
  "1834": " treasure",
  "1835": ".\u00e2\u0080\u009d",
  "1836": " smo",
  "1837": "!\u00e2\u0080\u009d",
  "1838": " dangerous",
  "1839": " lonely",
  "1840": " Ch",
  "1841": " living",
  "1842": " apples",
  "1843": "ush",
  "1844": " shop",
  "1845": "ased",
  "1846": " strange",
  "1847": "vel",
  "1848": " shining",
  "1849": " road",
  "1850": "ere",
  "1851": " Tommy",
  "1852": " creat",
  "1853": "una",
  "1854": " paw",
  "1855": "ey",
  "1856": " ra",
  "1857": " shoes",
  "1858": " pre",
  "1859": " -",
  "1860": "ible",
  "1861": " stre",
  "1862": " talking",
  "1863": "althy",
  "1864": " caught",
  "1865": " egg",
  "1866": "ol",
  "1867": " pass",
  "1868": "me",
  "1869": " lake",
  "1870": " runs",
  "1871": " buck",
  "1872": " letter",
  "1873": " wings",
  "1874": " chee",
  "1875": "fish",
  "1876": " mad",
  "1877": " fan",
  "1878": "asket",
  "1879": " basket",
  "1880": "ass",
  "1881": " dragon",
  "1882": "app",
  "1883": "Mommy",
  "1884": "set",
  "1885": "cks",
  "1886": " stone",
  "1887": " thinks",
  "1888": " stand",
  "1889": " delicious",
  "1890": " nose",
  "1891": " puddle",
  "1892": " tom",
  "1893": " Bl",
  "1894": " Mimi",
  "1895": " belie",
  "1896": " farmer",
  "1897": " same",
  "1898": " years",
  "1899": "board",
  "1900": " teddy",
  "1901": " bat",
  "1902": "isk",
  "1903": "itch",
  "1904": " mine",
  "1905": " sear",
  "1906": " coat",
  "1907": "ches",
  "1908": "igh",
  "1909": " days",
  "1910": " bring",
  "1911": " gentle",
  "1912": " fit",
  "1913": " start",
  "1914": " finally",
  "1915": " whist",
  "1916": " cray",
  "1917": "igg",
  "1918": " scream",
  "1919": " kite",
  "1920": " pill",
  "1921": "phant",
  "1922": "arm",
  "1923": " vill",
  "1924": " cho",
  "1925": " singing",
  "1926": "ella",
  "1927": "sw",
  "1928": "ined",
  "1929": " tasty",
  "1930": " ph",
  "1931": " ben",
  "1932": " trou",
  "1933": " shell",
  "1934": " herself",
  "1935": " hoped",
  "1936": " answ",
  "1937": " wore",
  "1938": " swings",
  "1939": "sy",
  "1940": " hor",
  "1941": " belong",
  "1942": "Please",
  "1943": " push",
  "1944": " bush",
  "1945": "iskers",
  "1946": " carrot",
  "1947": " arri",
  "1948": "aughty",
  "1949": " teach",
  "1950": "bow",
  "1951": "ract",
  "1952": " naughty",
  "1953": " elephant",
  "1954": " dropped",
  "1955": " shap",
  "1956": " coll",
  "1957": "ier",
  "1958": "sc",
  "1959": " teac",
  "1960": "emy",
  "1961": " woke",
  "1962": "ball",
  "1963": " pile",
  "1964": " hiding",
  "1965": " cour",
  "1966": "isa",
  "1967": "erry",
  "1968": " touc",
  "1969": " min",
  "1970": " puppy",
  "1971": "'ll",
  "1972": " seem",
  "1973": "llie",
  "1974": " twins",
  "1975": "ama",
  "1976": " lunch",
  "1977": " bow",
  "1978": " sack",
  "1979": " pers",
  "1980": " course",
  "1981": " cheered",
  "1982": " shapes",
  "1983": " Jen",
  "1984": " grew",
  "1985": "fused",
  "1986": " rope",
  "1987": " village",
  "1988": "irth",
  "1989": "irthday",
  "1990": " juice",
  "1991": "ipped",
  "1992": " rainbow",
  "1993": " spin",
  "1994": "OK",
  "1995": " shook",
  "1996": "Jack",
  "1997": " spoon",
  "1998": " bench",
  "1999": " street",
  "2000": " fence",
  "2001": " cute",
  "2002": " Fred",
  "2003": " rob",
  "2004": " nut",
  "2005": " cheese",
  "2006": " prob",
  "2007": " touched",
  "2008": "idge",
  "2009": "col",
  "2010": " joy",
  "2011": " Whiskers",
  "2012": " arrived",
  "2013": " seed",
  "2014": " war",
  "2015": " teacher",
  "2016": " corn",
  "2017": "Good",
  "2018": " able",
  "2019": " forever",
  "2020": " bell",
  "2021": " few",
  "2022": " carry",
  "2023": " most",
  "2024": " plane",
  "2025": " Blue",
  "2026": "lem",
  "2027": " eas",
  "2028": " sounds",
  "2029": "lla",
  "2030": " des",
  "2031": " spo",
  "2032": " problem",
  "2033": " birthday",
  "2034": " inc",
  "2035": " power",
  "2036": "umb",
  "2037": "br",
  "2038": "\n ",
  "2039": " bugs",
  "2040": "ilk",
  "2041": " wonderful",
  "2042": " dolls",
  "2043": " busy",
  "2044": "ato",
  "2045": "irp",
  "2046": "eb",
  "2047": " wra",
  "2048": " promise",
  "2049": " Thank",
  "2050": " feels",
  "2051": "ian",
  "2052": " Emma",
  "2053": "eter",
  "2054": " bread",
  "2055": " neck",
  "2056": "Finally",
  "2057": " milk",
  "2058": " robot",
  "2059": " rec",
  "2060": " shy",
  "2061": "ountain",
  "2062": " kiss",
  "2063": "irt",
  "2064": " heart",
  "2065": " band",
  "2066": " cave",
  "2067": " pocket",
  "2068": "ub",
  "2069": " helpful",
  "2070": "gly",
  "2071": " slowly",
  "2072": " believe",
  "2073": " shake",
  "2074": "umpy",
  "2075": "eared",
  "2076": " patient",
  "2077": " pop",
  "2078": " ob",
  "2079": "arp",
  "2080": " live",
  "2081": " storm",
  "2082": " holding",
  "2083": " ugly",
  "2084": " towards",
  "2085": " upset",
  "2086": " turt",
  "2087": " shr",
  "2088": "adow",
  "2089": " cover",
  "2090": " kitten",
  "2091": "ost",
  "2092": " Remy",
  "2093": " sharp",
  "2094": " disapp",
  "2095": " stories",
  "2096": " suc",
  "2097": " honey",
  "2098": "ove",
  "2099": " Bella",
  "2100": "read",
  "2101": " noises",
  "2102": " Le",
  "2103": " balls",
  "2104": " cir",
  "2105": " spark",
  "2106": " gray",
  "2107": " dist",
  "2108": " dirt",
  "2109": "oggy",
  "2110": " late",
  "2111": " driver",
  "2112": " seat",
  "2113": " bucket",
  "2114": " meet",
  "2115": " young",
  "2116": " amazed",
  "2117": " turtle",
  "2118": "alm",
  "2119": " spid",
  "2120": " treats",
  "2121": " magical",
  "2122": "unt",
  "2123": "ator",
  "2124": " glow",
  "2125": " seek",
  "2126": " zoom",
  "2127": " lem",
  "2128": " sandw",
  "2129": "fortable",
  "2130": "umber",
  "2131": " trip",
  "2132": " mist",
  "2133": "ourn",
  "2134": " splas",
  "2135": " mark",
  "2136": " journ",
  "2137": " fold",
  "2138": " mach",
  "2139": " puzz",
  "2140": " part",
  "2141": "ling",
  "2142": " horse",
  "2143": " organ",
  "2144": " wild",
  "2145": " princess",
  "2146": "pping",
  "2147": "oose",
  "2148": " cookie",
  "2149": "Sure",
  "2150": "ens",
  "2151": " hugs",
  "2152": " Mark",
  "2153": " taking",
  "2154": "ung",
  "2155": " wheel",
  "2156": "epend",
  "2157": " cloth",
  "2158": " Lisa",
  "2159": " sug",
  "2160": " instead",
  "2161": " bubb",
  "2162": " string",
  "2163": " net",
  "2164": " drove",
  "2165": "iling",
  "2166": " rude",
  "2167": " huge",
  "2168": " Jim",
  "2169": " coin",
  "2170": " stars",
  "2171": " fighting",
  "2172": "Be",
  "2173": " spicy",
  "2174": " lucky",
  "2175": "Of",
  "2176": " craw",
  "2177": "Hey",
  "2178": " bone",
  "2179": " inv",
  "2180": " Grandma",
  "2181": "ors",
  "2182": "not",
  "2183": " ca",
  "2184": "pper",
  "2185": " forget",
  "2186": "up",
  "2187": " di",
  "2188": "aur",
  "2189": " sal",
  "2190": " Finally",
  "2191": " cannot",
  "2192": " whistle",
  "2193": " card",
  "2194": " sick",
  "2195": " path",
  "2196": " cou",
  "2197": " spider",
  "2198": " wide",
  "2199": "Lila",
  "2200": " foot",
  "2201": " snowman",
  "2202": " life",
  "2203": " songs",
  "2204": " pillow",
  "2205": "ize",
  "2206": "ular",
  "2207": " Just",
  "2208": "Later",
  "2209": "est",
  "2210": " Ann",
  "2211": "ert",
  "2212": " fixed",
  "2213": " giant",
  "2214": "oph",
  "2215": "rill",
  "2216": " nod",
  "2217": " boss",
  "2218": " comes",
  "2219": " last",
  "2220": " joke",
  "2221": " moon",
  "2222": " taste",
  "2223": "den",
  "2224": " machine",
  "2225": " grumpy",
  "2226": " wave",
  "2227": " thin",
  "2228": " drive",
  "2229": " cart",
  "2230": " ash",
  "2231": " ser",
  "2232": " grab",
  "2233": " peace",
  "2234": "lower",
  "2235": " daddy",
  "2236": " On",
  "2237": " Leo",
  "2238": "ery",
  "2239": " sel",
  "2240": " shelf",
  "2241": " hidden",
  "2242": "erest",
  "2243": " suddenly",
  "2244": " wasn",
  "2245": " write",
  "2246": " landed",
  "2247": " confused",
  "2248": " ring",
  "2249": " change",
  "2250": " worm",
  "2251": "oop",
  "2252": " interest",
  "2253": " chased",
  "2254": " fruits",
  "2255": " sour",
  "2256": "ity",
  "2257": " myster",
  "2258": " bark",
  "2259": " rad",
  "2260": " smooth",
  "2261": " Come",
  "2262": " adventures",
  "2263": " val",
  "2264": " stepped",
  "2265": " fle",
  "2266": "ope",
  "2267": " oven",
  "2268": " takes",
  "2269": " missed",
  "2270": " selfish",
  "2271": "kin",
  "2272": " sheep",
  "2273": " messy",
  "2274": " across",
  "2275": "To",
  "2276": " ent",
  "2277": " exp",
  "2278": "to",
  "2279": " ce",
  "2280": " later",
  "2281": "elly",
  "2282": " N",
  "2283": "ife",
  "2284": " sticks",
  "2285": " tie",
  "2286": "St",
  "2287": "ever",
  "2288": " Luna",
  "2289": " bought",
  "2290": " step",
  "2291": " drew",
  "2292": " tea",
  "2293": "pect",
  "2294": " ban",
  "2295": "irpy",
  "2296": "box",
  "2297": "?\u00e2\u0080\u009d",
  "2298": " wash",
  "2299": " lay",
  "2300": " pour",
  "2301": " beak",
  "2302": "ose",
  "2303": " jog",
  "2304": " grate",
  "2305": " ducks",
  "2306": " spe",
  "2307": " legs",
  "2308": "ugg",
  "2309": " fil",
  "2310": " Bu",
  "2311": " emp",
  "2312": "mer",
  "2313": " hope",
  "2314": " empty",
  "2315": " slid",
  "2316": " feather",
  "2317": " sleepy",
  "2318": " drum",
  "2319": "amed",
  "2320": "ars",
  "2321": "eth",
  "2322": " zoo",
  "2323": " pan",
  "2324": " phone",
  "2325": " grateful",
  "2326": " fing",
  "2327": "ions",
  "2328": " lemon",
  "2329": "let",
  "2330": " Cat",
  "2331": " clever",
  "2332": " Molly",
  "2333": " smelly",
  "2334": " imag",
  "2335": " splash",
  "2336": " interesting",
  "2337": " Jill",
  "2338": " save",
  "2339": " chick",
  "2340": " calm",
  "2341": " med",
  "2342": " watching",
  "2343": "Soon",
  "2344": "izzy",
  "2345": "izz",
  "2346": " plate",
  "2347": " ign",
  "2348": "yard",
  "2349": " clouds",
  "2350": " banan",
  "2351": " line",
  "2352": " faces",
  "2353": " ba",
  "2354": " act",
  "2355": " though",
  "2356": " wolf",
  "2357": " backyard",
  "2358": "wel",
  "2359": " seemed",
  "2360": " dogs",
  "2361": " spray",
  "2362": "Come",
  "2363": " prot",
  "2364": " whole",
  "2365": " mot",
  "2366": " fancy",
  "2367": " Daddy",
  "2368": " quest",
  "2369": " arms",
  "2370": " puzzle",
  "2371": " healthy",
  "2372": " supp",
  "2373": "ward",
  "2374": " finish",
  "2375": "erly",
  "2376": " along",
  "2377": "llo",
  "2378": " rocket",
  "2379": " explain",
  "2380": "dge",
  "2381": " easy",
  "2382": " jewel",
  "2383": "ont",
  "2384": " pract",
  "2385": " jelly",
  "2386": " Chirpy",
  "2387": " tid",
  "2388": " fake",
  "2389": " crayons",
  "2390": " wondered",
  "2391": " maybe",
  "2392": " scar",
  "2393": " ship",
  "2394": " nothing",
  "2395": "onest",
  "2396": " emb",
  "2397": "iger",
  "2398": " pool",
  "2399": " longer",
  "2400": " anyone",
  "2401": " Be",
  "2402": " Jerry",
  "2403": "ually",
  "2404": " front",
  "2405": " working",
  "2406": " gives",
  "2407": "irr",
  "2408": " pack",
  "2409": " such",
  "2410": " Bunny",
  "2411": "ocked",
  "2412": "ment",
  "2413": " bossy",
  "2414": " Doggy",
  "2415": " trouble",
  "2416": " smelled",
  "2417": " saved",
  "2418": " pin",
  "2419": "rass",
  "2420": " neigh",
  "2421": "arrass",
  "2422": "iting",
  "2423": " honest",
  "2424": " av",
  "2425": "arge",
  "2426": " embarrass",
  "2427": " lift",
  "2428": " van",
  "2429": " forgive",
  "2430": " tidy",
  "2431": " weak",
  "2432": "urse",
  "2433": " puts",
  "2434": "unk",
  "2435": " kick",
  "2436": " shirt",
  "2437": " With",
  "2438": " mind",
  "2439": " Ollie",
  "2440": " neighb",
  "2441": " plants",
  "2442": " sol",
  "2443": " Momo",
  "2444": " gently",
  "2445": " cozy",
  "2446": "orrow",
  "2447": "ming",
  "2448": " explor",
  "2449": "sp",
  "2450": " mistake",
  "2451": " yog",
  "2452": "oc",
  "2453": "oomy",
  "2454": " pointed",
  "2455": " lad",
  "2456": " af",
  "2457": " stood",
  "2458": "ork",
  "2459": " onto",
  "2460": " jumping",
  "2461": " waiting",
  "2462": " prince",
  "2463": " cross",
  "2464": " lock",
  "2465": " cheer",
  "2466": " queen",
  "2467": " Why",
  "2468": " Mary",
  "2469": " wing",
  "2470": "ones",
  "2471": "we",
  "2472": " large",
  "2473": " lovely",
  "2474": "ult",
  "2475": " sur",
  "2476": " ret",
  "2477": "And",
  "2478": " deer",
  "2479": " chew",
  "2480": " couch",
  "2481": " bal",
  "2482": " stret",
  "2483": "aughter",
  "2484": " Their",
  "2485": "era",
  "2486": " places",
  "2487": " My",
  "2488": " ladder",
  "2489": " return",
  "2490": "raid",
  "2491": " ants",
  "2492": " dish",
  "2493": " afraid",
  "2494": " cleaned",
  "2495": " tomorrow",
  "2496": " building",
  "2497": " sandwich",
  "2498": " person",
  "2499": "Sally",
  "2500": "ek",
  "2501": "ned",
  "2502": " pretended",
  "2503": " bounce",
  "2504": " wip",
  "2505": "gest",
  "2506": " match",
  "2507": " rich",
  "2508": "uce",
  "2509": " pizz",
  "2510": " gather",
  "2511": " search",
  "2512": " boring",
  "2513": "oman",
  "2514": " Somet",
  "2515": " teeth",
  "2516": " hum",
  "2517": "Kitty",
  "2518": "My",
  "2519": "aced",
  "2520": " daughter",
  "2521": " woman",
  "2522": " scarf",
  "2523": " goes",
  "2524": " Together",
  "2525": " law",
  "2526": " stra",
  "2527": " swimming",
  "2528": " furry",
  "2529": " splashed",
  "2530": " pri",
  "2531": " loves",
  "2532": " true",
  "2533": " screamed",
  "2534": " lazy",
  "2535": " gen",
  "2536": " answer",
  "2537": " eag",
  "2538": " number",
  "2539": " ashamed",
  "2540": " pizza",
  "2541": "aw",
  "2542": " appeared",
  "2543": " fear",
  "2544": " nearby",
  "2545": " powerful",
  "2546": " flag",
  "2547": " St",
  "2548": " hang",
  "2549": "vous",
  "2550": " clown",
  "2551": " chase",
  "2552": " motor",
  "2553": " wand",
  "2554": " TV",
  "2555": " rub",
  "2556": " success",
  "2557": " chocol",
  "2558": " If",
  "2559": " creative",
  "2560": " trust",
  "2561": " wearing",
  "2562": " noisy",
  "2563": " matter",
  "2564": "pa",
  "2565": " dig",
  "2566": " hello",
  "2567": " ner",
  "2568": " tool",
  "2569": " saf",
  "2570": " Bird",
  "2571": "ado",
  "2572": " nervous",
  "2573": "elp",
  "2574": " test",
  "2575": " smiling",
  "2576": " sold",
  "2577": "icked",
  "2578": "oppy",
  "2579": "osaur",
  "2580": " circle",
  "2581": "mb",
  "2582": " map",
  "2583": " drank",
  "2584": " class",
  "2585": " tries",
  "2586": " chocolate",
  "2587": " Please",
  "2588": " impress",
  "2589": " knee",
  "2590": " gener",
  "2591": " dinosaur",
  "2592": " polite",
  "2593": " mirr",
  "2594": " Bobby",
  "2595": " Tiny",
  "2596": " balloons",
  "2597": " gold",
  "2598": " rare",
  "2599": " protect",
  "2600": " cand",
  "2601": "Stop",
  "2602": " Go",
  "2603": " carried",
  "2604": "ensive",
  "2605": " ap",
  "2606": " shadow",
  "2607": " mirror",
  "2608": " Don",
  "2609": " bald",
  "2610": " gun",
  "2611": "ina",
  "2612": " expensive",
  "2613": " reg",
  "2614": " mysterious",
  "2615": "iff",
  "2616": " Sp",
  "2617": " pump",
  "2618": " note",
  "2619": " hero",
  "2620": " march",
  "2621": " har",
  "2622": "arl",
  "2623": " icy",
  "2624": " respect",
  "2625": " weird",
  "2626": " snee",
  "2627": " cri",
  "2628": " gate",
  "2629": " soap",
  "2630": "rag",
  "2631": "ute",
  "2632": "issors",
  "2633": " poor",
  "2634": " these",
  "2635": " towel",
  "2636": " whale",
  "2637": " feet",
  "2638": " tape",
  "2639": " dizzy",
  "2640": "itter",
  "2641": " generous",
  "2642": "ndpa",
  "2643": " pres",
  "2644": " Benny",
  "2645": " disco",
  "2646": "nic",
  "2647": "Help",
  "2648": "ventually",
  "2649": " picnic",
  "2650": " lead",
  "2651": " mic",
  "2652": " sque",
  "2653": " embarrassed",
  "2654": " journey",
  "2655": " sugar",
  "2656": "isp",
  "2657": "scape",
  "2658": " boot",
  "2659": " peaceful",
  "2660": " tent",
  "2661": " fat",
  "2662": " Bear",
  "2663": " scissors",
  "2664": " tasted",
  "2665": " yelled",
  "2666": "Tommy",
  "2667": " tick",
  "2668": " mel",
  "2669": " brush",
  "2670": " dancing",
  "2671": "ness",
  "2672": " glue",
  "2673": " hur",
  "2674": " clap",
  "2675": " rough",
  "2676": " bridge",
  "2677": "ote",
  "2678": " decor",
  "2679": " closet",
  "2680": " crown",
  "2681": " stir",
  "2682": "ual",
  "2683": "imp",
  "2684": " print",
  "2685": " Sometimes",
  "2686": "owed",
  "2687": "airs",
  "2688": " How",
  "2689": "ume",
  "2690": " cap",
  "2691": " lamp",
  "2692": " vase",
  "2693": " scare",
  "2694": "lebr",
  "2695": " relie",
  "2696": "lves",
  "2697": "any",
  "2698": " eld",
  "2699": " tele",
  "2700": " celebr",
  "2701": " gigg",
  "2702": " whisp",
  "2703": " log",
  "2704": " blow",
  "2705": " painted",
  "2706": " sco",
  "2707": " Ducky",
  "2708": " pay",
  "2709": "erries",
  "2710": " wis",
  "2711": " berries",
  "2712": " mixed",
  "2713": " spread",
  "2714": " wouldn",
  "2715": " cage",
  "2716": " bake",
  "2717": "rob",
  "2718": "getable",
  "2719": " mountain",
  "2720": " adm",
  "2721": " drawing",
  "2722": " become",
  "2723": " famous",
  "2724": " bean",
  "2725": " knocked",
  "2726": " norm",
  "2727": " vegetable",
  "2728": "asp",
  "2729": " kicked",
  "2730": "ustr",
  "2731": " shark",
  "2732": "ser",
  "2733": " incred",
  "2734": " lose",
  "2735": " normal",
  "2736": " wrap",
  "2737": "ced",
  "2738": " group",
  "2739": " thick",
  "2740": " 3",
  "2741": " fine",
  "2742": " glass",
  "2743": " ignor",
  "2744": " clock",
  "2745": " team",
  "2746": " elderly",
  "2747": " clear",
  "2748": " corner",
  "2749": " frustr",
  "2750": " mighty",
  "2751": "robe",
  "2752": " cone",
  "2753": " incredible",
  "2754": " Br",
  "2755": "ighed",
  "2756": "Dad",
  "2757": " moms",
  "2758": " balance",
  "2759": " sock",
  "2760": " space",
  "2761": " jam",
  "2762": "ragile",
  "2763": " fright",
  "2764": " branches",
  "2765": " organized",
  "2766": " roar",
  "2767": "port",
  "2768": " sword",
  "2769": " Mama",
  "2770": "alous",
  "2771": " guess",
  "2772": " fool",
  "2773": " sell",
  "2774": " feed",
  "2775": " Some",
  "2776": " which",
  "2777": " horn",
  "2778": " present",
  "2779": " jealous",
  "2780": " yarn",
  "2781": "ony",
  "2782": " fragile",
  "2783": " burn",
  "2784": " understood",
  "2785": " mis",
  "2786": " stubb",
  "2787": " ter",
  "2788": " frustrated",
  "2789": "Where",
  "2790": "ray",
  "2791": " hose",
  "2792": "cient",
  "2793": " spent",
  "2794": " shoe",
  "2795": " taught",
  "2796": " stubborn",
  "2797": " twist",
  "2798": " creature",
  "2799": " chest",
  "2800": " spoiled",
  "2801": " relieved",
  "2802": " ancient",
  "2803": " wake",
  "2804": "ique",
  "2805": " fier",
  "2806": " pray",
  "2807": " fierce",
  "2808": " eggs",
  "2809": " cab",
  "2810": " terri",
  "2811": " barn",
  "2812": " pumpkin",
  "2813": " comfortable",
  "2814": " ord",
  "2815": "ym",
  "2816": " frightened",
  "2817": "orry",
  "2818": " toug",
  "2819": " unique",
  "2820": " measure",
  "2821": " goat",
  "2822": " wagon",
  "2823": " unus",
  "2824": " breath",
  "2825": " foolish",
  "2826": " useful",
  "2827": " exploring",
  "2828": "dle",
  "2829": " straw",
  "2830": " unusual",
  "2831": " dug",
  "2832": " clay",
  "2833": " discover",
  "2834": " tomato",
  "2835": " Pe",
  "2836": " dead",
  "2837": " finding",
  "2838": " police",
  "2839": " wrote",
  "2840": " clum",
  "2841": " exam",
  "2842": "lace",
  "2843": " waves",
  "2844": " square",
  "2845": " hears",
  "2846": " cabin",
  "2847": " tells",
  "2848": " necklace",
  "2849": " dull",
  "2850": " clumsy",
  "2851": " tough",
  "2852": " bubbles",
  "2853": " nosy",
  "2854": "kn",
  "2855": " searched",
  "2856": "Together",
  "2857": " washed",
  "2858": " bathroom",
  "2859": " paws",
  "2860": "bby",
  "2861": "ond",
  "2862": "unn",
  "2863": "anged",
  "2864": " board",
  "2865": "known",
  "2866": "fic",
  "2867": " asking",
  "2868": " crazy",
  "2869": " thankful",
  "2870": " bitter",
  "2871": " sunf",
  "2872": "yal",
  "2873": " pir",
  "2874": "berry",
  "2875": " ind",
  "2876": "alk",
  "2877": " diffic",
  "2878": " rose",
  "2879": "cil",
  "2880": " swan",
  "2881": " bloom",
  "2882": " unknown",
  "2883": " Ella",
  "2884": " covered",
  "2885": " difficult",
  "2886": " add",
  "2887": " pencil",
  "2888": " finger",
  "2889": " ham",
  "2890": " hoop",
  "2891": " jet",
  "2892": " witch",
  "2893": " drop",
  "2894": "Me",
  "2895": " '",
  "2896": " chicken",
  "2897": " gloomy",
  "2898": " loyal",
  "2899": "apped",
  "2900": "als",
  "2901": "Here",
  "2902": " wealthy",
  "2903": "com",
  "2904": "light",
  "2905": " unl",
  "2906": " cats",
  "2907": " ending",
  "2908": " guit",
  "2909": "bled",
  "2910": "shine",
  "2911": " dove",
  "2912": " joined",
  "2913": " cher",
  "2914": "anut",
  "2915": " mov",
  "2916": " terrible",
  "2917": " yours",
  "2918": "iant",
  "2919": " U",
  "2920": " Rex",
  "2921": " salad",
  "2922": " Andy",
  "2923": " nuts",
  "2924": " rat",
  "2925": " lif",
  "2926": "ground",
  "2927": " tiger",
  "2928": " potato",
  "2929": " mask",
  "2930": "xible",
  "2931": "selves",
  "2932": " value",
  "2933": " changed",
  "2934": " moving",
  "2935": " exciting",
  "2936": "ormous",
  "2937": " Many",
  "2938": " body",
  "2939": " Tr",
  "2940": " toast",
  "2941": " record",
  "2942": "erp",
  "2943": " zip",
  "2944": " cheap",
  "2945": " disg",
  "2946": " guitar",
  "2947": "irsty",
  "2948": " knowing",
  "2949": " adventur",
  "2950": " yourself",
  "2951": " enormous",
  "2952": " hairy",
  "2953": "Every",
  "2954": " shoot",
  "2955": " Brown",
  "2956": " bored",
  "2957": " pepper",
  "2958": " remind",
  "2959": "ory",
  "2960": " acorn",
  "2961": "land",
  "2962": " adventurous",
  "2963": " sunshine",
  "2964": " smaller",
  "2965": " hats",
  "2966": " stuff",
  "2967": " solve",
  "2968": " Jimmy",
  "2969": " flexible",
  "2970": " cost",
  "2971": "rilliant",
  "2972": " knife",
  "2973": " perform",
  "2974": " snacks",
  "2975": " nods",
  "2976": " shore",
  "2977": " brilliant",
  "2978": " thirsty",
  "2979": " delicate",
  "2980": " frown",
  "2981": " disgust",
  "2982": " collect",
  "2983": " stri",
  "2984": " seeds",
  "2985": " counted",
  "2986": " asleep",
  "2987": " banana",
  "2988": "reen",
  "2989": " mailbox",
  "2990": "iness",
  "2991": " dough",
  "2992": " trick",
  "2993": " neighbor",
  "2994": "ungle",
  "2995": " heal",
  "2996": "Who",
  "2997": "live",
  "2998": " stage",
  "2999": " market",
  "3000": "ident",
  "3001": " cube",
  "3002": " jungle",
  "3003": " stat",
  "3004": " squee",
  "3005": "mbre",
  "3006": " explained",
  "3007": "ates",
  "3008": " umbre",
  "3009": " disgusting",
  "3010": "Jim",
  "3011": " lab",
  "3012": " jolly",
  "3013": " flash",
  "3014": "und",
  "3015": " fridge",
  "3016": "inal",
  "3017": "ilt",
  "3018": "pid",
  "3019": " crane",
  "3020": "corn",
  "3021": " suit",
  "3022": " rh",
  "3023": "iddle",
  "3024": " sunflower",
  "3025": " times",
  "3026": " Al",
  "3027": " caterp",
  "3028": " caterpill",
  "3029": " relax",
  "3030": " shiver",
  "3031": " four",
  "3032": " island",
  "3033": "iginal",
  "3034": " harm",
  "3035": "ict",
  "3036": " While",
  "3037": "ying",
  "3038": " stupid",
  "3039": " medic",
  "3040": " Instead",
  "3041": " comb",
  "3042": " goose",
  "3043": " cro",
  "3044": "edient",
  "3045": " Will",
  "3046": " stove",
  "3047": "If",
  "3048": "Are",
  "3049": " independ",
  "3050": "Mum",
  "3051": "most",
  "3052": " spring",
  "3053": " gem",
  "3054": " batter",
  "3055": " sighed",
  "3056": " vegetables",
  "3057": " stones",
  "3058": "pes",
  "3059": " shine",
  "3060": "How",
  "3061": " medicine",
  "3062": " depend",
  "3063": " Your",
  "3064": " rug",
  "3065": " careless",
  "3066": " original",
  "3067": " stamp",
  "3068": " gar",
  "3069": " cries",
  "3070": "Inside",
  "3071": "gu",
  "3072": " carrots",
  "3073": " scr",
  "3074": " successful",
  "3075": " sauce",
  "3076": " jeep",
  "3077": " popcorn",
  "3078": " meal",
  "3079": " obedient",
  "3080": " almost",
  "3081": " middle",
  "3082": " magn",
  "3083": " study",
  "3084": " independent",
  "3085": " fearful",
  "3086": " jack",
  "3087": "met",
  "3088": "inky",
  "3089": "Sorry",
  "3090": " Sammy",
  "3091": " escape",
  "3092": " caterpillar",
  "3093": " serious",
  "3094": " peanut",
  "3095": " bedroom",
  "3096": " eager",
  "3097": "aken",
  "3098": " gets",
  "3099": " parrot",
  "3100": " statue",
  "3101": " helmet",
  "3102": " pebb",
  "3103": " No",
  "3104": " fountain",
  "3105": " ang",
  "3106": " raven",
  "3107": " pasta",
  "3108": " umbrella",
  "3109": " compet",
  "3110": "There",
  "3111": " jacket",
  "3112": " belonged",
  "3113": " dest",
  "3114": " filthy",
  "3115": " design",
  "3116": " borrow",
  "3117": " cam",
  "3118": "erable",
  "3119": " houses",
  "3120": " prize",
  "3121": " hay",
  "3122": " brace",
  "3123": " standing",
  "3124": " miserable",
  "3125": " raced",
  "3126": " taken",
  "3127": "ages",
  "3128": " fork",
  "3129": " crayon",
  "3130": " painting",
  "3131": " triang",
  "3132": "io",
  "3133": " impressive",
  "3134": " choose",
  "3135": " fig",
  "3136": " tied",
  "3137": "iable",
  "3138": " spotted",
  "3139": " lifted",
  "3140": " slipped",
  "3141": "ours",
  "3142": " tank",
  "3143": " thoughtful",
  "3144": " dependable",
  "3145": " steal",
  "3146": " garage",
  "3147": "enny",
  "3148": " built",
  "3149": " mush",
  "3150": " er",
  "3151": "ipe",
  "3152": " mole",
  "3153": " crawled",
  "3154": " scale",
  "3155": " boats",
  "3156": " pant",
  "3157": " pian",
  "3158": " hammer",
  "3159": " bottom",
  "3160": "lph",
  "3161": " cheerful",
  "3162": " using",
  "3163": " smoke",
  "3164": " picks",
  "3165": " moder",
  "3166": " shows",
  "3167": "berries",
  "3168": " piano",
  "3169": "rn",
  "3170": " magnet",
  "3171": "dile",
  "3172": "codile",
  "3173": " hurts",
  "3174": "inary",
  "3175": " ref",
  "3176": " crack",
  "3177": " eng",
  "3178": " aunt",
  "3179": " melon",
  "3180": " waff",
  "3181": " modern",
  "3182": " dolph",
  "3183": "unnel",
  "3184": "cream",
  "3185": "pack",
  "3186": " tunnel",
  "3187": "oin",
  "3188": " arrow",
  "3189": " reliable",
  "3190": " hopping",
  "3191": " mushroom",
  "3192": " jug",
  "3193": "Timmy",
  "3194": " squash",
  "3195": " gum",
  "3196": " sink",
  "3197": " movie",
  "3198": " tax",
  "3199": " flute",
  "3200": " beet",
  "3201": " lean",
  "3202": "Their",
  "3203": "iv",
  "3204": " popular",
  "3205": "icop",
  "3206": "icopter",
  "3207": " cryst",
  "3208": " ones",
  "3209": " sil",
  "3210": " competit",
  "3211": " helicopter",
  "3212": "aser",
  "3213": " needs",
  "3214": "ipop",
  "3215": "llipop",
  "3216": " crocodile",
  "3217": " liz",
  "3218": "Molly",
  "3219": " press",
  "3220": " troubled",
  "3221": " pige",
  "3222": " locked",
  "3223": " tricks",
  "3224": " lollipop",
  "3225": " playful",
  "3226": " humble",
  "3227": " taxi",
  "3228": " kissed",
  "3229": " low",
  "3230": "appy",
  "3231": "comfortable",
  "3232": "amond",
  "3233": " rid",
  "3234": " uncomfortable",
  "3235": "host",
  "3236": " wander",
  "3237": "atch",
  "3238": " angel",
  "3239": "edy",
  "3240": "cles",
  "3241": " grace",
  "3242": " torn",
  "3243": " anx",
  "3244": " wrapped",
  "3245": " muff",
  "3246": " twig",
  "3247": " pants",
  "3248": " disappoin",
  "3249": " Sn",
  "3250": " helps",
  "3251": " diamond",
  "3252": " camera",
  "3253": "atter",
  "3254": "oto",
  "3255": " anxious",
  "3256": " ghost",
  "3257": " ruined",
  "3258": " tears",
  "3259": "cident",
  "3260": " Jenny",
  "3261": "ilty",
  "3262": " quar",
  "3263": "aff",
  "3264": " Even",
  "3265": " fis",
  "3266": " belt",
  "3267": "opl",
  "3268": "eropl",
  "3269": " env",
  "3270": " guilty",
  "3271": " bull",
  "3272": " aeropl",
  "3273": " helpless",
  "3274": " happiness",
  "3275": " lizard",
  "3276": " boys",
  "3277": "cut",
  "3278": " cere",
  "3279": " walks",
  "3280": "cean",
  "3281": " passed",
  "3282": " meant",
  "3283": " ocean",
  "3284": " fluffy",
  "3285": " wire",
  "3286": " nail",
  "3287": " bracelet",
  "3288": " deaf",
  "3289": "zed",
  "3290": " stretch",
  "3291": " cact",
  "3292": " candle",
  "3293": "tt",
  "3294": " beetle",
  "3295": " mop",
  "3296": " harmless",
  "3297": "umpet",
  "3298": " ordinary",
  "3299": " answered",
  "3300": " cop",
  "3301": " collar",
  "3302": " bees",
  "3303": " tire",
  "3304": " shape",
  "3305": " quarrel",
  "3306": " radio",
  "3307": " flashlight",
  "3308": " crystal",
  "3309": " harder",
  "3310": " poured",
  "3311": " trumpet",
  "3312": " engine",
  "3313": "Mama",
  "3314": " persist",
  "3315": " hunt",
  "3316": " tooth",
  "3317": " cereal",
  "3318": " invited",
  "3319": " comput",
  "3320": " tag",
  "3321": " office",
  "3322": " melt",
  "3323": " charm",
  "3324": " spill",
  "3325": "coa",
  "3326": " lit",
  "3327": " scoot",
  "3328": " comet",
  "3329": " triangle",
  "3330": "ief",
  "3331": " mug",
  "3332": " rep",
  "3333": "ube",
  "3334": " yogurt",
  "3335": " spend",
  "3336": " compass",
  "3337": " accident",
  "3338": " shade",
  "3339": "hett",
  "3340": "aghett",
  "3341": "aghetti",
  "3342": " disappointed",
  "3343": " licked",
  "3344": " cactus",
  "3345": " pale",
  "3346": " cush",
  "3347": " figure",
  "3348": " giving",
  "3349": " regular",
  "3350": " avoc",
  "3351": " sheet",
  "3352": " whispered",
  "3353": "aze",
  "3354": "uth",
  "3355": "ellig",
  "3356": " create",
  "3357": " barber",
  "3358": " intellig",
  "3359": " pipe",
  "3360": " rode",
  "3361": " roof",
  "3362": "Jane",
  "3363": " thread",
  "3364": "ither",
  "3365": " libr",
  "3366": " load",
  "3367": " vi",
  "3368": " gifted",
  "3369": "ccol",
  "3370": " practiced",
  "3371": " delight",
  "3372": "ccoli",
  "3373": " harsh",
  "3374": " dust",
  "3375": " pow",
  "3376": "asses",
  "3377": " True",
  "3378": " bicy",
  "3379": "azz",
  "3380": " spaghetti",
  "3381": " compassion",
  "3382": " sailed",
  "3383": "urkey",
  "3384": "ubby",
  "3385": " forward",
  "3386": " persistent",
  "3387": " speed",
  "3388": " mitten",
  "3389": " pro",
  "3390": " cocoa",
  "3391": " envel",
  "3392": " questions",
  "3393": " computer",
  "3394": " coo",
  "3395": " feathers",
  "3396": "hip",
  "3397": " glove",
  "3398": "ging",
  "3399": "Bobo",
  "3400": " rice",
  "3401": " shrimp",
  "3402": " desk",
  "3403": " stream",
  "3404": " inse",
  "3405": " pigeon",
  "3406": " charming",
  "3407": " ears",
  "3408": " carp",
  "3409": "lcan",
  "3410": " envious",
  "3411": " knot",
  "3412": " turkey",
  "3413": " stronger",
  "3414": "omes",
  "3415": " coins",
  "3416": " tap",
  "3417": " raft",
  "3418": "lcano",
  "3419": "weet",
  "3420": " trap",
  "3421": "umbers",
  "3422": " aeroplane",
  "3423": " trunk",
  "3424": " wheat",
  "3425": " boxes",
  "3426": " carpet",
  "3427": " chubby",
  "3428": " restless",
  "3429": " intelligent",
  "3430": " tube",
  "3431": " spun",
  "3432": " dreams",
  "3433": " friendship",
  "3434": " half",
  "3435": "ulif",
  "3436": "olin",
  "3437": " crawl",
  "3438": " loop",
  "3439": " broccoli",
  "3440": " onion",
  "3441": " week",
  "3442": " deliver",
  "3443": "anger",
  "3444": " acce",
  "3445": " vide",
  "3446": " volcano",
  "3447": " Jake",
  "3448": " sle",
  "3449": " track",
  "3450": " bri",
  "3451": " caulif",
  "3452": " vine",
  "3453": "ye",
  "3454": " ticket",
  "3455": " thief",
  "3456": "essie",
  "3457": "cycle",
  "3458": " louder",
  "3459": " insect",
  "3460": " numbers",
  "3461": "asing",
  "3462": " yaw",
  "3463": " haircut",
  "3464": "ital",
  "3465": " sleeping",
  "3466": " mill",
  "3467": " alert",
  "3468": " eventually",
  "3469": " excite",
  "3470": " pebble",
  "3471": " hosp",
  "3472": " attract",
  "3473": " planet",
  "3474": " Today",
  "3475": " univer",
  "3476": "isted",
  "3477": "ulu",
  "3478": " eraser",
  "3479": " hospital",
  "3480": " returned",
  "3481": " destro",
  "3482": " graceful",
  "3483": " happening",
  "3484": "ache",
  "3485": " OK",
  "3486": " Emily",
  "3487": " decide",
  "3488": " learning",
  "3489": " screen",
  "3490": "rework",
  "3491": " nicely",
  "3492": " leop",
  "3493": " cauliflower",
  "3494": " competitive",
  "3495": " poem",
  "3496": " celebrate",
  "3497": " curt",
  "3498": " peach",
  "3499": " soldier",
  "3500": " saus",
  "3501": " parade",
  "3502": "atient",
  "3503": " attractive",
  "3504": " curtain",
  "3505": " base",
  "3506": " dolphin",
  "3507": " violin",
  "3508": " ways",
  "3509": "Go",
  "3510": "ats",
  "3511": " travel",
  "3512": " rod",
  "3513": " ignorant",
  "3514": "ulb",
  "3515": " wheels",
  "3516": " yach",
  "3517": " scatter",
  "3518": " deter",
  "3519": " compassionate",
  "3520": " barrel",
  "3521": " envelope",
  "3522": " bubble",
  "3523": " lying",
  "3524": " firework",
  "3525": " sort",
  "3526": " question",
  "3527": "zzy",
  "3528": " Pipp",
  "3529": " scooter",
  "3530": " determ",
  "3531": " rag",
  "3532": " thu",
  "3533": " bicycle",
  "3534": "elery",
  "3535": " needle",
  "3536": " Fr",
  "3537": " judge",
  "3538": " bulb",
  "3539": " leopard",
  "3540": " tem",
  "3541": " yacht",
  "3542": " pony",
  "3543": " cricket",
  "3544": " homes",
  "3545": " order",
  "3546": " ador",
  "3547": "tern",
  "3548": " truth",
  "3549": " hook",
  "3550": "dom",
  "3551": " rubbed",
  "3552": "ete",
  "3553": "igator",
  "3554": " bushes",
  "3555": "Sarah",
  "3556": " uncle",
  "3557": " cushion",
  "3558": " spell",
  "3559": " grown",
  "3560": " cooked",
  "3561": " adorable",
  "3562": " chalk",
  "3563": " soar",
  "3564": " purse",
  "3565": " skin",
  "3566": " themselves",
  "3567": " impatient",
  "3568": " celery",
  "3569": " tray",
  "3570": " shells",
  "3571": " pengu",
  "3572": " sniff",
  "3573": " prun",
  "3574": " walls",
  "3575": " seal",
  "3576": " lively",
  "3577": " case",
  "3578": " alligator",
  "3579": " distant",
  "3580": " radish",
  "3581": " saying",
  "3582": " speak",
  "3583": " motorcycle",
  "3584": " meat",
  "3585": " send",
  "3586": "illa",
  "3587": " spinning",
  "3588": " forth",
  "3589": " counting",
  "3590": " enth",
  "3591": " bounced",
  "3592": " chain",
  "3593": " ed",
  "3594": " cleaning",
  "3595": "ebra",
  "3596": " film",
  "3597": " slept",
  "3598": " pit",
  "3599": " surf",
  "3600": " marry",
  "3601": "usia",
  "3602": " wallet",
  "3603": " enthusia",
  "3604": " metal",
  "3605": "urb",
  "3606": "ebook",
  "3607": " bin",
  "3608": " notebook",
  "3609": " skip",
  "3610": " wiped",
  "3611": "ision",
  "3612": "chair",
  "3613": " biggest",
  "3614": " avocado",
  "3615": " impro",
  "3616": " behave",
  "3617": " destroy",
  "3618": "vator",
  "3619": " bandage",
  "3620": " laughs",
  "3621": " steak",
  "3622": " pattern",
  "3623": " Sh",
  "3624": " post",
  "3625": " elevator",
  "3626": " Buzz",
  "3627": "usie",
  "3628": " dive",
  "3629": " shut",
  "3630": " skipped",
  "3631": " unlock",
  "3632": " diary",
  "3633": "dest",
  "3634": "ject",
  "3635": " zebra",
  "3636": " bags",
  "3637": "ating",
  "3638": " armchair",
  "3639": "aged",
  "3640": "rage",
  "3641": " disturb",
  "3642": " oy",
  "3643": " pole",
  "3644": " showing",
  "3645": " club",
  "3646": " gathered",
  "3647": " nurse",
  "3648": "bul",
  "3649": " earth",
  "3650": " enc",
  "3651": " stranger",
  "3652": " sweater",
  "3653": " jellyfish",
  "3654": " screw",
  "3655": " temp",
  "3656": " Poppy",
  "3657": " compl",
  "3658": " mixer",
  "3659": "Give",
  "3660": " skull",
  "3661": " lime",
  "3662": " bump",
  "3663": "bulance",
  "3664": " ambulance",
  "3665": "nam",
  "3666": " father",
  "3667": " journal",
  "3668": "Gra",
  "3669": " loudly",
  "3670": "ito",
  "3671": " folder",
  "3672": " Bet",
  "3673": " shield",
  "3674": " Lulu",
  "3675": " Peter",
  "3676": " library",
  "3677": " buttons",
  "3678": " playground",
  "3679": " trucks",
  "3680": " ink",
  "3681": " lights",
  "3682": " tummy",
  "3683": " pointing",
  "3684": " city",
  "3685": " decorate",
  "3686": " station",
  "3687": "irit",
  "3688": " prep",
  "3689": " falls",
  "3690": "quito",
  "3691": " Polly",
  "3692": "Billy",
  "3693": " Fo",
  "3694": " fu",
  "3695": "ention",
  "3696": "nger",
  "3697": " Birdy",
  "3698": "lies",
  "3699": " herb",
  "3700": " ornam",
  "3701": " ornament",
  "3702": " modest",
  "3703": " guard",
  "3704": " mos",
  "3705": " knows",
  "3706": " cord",
  "3707": " polish",
  "3708": " marble",
  "3709": "oby",
  "3710": " mosquito",
  "3711": "umbled",
  "3712": " salt",
  "3713": " attic",
  "3714": " vest",
  "3715": " whenever",
  "3716": "ctop",
  "3717": " resc",
  "3718": " yet",
  "3719": " ple",
  "3720": " disappeared",
  "3721": "ceed",
  "3722": " strawberry",
  "3723": " once",
  "3724": " Mum",
  "3725": " kay",
  "3726": " brothers",
  "3727": " itch",
  "3728": " pirate",
  "3729": " football",
  "3730": " split",
  "3731": "kele",
  "3732": "keleton",
  "3733": " hipp",
  "3734": " aut",
  "3735": " led",
  "3736": "uring",
  "3737": "ctopus",
  "3738": " driving",
  "3739": " cable",
  "3740": " support",
  "3741": " calling",
  "3742": " cupboard",
  "3743": "aky",
  "3744": "ushed",
  "3745": " wishes",
  "3746": " complet",
  "3747": " tripped",
  "3748": " root",
  "3749": " kayak",
  "3750": " octopus",
  "3751": "obile",
  "3752": " added",
  "3753": " edge",
  "3754": " mild",
  "3755": "stic",
  "3756": " determined",
  "3757": " succeed",
  "3758": "?\".",
  "3759": " reading",
  "3760": " coal",
  "3761": "omobile",
  "3762": "Well",
  "3763": " sung",
  "3764": "utes",
  "3765": "par",
  "3766": " suggest",
  "3767": " stack",
  "3768": " thunder",
  "3769": " kindness",
  "3770": " automobile",
  "3771": " complain",
  "3772": " enthusiastic",
  "3773": " sneeze",
  "3774": " cartoon",
  "3775": " yoga",
  "3776": " Little",
  "3777": " growl",
  "3778": "htub",
  "3779": " flea",
  "3780": " meadow",
  "3781": "la",
  "3782": " drawer",
  "3783": " bathtub",
  "3784": " ribb",
  "3785": "ophone",
  "3786": " golf",
  "3787": " hall",
  "3788": " means",
  "3789": " skeleton",
  "3790": " math",
  "3791": " veil",
  "3792": " hunter",
  "3793": " flame",
  "3794": " gor",
  "3795": " poke",
  "3796": " video",
  "3797": " chess",
  "3798": " cups",
  "3799": " troph",
  "3800": " glowing",
  "3801": " matt",
  "3802": " oyster",
  "3803": "work",
  "3804": " penny",
  "3805": " spear",
  "3806": "lasses",
  "3807": " itself",
  "3808": " drawings",
  "3809": " hippo",
  "3810": " repair",
  "3811": " switch",
  "3812": " sunglasses",
  "3813": " teleph",
  "3814": " costume",
  "3815": " dess",
  "3816": " zipp",
  "3817": ",\u00e2\u0080\u009d",
  "3818": " repe",
  "3819": " muffin",
  "3820": " arg",
  "3821": " pastry",
  "3822": " pun",
  "3823": " rolling",
  "3824": " minutes",
  "3825": " makeup",
  "3826": " packed",
  "3827": "iron",
  "3828": "ric",
  "3829": " People",
  "3830": " waffle",
  "3831": "case",
  "3832": " handle",
  "3833": " pear",
  "3834": " maze",
  "3835": " telephone",
  "3836": " pine",
  "3837": "ait",
  "3838": " gear",
  "3839": " hedge",
  "3840": " mattress",
  "3841": " package",
  "3842": "aving",
  "3843": " Miss",
  "3844": " shocked",
  "3845": "ines",
  "3846": " trophy",
  "3847": " powder",
  "3848": " knight",
  "3849": " cob",
  "3850": " missile",
  "3851": " frame",
  "3852": " managed",
  "3853": " encou",
  "3854": " wife",
  "3855": " ok",
  "3856": " separ",
  "3857": " stairs",
  "3858": "web",
  "3859": " rot",
  "3860": " camp",
  "3861": "time",
  "3862": "rophone",
  "3863": "urch",
  "3864": " magaz",
  "3865": " colour",
  "3866": " strugg",
  "3867": " grapes",
  "3868": " file",
  "3869": "head",
  "3870": " Tina",
  "3871": " basketball",
  "3872": "Bye",
  "3873": "old",
  "3874": "per",
  "3875": " cobweb",
  "3876": "Re",
  "3877": "Jimmy",
  "3878": " Tweet",
  "3879": "See",
  "3880": " perm",
  "3881": " wool",
  "3882": " Dan",
  "3883": " microphone",
  "3884": "esday",
  "3885": " eye",
  "3886": " leash",
  "3887": " gasp",
  "3888": "iew",
  "3889": "keep",
  "3890": " weep",
  "3891": " barking",
  "3892": "ature",
  "3893": " safely",
  "3894": " tear",
  "3895": " view",
  "3896": " slides",
  "3897": "offe",
  "3898": " steps",
  "3899": "istol",
  "3900": "offee",
  "3901": " bananas",
  "3902": " staff",
  "3903": " spirit",
  "3904": " task",
  "3905": " giggled",
  "3906": " hoc",
  "3907": " hockey",
  "3908": " vend",
  "3909": " those",
  "3910": " gorilla",
  "3911": "Jill",
  "3912": " cooler",
  "3913": " Rose",
  "3914": "was",
  "3915": " early",
  "3916": "cing",
  "3917": " marched",
  "3918": "rosc",
  "3919": " mint",
  "3920": " Look",
  "3921": "washer",
  "3922": " flour",
  "3923": " hotel",
  "3924": "hic",
  "3925": " sailor",
  "3926": " dessert",
  "3927": " photo",
  "3928": "roscope",
  "3929": " vehic",
  "3930": "ilot",
  "3931": " oft",
  "3932": " often",
  "3933": " church",
  "3934": " Pete",
  "3935": " cooking",
  "3936": " remain",
  "3937": " five",
  "3938": " sausage",
  "3939": "otter",
  "3940": " ten",
  "3941": " tools",
  "3942": " medal",
  "3943": " either",
  "3944": " fireman",
  "3945": "chor",
  "3946": " grandpa",
  "3947": " otter",
  "3948": " baseball",
  "3949": " pistol",
  "3950": " pretending",
  "3951": " dishwasher",
  "3952": " rever",
  "3953": " organize",
  "3954": " pee",
  "3955": " vendor",
  "3956": " knock",
  "3957": " sight",
  "3958": " grill",
  "3959": " temple",
  "3960": " battery",
  "3961": " thinking",
  "3962": " opens",
  "3963": " ow",
  "3964": " realised",
  "3965": " iron",
  "3966": " laser",
  "3967": " sne",
  "3968": " oil",
  "3969": " sandbox",
  "3970": " patch",
  "3971": " hours",
  "3972": " rise",
  "3973": " whip",
  "3974": "'d",
  "3975": "ctory",
  "3976": " Give",
  "3977": " anchor",
  "3978": " trash",
  "3979": "ense",
  "3980": " short",
  "3981": " Betty",
  "3982": "ney",
  "3983": " rhin",
  "3984": " factory",
  "3985": "seum",
  "3986": " may",
  "3987": " ward",
  "3988": "ately",
  "3989": " cardboard",
  "3990": "ugged",
  "3991": " lotion",
  "3992": "Al",
  "3993": " message",
  "3994": " valu",
  "3995": " wardrobe",
  "3996": " cell",
  "3997": " museum",
  "3998": "apers",
  "3999": " ur",
  "4000": "ination",
  "4001": " hanging",
  "4002": "ucet",
  "4003": " Sunny",
  "4004": "ailable",
  "4005": " Zoom",
  "4006": " hive",
  "4007": "eer",
  "4008": " towers",
  "4009": "keeper",
  "4010": " blackboard",
  "4011": " mem",
  "4012": "loo",
  "4013": " excitement",
  "4014": " coffee",
  "4015": " pilot",
  "4016": "Fluffy",
  "4017": "ready",
  "4018": " napkin",
  "4019": " penguin",
  "4020": "ron",
  "4021": " check",
  "4022": " reward",
  "4023": " quit",
  "4024": " Pippin",
  "4025": " cane",
  "4026": " picking",
  "4027": "place",
  "4028": " Snow",
  "4029": "azor",
  "4030": " ig",
  "4031": " faucet",
  "4032": " passport",
  "4033": " Rob",
  "4034": " stumbled",
  "4035": " dreamed",
  "4036": " Bessie",
  "4037": " igloo",
  "4038": "aroo",
  "4039": "angaroo",
  "4040": " freez",
  "4041": " juicy",
  "4042": " allowed",
  "4043": "play",
  "4044": " holds",
  "4045": " already",
  "4046": " available",
  "4047": " sett",
  "4048": " bathe",
  "4049": " tornado",
  "4050": "imney",
  "4051": " fingers",
  "4052": "htray",
  "4053": " hanger",
  "4054": " newsp",
  "4055": " size",
  "4056": " laund",
  "4057": " lend",
  "4058": " chimney",
  "4059": " laundry",
  "4060": " oak",
  "4061": " fisher",
  "4062": " kangaroo",
  "4063": " men",
  "4064": " Everywhere",
  "4065": " telling",
  "4066": "Em",
  "4067": " novel",
  "4068": "body",
  "4069": " mummy",
  "4070": " pal",
  "4071": " mule",
  "4072": " cherries",
  "4073": " notice",
  "4074": " practice",
  "4075": " spilled",
  "4076": " reind",
  "4077": " complete",
  "4078": " enjoying",
  "4079": " microscope",
  "4080": "arian",
  "4081": " gain",
  "4082": "ampoo",
  "4083": " sub",
  "4084": " fireplace",
  "4085": " imagine",
  "4086": "anda",
  "4087": " display",
  "4088": "ocer",
  "4089": " Zip",
  "4090": " fastest",
  "4091": " magazine",
  "4092": " hurry",
  "4093": " cabinet",
  "4094": " shrink",
  "4095": " ashtray",
  "4096": "Wait",
  "4097": " cows",
  "4098": " Spike",
  "4099": "Joe",
  "4100": "gen",
  "4101": " palace",
  "4102": " improve",
  "4103": "aches",
  "4104": " rake",
  "4105": " reindeer",
  "4106": " falling",
  "4107": "oceros",
  "4108": " skirt",
  "4109": "ured",
  "4110": " discovered",
  "4111": " stared",
  "4112": " roared",
  "4113": "aid",
  "4114": " silver",
  "4115": " tub",
  "4116": " trail",
  "4117": "Is",
  "4118": " miner",
  "4119": "come",
  "4120": " bill",
  "4121": " fog",
  "4122": "iction",
  "4123": " ax",
  "4124": "stairs",
  "4125": " hut",
  "4126": "ilet",
  "4127": " happier",
  "4128": " taller",
  "4129": "ictionary",
  "4130": " oats",
  "4131": " fisherman",
  "4132": " object",
  "4133": " por",
  "4134": "vision",
  "4135": " valuable",
  "4136": " shampoo",
  "4137": " holes",
  "4138": " offered",
  "4139": " boots",
  "4140": " rhinoceros",
  "4141": " names",
  "4142": " toilet",
  "4143": " climbing",
  "4144": " blin",
  "4145": "vice",
  "4146": "Ow",
  "4147": " stretched",
  "4148": "iest",
  "4149": " zipper",
  "4150": " listening",
  "4151": " bathrobe",
  "4152": " sym",
  "4153": " jewelry",
  "4154": "alend",
  "4155": " Here",
  "4156": " jokes",
  "4157": " television",
  "4158": " prov",
  "4159": " calend",
  "4160": " stops",
  "4161": " axe",
  "4162": " jumps",
  "4163": " fuel",
  "4164": "cu",
  "4165": " sparkly",
  "4166": " perfume",
  "4167": " Susie",
  "4168": " bury",
  "4169": "bol",
  "4170": "Mummy",
  "4171": "lu",
  "4172": " pressed",
  "4173": " Kim",
  "4174": "reek",
  "4175": " rece",
  "4176": " Toby",
  "4177": " neat",
  "4178": " creek",
  "4179": " popped",
  "4180": " opera",
  "4181": " calendar",
  "4182": " snap",
  "4183": " attach",
  "4184": " gasped",
  "4185": " symbol",
  "4186": " tuna",
  "4187": " Mar",
  "4188": " papers",
  "4189": "Mr",
  "4190": " unpack",
  "4191": " resist",
  "4192": " dictionary",
  "4193": " subway",
  "4194": " letters",
  "4195": " freezer",
  "4196": " chose",
  "4197": " pinch",
  "4198": "zag",
  "4199": " spoke",
  "4200": " anyway",
  "4201": " super",
  "4202": " helper",
  "4203": " porch",
  "4204": "affe",
  "4205": " bikes",
  "4206": " lie",
  "4207": "arry",
  "4208": "iches",
  "4209": " comfort",
  "4210": " tightly",
  "4211": " shaking",
  "4212": " bookcase",
  "4213": " son",
  "4214": " razor",
  "4215": "aurant",
  "4216": " Are",
  "4217": " sandwiches",
  "4218": " ext",
  "4219": "igzag",
  "4220": " weigh",
  "4221": " against",
  "4222": " stickers",
  "4223": " restaurant",
  "4224": " newspaper",
  "4225": " blouse",
  "4226": "te",
  "4227": " vehicle",
  "4228": " swinging",
  "4229": " ped",
  "4230": " disag",
  "4231": " nature",
  "4232": " squirrels",
  "4233": " belongs",
  "4234": "ival",
  "4235": " swamp",
  "4236": " butterflies",
  "4237": " gym",
  "4238": "del",
  "4239": " inclu",
  "4240": " growing",
  "4241": " buckle",
  "4242": "omed",
  "4243": " stirred",
  "4244": " billboard",
  "4245": " mustache",
  "4246": " beep",
  "4247": "xy",
  "4248": " alarm",
  "4249": " fest",
  "4250": " lip",
  "4251": " lightning",
  "4252": " hung",
  "4253": "utor",
  "4254": " distance",
  "4255": "ogn",
  "4256": " cards",
  "4257": " obser",
  "4258": " agree",
  "4259": "Little",
  "4260": " tease",
  "4261": " recogn",
  "4262": " rubber",
  "4263": "ik",
  "4264": " hate",
  "4265": " sof",
  "4266": "fast",
  "4267": "ef",
  "4268": "Ouch",
  "4269": " doesn",
  "4270": " musician",
  "4271": " advice",
  "4272": " beef",
  "4273": " serve",
  "4274": "aspoon",
  "4275": " sweetie",
  "4276": " model",
  "4277": "lter",
  "4278": " blueberries",
  "4279": " crib",
  "4280": " sofa",
  "4281": " circles",
  "4282": " breakfast",
  "4283": " tutor",
  "4284": "asis",
  "4285": " bookshe",
  "4286": " giraffe",
  "4287": " festival",
  "4288": "stri",
  "4289": " separate",
  "4290": " shelter",
  "4291": " gas",
  "4292": " airport",
  "4293": " olive",
  "4294": " rail",
  "4295": " bookshelf",
  "4296": " frogs",
  "4297": " teaspoon",
  "4298": " reverse",
  "4299": " junk",
  "4300": " riding",
  "4301": " pleased",
  "4302": " drain",
  "4303": " Mrs",
  "4304": " wipe",
  "4305": " oasis",
  "4306": " soil",
  "4307": " ahead",
  "4308": " rescue",
  "4309": " leaving",
  "4310": "ummer",
  "4311": " painter",
  "4312": " chance",
  "4313": " squeeze",
  "4314": " knob",
  "4315": " poked",
  "4316": " Teddy",
  "4317": " peeked",
  "4318": " lumber",
  "4319": " trains",
  "4320": " extra",
  "4321": " slipp",
  "4322": " quiz",
  "4323": " refused",
  "4324": "res",
  "4325": "rmomet",
  "4326": " page",
  "4327": " rules",
  "4328": " happens",
  "4329": " ins",
  "4330": " sounded",
  "4331": " point",
  "4332": " winter",
  "4333": " Grandpa",
  "4334": " dancer",
  "4335": " birdc",
  "4336": " disappear",
  "4337": "rmometer",
  "4338": " Dolly",
  "4339": " waste",
  "4340": " weather",
  "4341": " birdcage",
  "4342": " lic",
  "4343": " reef",
  "4344": " theater",
  "4345": " carrying",
  "4346": " invite",
  "4347": "Daisy",
  "4348": "iform",
  "4349": " goal",
  "4350": " ostri",
  "4351": " swung",
  "4352": " uniform",
  "4353": " trade",
  "4354": " cliff",
  "4355": "ience",
  "4356": " lawn",
  "4357": " Pandy",
  "4358": " leaned",
  "4359": "ola",
  "4360": "angu",
  "4361": " accept",
  "4362": " admire",
  "4363": " fort",
  "4364": " accidentally",
  "4365": " pastel",
  "4366": "bbles",
  "4367": " stom",
  "4368": " langu",
  "4369": " twir",
  "4370": " suff",
  "4371": " panda",
  "4372": " bet",
  "4373": "riger",
  "4374": "rigerator",
  "4375": " peek",
  "4376": "render",
  "4377": " blinked",
  "4378": " starts",
  "4379": "na",
  "4380": " refrigerator",
  "4381": " anywhere",
  "4382": "!\".",
  "4383": " imagined",
  "4384": " dreaming",
  "4385": " remove",
  "4386": "night",
  "4387": " Lee",
  "4388": " shower",
  "4389": " ceiling",
  "4390": " classroom",
  "4391": " caring",
  "4392": "ium",
  "4393": " grand",
  "4394": " missing",
  "4395": "aked",
  "4396": " license",
  "4397": " stable",
  "4398": " monkeys",
  "4399": " thermometer",
  "4400": "astic",
  "4401": " warned",
  "4402": " Where",
  "4403": " summer",
  "4404": " above",
  "4405": " brick",
  "4406": "ected",
  "4407": " cudd",
  "4408": " problems",
  "4409": "amber",
  "4410": " chasing",
  "4411": " apron",
  "4412": " label",
  "4413": " sent",
  "4414": " lawy",
  "4415": "iture",
  "4416": "urniture",
  "4417": " lid",
  "4418": "uggage",
  "4419": "med",
  "4420": " respectful",
  "4421": " furniture",
  "4422": " frowned",
  "4423": " zoomed",
  "4424": " pages",
  "4425": " prevent",
  "4426": " bent",
  "4427": " luggage",
  "4428": " mistakes",
  "4429": " ostrich",
  "4430": " sunset",
  "4431": "ison",
  "4432": " suggested",
  "4433": " windows",
  "4434": "low",
  "4435": "ations",
  "4436": " jail",
  "4437": " wine",
  "4438": " ribbon",
  "4439": " older",
  "4440": " shouts",
  "4441": " grape",
  "4442": " Cl",
  "4443": " Co",
  "4444": " wigg",
  "4445": "ucture",
  "4446": " structure",
  "4447": " spoil",
  "4448": "eor",
  "4449": " fixing",
  "4450": " chamber",
  "4451": " lions",
  "4452": " delay",
  "4453": " finds",
  "4454": " handed",
  "4455": " searching",
  "4456": " unite",
  "4457": "Did",
  "4458": " fought",
  "4459": " lawyer",
  "4460": " brightly",
  "4461": " meeting",
  "4462": " pair",
  "4463": " choice",
  "4464": " surprises",
  "4465": " Ellie",
  "4466": " art",
  "4467": " Un",
  "4468": "Ch",
  "4469": " favour",
  "4470": "eterin",
  "4471": "adium",
  "4472": "eterinarian",
  "4473": " stadium",
  "4474": " proudly",
  "4475": "iki",
  "4476": " veterinarian",
  "4477": "vet",
  "4478": " chairs",
  "4479": "rod",
  "4480": " slip",
  "4481": " Spe",
  "4482": " sadly",
  "4483": " Bow",
  "4484": " incre",
  "4485": " Carl",
  "4486": " puddles",
  "4487": " berry",
  "4488": " introd",
  "4489": " ranch",
  "4490": "veal",
  "4491": " Boun",
  "4492": " argue",
  "4493": " V",
  "4494": " admired",
  "4495": " cur",
  "4496": " favourite",
  "4497": "Your",
  "4498": " inf",
  "4499": " excitedly",
  "4500": " grabs",
  "4501": " rac",
  "4502": "mend",
  "4503": " steam",
  "4504": "thank",
  "4505": " human",
  "4506": "eorge",
  "4507": "sity",
  "4508": " Hel",
  "4509": " pushing",
  "4510": " saving",
  "4511": " Red",
  "4512": " reveal",
  "4513": " yield",
  "4514": "alley",
  "4515": "ommend",
  "4516": "olog",
  "4517": " mall",
  "4518": " reminded",
  "4519": " recommend",
  "4520": " leak",
  "4521": " surrender",
  "4522": " harb",
  "4523": " appl",
  "4524": "cuss",
  "4525": "aul",
  "4526": " weap",
  "4527": " regret",
  "4528": " putting",
  "4529": " valley",
  "4530": " mineral",
  "4531": " evening",
  "4532": " forgave",
  "4533": " matches",
  "4534": "elcome",
  "4535": " sneezed",
  "4536": " aw",
  "4537": " pup",
  "4538": " rushed",
  "4539": "ecause",
  "4540": " spade",
  "4541": " apolog",
  "4542": " discuss",
  "4543": " plates",
  "4544": " prepare",
  "4545": " harbor",
  "4546": " ignore",
  "4547": " Big",
  "4548": " country",
  "4549": " language",
  "4550": " Buzzy",
  "4551": " pulls",
  "4552": " plastic",
  "4553": " supply",
  "4554": " float",
  "4555": " sniffed",
  "4556": " Jazz",
  "4557": " replace",
  "4558": " meas",
  "4559": " shovel",
  "4560": " Bill",
  "4561": " raise",
  "4562": " Next",
  "4563": " fre",
  "4564": " cared",
  "4565": " socks",
  "4566": " strip",
  "4567": " doors",
  "4568": " mystery",
  "4569": " lives",
  "4570": " restore",
  "4571": " sticker",
  "4572": " sudden",
  "4573": "ari",
  "4574": " kinds",
  "4575": " slippery",
  "4576": "ero",
  "4577": " Ow",
  "4578": " player",
  "4579": " panic",
  "4580": " hoping",
  "4581": "ricane",
  "4582": "iday",
  "4583": " shone",
  "4584": "lex",
  "4585": "hero",
  "4586": " beg",
  "4587": " Binky",
  "4588": " Mike",
  "4589": " superhero",
  "4590": " delighted",
  "4591": " gro",
  "4592": "Yay",
  "4593": "aud",
  "4594": "chan",
  "4595": " chickens",
  "4596": " shoulder",
  "4597": " rained",
  "4598": " colourful",
  "4599": " breat",
  "4600": " Alice",
  "4601": " claw",
  "4602": " Bubbles",
  "4603": " softly",
  "4604": "Yuck",
  "4605": "rise",
  "4606": " port",
  "4607": " hol",
  "4608": "Grandma",
  "4609": " holiday",
  "4610": "icer",
  "4611": "oof",
  "4612": " \u00e2\u0080",
  "4613": " barks",
  "4614": "ason",
  "4615": " throwing",
  "4616": " planes",
  "4617": "Mary",
  "4618": " bend",
  "4619": " Freddy",
  "4620": " shakes",
  "4621": " ended",
  "4622": " infant",
  "4623": " shivering",
  "4624": " kneel",
  "4625": " sunrise",
  "4626": " pushes",
  "4627": " Olive",
  "4628": " thanks",
  "4629": " fresh",
  "4630": " suffer",
  "4631": " points",
  "4632": "imed",
  "4633": "wards",
  "4634": " Pat",
  "4635": " tip",
  "4636": " Speedy",
  "4637": " freeze",
  "4638": " keeping",
  "4639": " Would",
  "4640": " copper",
  "4641": " giggle",
  "4642": " smells",
  "4643": " dear",
  "4644": " enter",
  "4645": " provide",
  "4646": "cast",
  "4647": "chanic",
  "4648": " dishes",
  "4649": " End",
  "4650": "cond",
  "4651": " unh",
  "4652": "Next",
  "4653": " applaud",
  "4654": " heads",
  "4655": " hurricane",
  "4656": " cherry",
  "4657": " mass",
  "4658": " meowed",
  "4659": " menu",
  "4660": " thumb",
  "4661": " second",
  "4662": " brighter",
  "4663": "ince",
  "4664": " sandcast",
  "4665": " mechanic",
  "4666": " wre",
  "4667": " sprayed",
  "4668": " event",
  "4669": " letting",
  "4670": " weapon",
  "4671": " laught",
  "4672": " x",
  "4673": " laughter",
  "4674": " clapping",
  "4675": " feelings",
  "4676": "Will",
  "4677": "icky",
  "4678": " splashing",
  "4679": "ement",
  "4680": " Or",
  "4681": "acked",
  "4682": " castles",
  "4683": " Fl",
  "4684": "cer",
  "4685": " score",
  "4686": " universe",
  "4687": "apping",
  "4688": " navy",
  "4689": " dem",
  "4690": " sticky",
  "4691": "ophie",
  "4692": " row",
  "4693": " rooms",
  "4694": " flies",
  "4695": "igi",
  "4696": " Dave",
  "4697": " unhappy",
  "4698": " greedy",
  "4699": " dare",
  "4700": " alive",
  "4701": " breaks",
  "4702": " ener",
  "4703": " courage",
  "4704": " invit",
  "4705": "Ready",
  "4706": " repeat",
  "4707": " demand",
  "4708": " trusted",
  "4709": "Lisa",
  "4710": " somewhere",
  "4711": "arlie",
  "4712": " prune",
  "4713": "bles",
  "4714": " wreck",
  "4715": " Y",
  "4716": " skill",
  "4717": " examine",
  "4718": " parts",
  "4719": "year",
  "4720": " eaten",
  "4721": "oe",
  "4722": "All",
  "4723": "erc",
  "4724": "enry",
  "4725": " mention",
  "4726": " raining",
  "4727": " Help",
  "4728": "Buddy",
  "4729": " throws",
  "4730": " jogged",
  "4731": "quest",
  "4732": " starting",
  "4733": " rush",
  "4734": " poison",
  "4735": " pirates",
  "4736": "heart",
  "4737": " vac",
  "4738": " content",
  "4739": "Emma",
  "4740": " Kiki",
  "4741": " sigh",
  "4742": " flapped",
  "4743": " drops",
  "4744": " chirp",
  "4745": " sport",
  "4746": "Qu",
  "4747": " sparkled",
  "4748": " Zoomy",
  "4749": " given",
  "4750": " streng",
  "4751": " steel",
  "4752": "Ann",
  "4753": " bumped",
  "4754": " yawned",
  "4755": " stud",
  "4756": " request",
  "4757": " scold",
  "4758": " myself",
  "4759": " strength",
  "4760": " shrugged",
  "4761": "Mark",
  "4762": " coats",
  "4763": " punish",
  "4764": " equ",
  "4765": " snugg",
  "4766": " university",
  "4767": " paid",
  "4768": " Johnny",
  "4769": " pigs",
  "4770": " scratch",
  "4771": " toe",
  "4772": " exerc",
  "4773": " tracks",
  "4774": " upstairs",
  "4775": " prayed",
  "4776": " crossed",
  "4777": " squeezed",
  "4778": " flood",
  "4779": " impressed",
  "4780": " bouncing",
  "4781": " Ru",
  "4782": "Alice",
  "4783": " rabbits",
  "4784": " badly",
  "4785": "ges",
  "4786": "..",
  "4787": " leather",
  "4788": " warn",
  "4789": " expect",
  "4790": " news",
  "4791": " tide",
  "4792": " Ted",
  "4793": " minute",
  "4794": " bears",
  "4795": " claws",
  "4796": " buzz",
  "4797": " sweetheart",
  "4798": " Sm",
  "4799": " nation",
  "4800": "yth",
  "4801": "Sh",
  "4802": "ythm",
  "4803": " hist",
  "4804": " vacation",
  "4805": " heat",
  "4806": " strawberries",
  "4807": " observe",
  "4808": " explored",
  "4809": " settle",
  "4810": " sandcastle",
  "4811": " yawn",
  "4812": " history",
  "4813": " Lilly",
  "4814": " Lola",
  "4815": "mare",
  "4816": " Mummy",
  "4817": " Sque",
  "4818": "ially",
  "4819": "inking",
  "4820": " believed",
  "4821": " horses",
  "4822": "Daddy",
  "4823": " Hoppy",
  "4824": " checked",
  "4825": " Mandy",
  "4826": " network",
  "4827": " tour",
  "4828": " cheek",
  "4829": " Under",
  "4830": " offer",
  "4831": " easily",
  "4832": " placed",
  "4833": "spec",
  "4834": " spots",
  "4835": " snowball",
  "4836": "ween",
  "4837": "men",
  "4838": " energy",
  "4839": " Bee",
  "4840": " imagination",
  "4841": " blueberry",
  "4842": " between",
  "4843": "otten",
  "4844": "specially",
  "4845": " Gigi",
  "4846": "izes",
  "4847": " daisy",
  "4848": " waving",
  "4849": "reeze",
  "4850": "reat",
  "4851": " vroom",
  "4852": " soak",
  "4853": " rhythm",
  "4854": " safari",
  "4855": " massage",
  "4856": " stomach",
  "4857": " baking",
  "4858": " nightmare",
  "4859": "quake",
  "4860": " insisted",
  "4861": " blowing",
  "4862": " entered",
  "4863": "Before",
  "4864": " stair",
  "4865": " palm",
  "4866": " beauty",
  "4867": " twisted",
  "4868": " bother",
  "4869": " writing",
  "4870": " prunes",
  "4871": " scoop",
  "4872": " brain",
  "4873": " ing",
  "4874": "ipment",
  "4875": " poppy",
  "4876": " hills",
  "4877": "noon",
  "4878": " afternoon",
  "4879": " especially",
  "4880": " equipment",
  "4881": "hest",
  "4882": " sir",
  "4883": " See",
  "4884": " pad",
  "4885": " Fox",
  "4886": " ingred",
  "4887": " calls",
  "4888": " ingredient",
  "4889": " earthquake",
  "4890": " ignored",
  "4891": " Snowy",
  "4892": " burned",
  "4893": " nobody",
  "4894": "mble",
  "4895": " sty",
  "4896": "apa",
  "4897": " sew",
  "4898": " tug",
  "4899": "isty",
  "4900": " hearts",
  "4901": "xygen",
  "4902": " lear",
  "4903": " learnt",
  "4904": " lemonade",
  "4905": " increase",
  "4906": "illie",
  "4907": "Jenny",
  "4908": " gaz",
  "4909": " backpack",
  "4910": " mailman",
  "4911": " pedal",
  "4912": " whistled",
  "4913": " Sk",
  "4914": "Fred",
  "4915": " shopkeeper",
  "4916": "ffic",
  "4917": " permit",
  "4918": " tremble",
  "4919": " yucky",
  "4920": "anges",
  "4921": " moves",
  "4922": " introduce",
  "4923": " lemons",
  "4924": " crash",
  "4925": " beans",
  "4926": " floated",
  "4927": "edn",
  "4928": "ednesday",
  "4929": "ittens",
  "4930": "Welcome",
  "4931": " planned",
  "4932": " strike",
  "4933": " traffic",
  "4934": " include",
  "4935": " slap",
  "4936": " Lucky",
  "4937": " racing",
  "4938": "resses",
  "4939": " wisdom",
  "4940": " pur",
  "4941": " wags",
  "4942": " Finny",
  "4943": "laimed",
  "4944": " George",
  "4945": " luck",
  "4946": " following",
  "4947": " price",
  "4948": "ecting",
  "4949": " mama",
  "4950": " pitch",
  "4951": " below",
  "4952": " Elly",
  "4953": " Have",
  "4954": "Le",
  "4955": " weight",
  "4956": " exclaimed",
  "4957": "house",
  "4958": " buried",
  "4959": " comf",
  "4960": " follows",
  "4961": " ingredients",
  "4962": " recognize",
  "4963": " furt",
  "4964": "tain",
  "4965": " candles",
  "4966": " marbles",
  "4967": "Mimi",
  "4968": "riage",
  "4969": "unday",
  "4970": "emember",
  "4971": "eration",
  "4972": " Alex",
  "4973": " Wednesday",
  "4974": " apart",
  "4975": " growled",
  "4976": "uct",
  "4977": " Su",
  "4978": "ores",
  "4979": " conf",
  "4980": " folded",
  "4981": " hopes",
  "4982": " teaching",
  "4983": " closely",
  "4984": " Finn",
  "4985": " Who",
  "4986": " heel",
  "4987": " Sunday",
  "4988": " encourage",
  "4989": " Owl",
  "4990": " Paul",
  "4991": " zigzag",
  "4992": " pulling",
  "4993": " digg",
  "4994": " bouncy",
  "4995": " further",
  "4996": " chewed",
  "4997": " digging",
  "4998": " winning",
  "4999": "With",
  "5000": "Woof",
  "5001": " dresses",
  "5002": " image",
  "5003": "rec",
  "5004": "cery",
  "5005": " shouting",
  "5006": " grocery",
  "5007": " twisty",
  "5008": " peanuts",
  "5009": " puzzles",
  "5010": "bbing",
  "5011": " Dog",
  "5012": " scrat",
  "5013": "look",
  "5014": " chores",
  "5015": " whisper",
  "5016": " Is",
  "5017": " Froggy",
  "5018": " spike",
  "5019": " cape",
  "5020": " snail",
  "5021": " acorns",
  "5022": " worms",
  "5023": "hood",
  "5024": " deeper",
  "5025": " urge",
  "5026": "ifi",
  "5027": " exper",
  "5028": " Whenever",
  "5029": " Squeaky",
  "5030": " Tilly",
  "5031": " Grace",
  "5032": " planted",
  "5033": " attention",
  "5034": "ecture",
  "5035": " exercise",
  "5036": " Danny",
  "5037": " cub",
  "5038": " operation",
  "5039": " underground",
  "5040": " hon",
  "5041": " agre",
  "5042": " quite",
  "5043": " creatures",
  "5044": " simp",
  "5045": "Everyone",
  "5046": " struggle",
  "5047": "oral",
  "5048": " Mittens",
  "5049": " blood",
  "5050": "ddy",
  "5051": " lecture",
  "5052": " washing",
  "5053": " hurting",
  "5054": " gifts",
  "5055": " vanished",
  "5056": " dressed",
  "5057": " invitation",
  "5058": " solved",
  "5059": " licks",
  "5060": " Sharing",
  "5061": " snuggled",
  "5062": "ippy",
  "5063": " ble",
  "5064": " marriage",
  "5065": " quietly",
  "5066": "gie",
  "5067": " warning",
  "5068": " jazz",
  "5069": " breathe",
  "5070": "reci",
  "5071": " elephants",
  "5072": " sizes",
  "5073": " dried",
  "5074": " fallen",
  "5075": " landscape",
  "5076": "ories",
  "5077": " sprink",
  "5078": " neighbour",
  "5079": " mice",
  "5080": "uesday",
  "5081": " appreci",
  "5082": " Sophie",
  "5083": " Joey",
  "5084": " \u00e2\u0080\u0093",
  "5085": " eagerly",
  "5086": " sailing",
  "5087": " Coco",
  "5088": " paused",
  "5089": "ips",
  "5090": " counter",
  "5091": " Good",
  "5092": " Bounce",
  "5093": " Penny",
  "5094": " worth",
  "5095": "looking",
  "5096": " Rock",
  "5097": " oxygen",
  "5098": "Because",
  "5099": " release",
  "5100": " shined",
  "5101": "Not",
  "5102": "pted",
  "5103": " reaches",
  "5104": " balan",
  "5105": " Zara",
  "5106": " oh",
  "5107": "isses",
  "5108": " kisses",
  "5109": " style",
  "5110": " bricks",
  "5111": " glo",
  "5112": " plays",
  "5113": " Tuesday",
  "5114": " ideas",
  "5115": "sed",
  "5116": " inst",
  "5117": " wob",
  "5118": " fireworks",
  "5119": "Bella",
  "5120": "iggly",
  "5121": "ucked",
  "5122": " seeing",
  "5123": " flap",
  "5124": " accepted",
  "5125": "right",
  "5126": " Pip",
  "5127": " blink",
  "5128": "Today",
  "5129": " Ros",
  "5130": "mm",
  "5131": " tremb",
  "5132": " muddy",
  "5133": "These",
  "5134": " memory",
  "5135": " married",
  "5136": " tomatoes",
  "5137": " Annie",
  "5138": " exit",
  "5139": "ops",
  "5140": " wagging",
  "5141": " fash",
  "5142": " Charlie",
  "5143": "Remy",
  "5144": " wandered",
  "5145": "unately",
  "5146": "ipping",
  "5147": " gloves",
  "5148": " captain",
  "5149": " pillows",
  "5150": " receive",
  "5151": " resp",
  "5152": " Pinky",
  "5153": "raged",
  "5154": " during",
  "5155": " Everything",
  "5156": "etch",
  "5157": " petals",
  "5158": " web",
  "5159": " watered",
  "5160": " Eventually",
  "5161": "ived",
  "5162": " manage",
  "5163": " brings",
  "5164": " pinched",
  "5165": " cakes",
  "5166": " vanish",
  "5167": " fashion",
  "5168": " Bluey",
  "5169": " printer",
  "5170": " destroyed",
  "5171": " treasures",
  "5172": "nce",
  "5173": " allow",
  "5174": "ups",
  "5175": " hadn",
  "5176": " worse",
  "5177": " Fifi",
  "5178": "Surpr",
  "5179": " vel",
  "5180": " hits",
  "5181": " bur",
  "5182": "xu",
  "5183": " velvet",
  "5184": " appear",
  "5185": " disagree",
  "5186": " catching",
  "5187": "do",
  "5188": " Ro",
  "5189": " scattered",
  "5190": " memories",
  "5191": " sorts",
  "5192": " Papa",
  "5193": " hers",
  "5194": " scolded",
  "5195": " oranges",
  "5196": " pears",
  "5197": " signs",
  "5198": " bones",
  "5199": " rang",
  "5200": " seats",
  "5201": " sits",
  "5202": " snapped",
  "5203": " gazed",
  "5204": "uxu",
  "5205": " raised",
  "5206": "Bl",
  "5207": " si",
  "5208": " Maria",
  "5209": " zipped",
  "5210": " pies",
  "5211": " prints",
  "5212": " shot",
  "5213": " sliding",
  "5214": " God",
  "5215": " fro",
  "5216": " easier",
  "5217": " skills",
  "5218": "ssible",
  "5219": " climbs",
  "5220": " twirled",
  "5221": "ccer",
  "5222": " blankets",
  "5223": " forgotten",
  "5224": " baked",
  "5225": "ester",
  "5226": "Yum",
  "5227": " difference",
  "5228": "esterday",
  "5229": " luxu",
  "5230": "orted",
  "5231": " golden",
  "5232": "ising",
  "5233": " Tw",
  "5234": " kitty",
  "5235": " cutting",
  "5236": " season",
  "5237": "aggie",
  "5238": " crow",
  "5239": " nowhere",
  "5240": "ah",
  "5241": " soccer",
  "5242": " dared",
  "5243": " Henry",
  "5244": " bites",
  "5245": " Harry",
  "5246": "anny",
  "5247": " lung",
  "5248": " celebrated",
  "5249": "choo",
  "5250": " straight",
  "5251": "chie",
  "5252": " unlocked",
  "5253": "sters",
  "5254": " sorting",
  "5255": " bleed",
  "5256": " collected",
  "5257": "aped",
  "5258": " welcomed",
  "5259": "ding",
  "5260": " visited",
  "5261": " spoons",
  "5262": " ours",
  "5263": " stitch",
  "5264": " jogging",
  "5265": "Surprise",
  "5266": "medi",
  "5267": " emer",
  "5268": " Spark",
  "5269": "mediately",
  "5270": " isn",
  "5271": " tong",
  "5272": " trave",
  "5273": " winner",
  "5274": "umble",
  "5275": " ruin",
  "5276": " since",
  "5277": " prett",
  "5278": "Ok",
  "5279": "Moral",
  "5280": " Tony",
  "5281": " attached",
  "5282": " weeping",
  "5283": " marching",
  "5284": " luxury",
  "5285": " simple",
  "5286": " Each",
  "5287": " shouldn",
  "5288": " guessed",
  "5289": " zero",
  "5290": " created",
  "5291": " stuffed",
  "5292": " pets",
  "5293": "ction",
  "5294": " famil",
  "5295": " waist",
  "5296": " urged",
  "5297": " bowed",
  "5298": " selling",
  "5299": " floating",
  "5300": "rr",
  "5301": " Smith",
  "5302": " bye",
  "5303": " King",
  "5304": " kingdom",
  "5305": " vict",
  "5306": " olives",
  "5307": " kicking",
  "5308": " Wiggly",
  "5309": " punished",
  "5310": " Liz",
  "5311": " Baby",
  "5312": " toes",
  "5313": "sit",
  "5314": " grant",
  "5315": " muscles",
  "5316": " Rosie",
  "5317": " jewels",
  "5318": " beds",
  "5319": " melted",
  "5320": "Goodbye",
  "5321": " slice",
  "5322": " grin",
  "5323": " understanding",
  "5324": " collection",
  "5325": " tore",
  "5326": " measured",
  "5327": " cras",
  "5328": "aker",
  "5329": " trapped",
  "5330": "iers",
  "5331": "omeday",
  "5332": " lined",
  "5333": "'ve",
  "5334": " acted",
  "5335": " encouraged",
  "5336": "fortunately",
  "5337": "va",
  "5338": " Sandy",
  "5339": " received",
  "5340": " Before",
  "5341": " waffles",
  "5342": " Wally",
  "5343": " west",
  "5344": " meow",
  "5345": "ents",
  "5346": " patterns",
  "5347": "rin",
  "5348": "ino",
  "5349": " brus",
  "5350": "eath",
  "5351": " mouths",
  "5352": "kins",
  "5353": " bang",
  "5354": "ring",
  "5355": " Kate",
  "5356": "Meow",
  "5357": " peaches",
  "5358": " breeze",
  "5359": "aded",
  "5360": "une",
  "5361": " printed",
  "5362": " soldiers",
  "5363": " someday",
  "5364": " potatoes",
  "5365": " pupil",
  "5366": "umes",
  "5367": " Millie",
  "5368": " drinks",
  "5369": " shed",
  "5370": " experience",
  "5371": " Tuna",
  "5372": " presents",
  "5373": " firef",
  "5374": " Ruby",
  "5375": " surround",
  "5376": " none",
  "5377": " voices",
  "5378": "osed",
  "5379": "eep",
  "5380": " drinking",
  "5381": " Uncle",
  "5382": "ishing",
  "5383": " relaxed",
  "5384": " victory",
  "5385": "cus",
  "5386": " breaking",
  "5387": " paints",
  "5388": " hurried",
  "5389": "eve",
  "5390": "ission",
  "5391": " twink",
  "5392": " tongue",
  "5393": " costumes",
  "5394": " flat",
  "5395": " mentioned",
  "5396": " begged",
  "5397": " teasing",
  "5398": " whistling",
  "5399": " fetch",
  "5400": " permission",
  "5401": " disagreed",
  "5402": " sip",
  "5403": " pearl",
  "5404": " six",
  "5405": "akes",
  "5406": " stro",
  "5407": "vest",
  "5408": " These",
  "5409": " appro",
  "5410": " esc",
  "5411": " skipping",
  "5412": " fishing",
  "5413": " May",
  "5414": "Leo",
  "5415": " highest",
  "5416": " pra",
  "5417": " watches",
  "5418": " sorted",
  "5419": " ringing",
  "5420": "ship",
  "5421": " tonight",
  "5422": " Bo",
  "5423": " opin",
  "5424": " lets",
  "5425": "icing",
  "5426": " Qu",
  "5427": " perfectly",
  "5428": " shadows",
  "5429": " immediately",
  "5430": " herbs",
  "5431": " warmth",
  "5432": " spit",
  "5433": " remained",
  "5434": "ther",
  "5435": " Its",
  "5436": "walk",
  "5437": "Bobby",
  "5438": "irring",
  "5439": "Jen",
  "5440": " sneak",
  "5441": " lips",
  "5442": " kneeled",
  "5443": "Blue",
  "5444": " Che",
  "5445": " contest",
  "5446": "utter",
  "5447": " cartoons",
  "5448": " sidewalk",
  "5449": " colours",
  "5450": " stamps",
  "5451": " ago",
  "5452": "Ha",
  "5453": " Boo",
  "5454": " Toto",
  "5455": " Follow",
  "5456": " east",
  "5457": " headed",
  "5458": "oved",
  "5459": "\",",
  "5460": " strang",
  "5461": " fed",
  "5462": " ladyb",
  "5463": " supposed",
  "5464": " lick",
  "5465": " roots",
  "5466": " crunch",
  "5467": " mixing",
  "5468": " works",
  "5469": " decorations",
  "5470": " known",
  "5471": " melting",
  "5472": " emergen",
  "5473": "Mandy",
  "5474": " Ab",
  "5475": " rested",
  "5476": " Suzy",
  "5477": " lines",
  "5478": " Jul",
  "5479": " lily",
  "5480": " instr",
  "5481": " laid",
  "5482": " Gr",
  "5483": " cones",
  "5484": " succeeded",
  "5485": " wiggle",
  "5486": "ety",
  "5487": "sing",
  "5488": " setting",
  "5489": " shock",
  "5490": " Slow",
  "5491": " studied",
  "5492": " strangers",
  "5493": " Rocky",
  "5494": "Really",
  "5495": " twigs",
  "5496": " brid",
  "5497": " theirs",
  "5498": " Dr",
  "5499": " girls",
  "5500": "boo",
  "5501": " screams",
  "5502": "!\",",
  "5503": " lands",
  "5504": " ordered",
  "5505": " moments",
  "5506": " stirring",
  "5507": " fields",
  "5508": " alright",
  "5509": " stealing",
  "5510": "Andy",
  "5511": "ded",
  "5512": " rul",
  "5513": " bravely",
  "5514": " Both",
  "5515": "avid",
  "5516": " mister",
  "5517": "!'",
  "5518": " invest",
  "5519": " scratched",
  "5520": " playtime",
  "5521": " ripped",
  "5522": " investig",
  "5523": " tucked",
  "5524": " burning",
  "5525": " resting",
  "5526": "ishes",
  "5527": " Chicky",
  "5528": " Clara",
  "5529": " bridges",
  "5530": " text",
  "5531": " officer",
  "5532": "please",
  "5533": "Sammy",
  "5534": "Bird",
  "5535": "abies",
  "5536": " settled",
  "5537": " achie",
  "5538": " matched",
  "5539": " texture",
  "5540": "Happy",
  "5541": " turning",
  "5542": " waits",
  "5543": " Sky",
  "5544": "Peter",
  "5545": "ored",
  "5546": " trembling",
  "5547": "isten",
  "5548": " nails",
  "5549": "atie",
  "5550": " Someone",
  "5551": " muffins",
  "5552": "ids",
  "5553": " James",
  "5554": " escaped",
  "5555": " investigate",
  "5556": " piles",
  "5557": " broom",
  "5558": "osity",
  "5559": " ladybug",
  "5560": " sore",
  "5561": " Pepper",
  "5562": " admir",
  "5563": " appreciate",
  "5564": " threat",
  "5565": " babies",
  "5566": " silence",
  "5567": " sisters",
  "5568": " area",
  "5569": " emergency",
  "5570": " dads",
  "5571": "ides",
  "5572": " answers",
  "5573": " pupp",
  "5574": " keys",
  "5575": " chewing",
  "5576": " slapped",
  "5577": " wiz",
  "5578": " importance",
  "5579": " served",
  "5580": "Boo",
  "5581": " Hop",
  "5582": " safety",
  "5583": "izing",
  "5584": "Bu",
  "5585": "Would",
  "5586": " sparkle",
  "5587": " touching",
  "5588": " Later",
  "5589": " soared",
  "5590": "igail",
  "5591": " sings",
  "5592": " hen",
  "5593": "allen",
  "5594": "Ella",
  "5595": "bers",
  "5596": "antly",
  "5597": "Momo",
  "5598": " Dino",
  "5599": " amazement",
  "5600": " keeps",
  "5601": " challen",
  "5602": " hesit",
  "5603": " twin",
  "5604": " revealed",
  "5605": "achel",
  "5606": "anna",
  "5607": " dire",
  "5608": " item",
  "5609": " soaked",
  "5610": "zing",
  "5611": " writ",
  "5612": " foods",
  "5613": " dinosaurs",
  "5614": " rides",
  "5615": " recorded",
  "5616": " tickle",
  "5617": " inch",
  "5618": " Zigzag",
  "5619": " Me",
  "5620": " wizard",
  "5621": " vet",
  "5622": " trips",
  "5623": " An",
  "5624": " glowed",
  "5625": " Frog",
  "5626": "Mmm",
  "5627": " beamed",
  "5628": " hi",
  "5629": " quack",
  "5630": " curled",
  "5631": " hated",
  "5632": " wink",
  "5633": " shopping",
  "5634": " eats",
  "5635": " Bug",
  "5636": "Eventually",
  "5637": " praised",
  "5638": " wooden",
  "5639": " bringing",
  "5640": " mittens",
  "5641": " studying",
  "5642": " guy",
  "5643": " brushes",
  "5644": " spaceship",
  "5645": " crawling",
  "5646": " gust",
  "5647": " Something",
  "5648": "Cat",
  "5649": " ruler",
  "5650": " flav",
  "5651": " downstairs",
  "5652": " shooting",
  "5653": " napping",
  "5654": " tastes",
  "5655": " marks",
  "5656": " sprinkles",
  "5657": " cuddled",
  "5658": " dot",
  "5659": "hello",
  "5660": " fut",
  "5661": "plash",
  "5662": "ales",
  "5663": "aved",
  "5664": " future",
  "5665": " monsters",
  "5666": " collecting",
  "5667": " measuring",
  "5668": " Happy",
  "5669": " families",
  "5670": "'.",
  "5671": " First",
  "5672": " Out",
  "5673": " Mo",
  "5674": " thrill",
  "5675": " oat",
  "5676": "irts",
  "5677": " result",
  "5678": " Rabbit",
  "5679": " approached",
  "5680": "Jake",
  "5681": "act",
  "5682": " crunchy",
  "5683": "Un",
  "5684": " remem",
  "5685": " bleeding",
  "5686": " remembers",
  "5687": " beat",
  "5688": " nicer",
  "5689": " sneaky",
  "5690": " disturbed",
  "5691": " leader",
  "5692": " scaring",
  "5693": "Or",
  "5694": " peel",
  "5695": "hind",
  "5696": " Hope",
  "5697": " firemen",
  "5698": " Star",
  "5699": " neighborhood",
  "5700": " grey",
  "5701": " Not",
  "5702": " motion",
  "5703": " noon",
  "5704": " possible",
  "5705": "Emily",
  "5706": "Somet",
  "5707": " apologized",
  "5708": " weighed",
  "5709": " Did",
  "5710": "ues",
  "5711": " tickets",
  "5712": " naps",
  "5713": "Cl",
  "5714": " loose",
  "5715": " pride",
  "5716": " youth",
  "5717": " swims",
  "5718": "ped",
  "5719": " strings",
  "5720": " recognized",
  "5721": " siren",
  "5722": " poking",
  "5723": "fied",
  "5724": " Ho",
  "5725": "cious",
  "5726": "ha",
  "5727": " tricked",
  "5728": "elvet",
  "5729": " gained",
  "5730": " wonders",
  "5731": " crashed",
  "5732": " wanting",
  "5733": " obe",
  "5734": " seesaw",
  "5735": " worker",
  "5736": "unnies",
  "5737": "ls",
  "5738": " draws",
  "5739": "oming",
  "5740": " scooped",
  "5741": ".'",
  "5742": " zooming",
  "5743": " opinion",
  "5744": " yelling",
  "5745": " prepared",
  "5746": " grinned",
  "5747": " Slowly",
  "5748": " awe",
  "5749": " doggy",
  "5750": " poems",
  "5751": " Beep",
  "5752": " acting",
  "5753": " happiest",
  "5754": " chef",
  "5755": " sneaked",
  "5756": " respons",
  "5757": " Always",
  "5758": " eff",
  "5759": " Lizzy",
  "5760": " bunnies",
  "5761": " owned",
  "5762": " anytime",
  "5763": " struck",
  "5764": " pedals",
  "5765": " knelt",
  "5766": "oys",
  "5767": "Ollie",
  "5768": "ena",
  "5769": " secrets",
  "5770": " pause",
  "5771": " decorated",
  "5772": " horns",
  "5773": " agreement",
  "5774": " Squ",
  "5775": "ided",
  "5776": " frost",
  "5777": " tallest",
  "5778": " obey",
  "5779": "Remember",
  "5780": "riends",
  "5781": "ogo",
  "5782": " Stop",
  "5783": "Have",
  "5784": " decides",
  "5785": " Once",
  "5786": " behaved",
  "5787": " tugged",
  "5788": " sides",
  "5789": " woof",
  "5790": "lier",
  "5791": " slim",
  "5792": "zen",
  "5793": " goodnight",
  "5794": " keeper",
  "5795": " chirped",
  "5796": " sparkling",
  "5797": " precious",
  "5798": "mother",
  "5799": "ien",
  "5800": " repeated",
  "5801": "Tr",
  "5802": " claps",
  "5803": " contain",
  "5804": " snowballs",
  "5805": "affes",
  "5806": "indy",
  "5807": "ud",
  "5808": "rs",
  "5809": " Ray",
  "5810": " ourselves",
  "5811": "allow",
  "5812": " giraffes",
  "5813": " balancing",
  "5814": " kindly",
  "5815": " spending",
  "5816": " writes",
  "5817": "ays",
  "5818": "ppers",
  "5819": " Like",
  "5820": " prop",
  "5821": "omas",
  "5822": " hissed",
  "5823": " frozen",
  "5824": "First",
  "5825": " frosting",
  "5826": " effort",
  "5827": " buzzing",
  "5828": " struggled",
  "5829": " Steve",
  "5830": " admiring",
  "5831": " rele",
  "5832": "iggy",
  "5833": " Velvet",
  "5834": " sweeties",
  "5835": " slimy",
  "5836": " brushed",
  "5837": " bloomed",
  "5838": "Susie",
  "5839": " Am",
  "5840": " polished",
  "5841": " Zoe",
  "5842": "arth",
  "5843": "anted",
  "5844": " comfy",
  "5845": " boo",
  "5846": " staying",
  "5847": " rubbing",
  "5848": " pockets",
  "5849": " rocking",
  "5850": "Ducky",
  "5851": " thrilled",
  "5852": " beside",
  "5853": " comple",
  "5854": " Aunt",
  "5855": " Maggie",
  "5856": "Ah",
  "5857": " eight",
  "5858": " machines",
  "5859": "isdom",
  "5860": "urry",
  "5861": " earlier",
  "5862": " seems",
  "5863": " yesterday",
  "5864": " rust",
  "5865": " Keep",
  "5866": " traveled",
  "5867": "Sp",
  "5868": " folding",
  "5869": " boom",
  "5870": " cracked",
  "5871": " hugging",
  "5872": "ities",
  "5873": " Stitch",
  "5874": " radishes",
  "5875": " loving",
  "5876": " opening",
  "5877": " circus",
  "5878": " curiosity",
  "5879": " surrounded",
  "5880": " Rachel",
  "5881": " demanded",
  "5882": " spraying",
  "5883": "oh",
  "5884": " paintings",
  "5885": " Green",
  "5886": "amie",
  "5887": " removed",
  "5888": " gaze",
  "5889": " honk",
  "5890": " pebbles",
  "5891": " hardly",
  "5892": " zookeeper",
  "5893": " catches",
  "5894": " sting",
  "5895": "edding",
  "5896": " powers",
  "5897": " stripes",
  "5898": " Pippa",
  "5899": " loaded",
  "5900": "Sometimes",
  "5901": " pots",
  "5902": " splashes",
  "5903": " petted",
  "5904": " David",
  "5905": " matching",
  "5906": "Thanks",
  "5907": " belly",
  "5908": " stare",
  "5909": " toss",
  "5910": "Yummy",
  "5911": "ibb",
  "5912": " apologize",
  "5913": " whatever",
  "5914": " comforted",
  "5915": " rocked",
  "5916": " Bree",
  "5917": " decision",
  "5918": " ribbons",
  "5919": "ern",
  "5920": " Birdie",
  "5921": " Joy",
  "5922": " struggling",
  "5923": " deser",
  "5924": " expected",
  "5925": " steep",
  "5926": " protected",
  "5927": "wh",
  "5928": " neighbors",
  "5929": " chases",
  "5930": " smiley",
  "5931": "During",
  "5932": " granted",
  "5933": " crumb",
  "5934": " Mat",
  "5935": " purred",
  "5936": " diving",
  "5937": " sadness",
  "5938": "Whiskers",
  "5939": " organizing",
  "5940": "lowers",
  "5941": " eagle",
  "5942": " heroes",
  "5943": " dipped",
  "5944": " sunlight",
  "5945": " lied",
  "5946": " Frank",
  "5947": " pastels",
  "5948": "Ex",
  "5949": " roads",
  "5950": " safer",
  "5951": " scru",
  "5952": " Milly",
  "5953": " argued",
  "5954": " Water",
  "5955": " goals",
  "5956": " discovery",
  "5957": " Abigail",
  "5958": " peered",
  "5959": " villag",
  "5960": "Ro",
  "5961": " Bouncy",
  "5962": "use",
  "5963": "ana",
  "5964": " tim",
  "5965": "loe",
  "5966": " dragons",
  "5967": " buckets",
  "5968": " buildings",
  "5969": " parties",
  "5970": " beard",
  "5971": " wedding",
  "5972": "Rex",
  "5973": " flutter",
  "5974": " planets",
  "5975": " Robby",
  "5976": " ann",
  "5977": " polishing",
  "5978": " fasc",
  "5979": "ira",
  "5980": " released",
  "5981": " Chr",
  "5982": " crabs",
  "5983": " Gogo",
  "5984": " Watch",
  "5985": " tails",
  "5986": " sausages",
  "5987": " Ju",
  "5988": " argu",
  "5989": " bottles",
  "5990": " contro",
  "5991": " wiggled",
  "5992": " teased",
  "5993": "uke",
  "5994": " arguing",
  "5995": " sled",
  "5996": " dragged",
  "5997": " Car",
  "5998": " padd",
  "5999": " roaring",
  "6000": " clearing",
  "6001": " movies",
  "6002": " shirts",
  "6003": " gathering",
  "6004": " airpl",
  "6005": " wid",
  "6006": "joyed",
  "6007": " spiders",
  "6008": " teaches",
  "6009": " limes",
  "6010": " Remember",
  "6011": " Dare",
  "6012": " overjoyed",
  "6013": " actually",
  "6014": " sighs",
  "6015": " continue",
  "6016": " cuddle",
  "6017": " soaring",
  "6018": " Jess",
  "6019": " smallest",
  "6020": " drives",
  "6021": " rip",
  "6022": " sparkles",
  "6023": " cubes",
  "6024": " situ",
  "6025": " refres",
  "6026": " Olly",
  "6027": " challenge",
  "6028": " talent",
  "6029": " grandmother",
  "6030": " Splash",
  "6031": " pouring",
  "6032": "umm",
  "6033": " fascin",
  "6034": " pretends",
  "6035": " cuts",
  "6036": " bank",
  "6037": " peppers",
  "6038": " quarreling",
  "6039": " mane",
  "6040": " shivered",
  "6041": "ten",
  "6042": " dusty",
  "6043": "ley",
  "6044": " villagers",
  "6045": " wondering",
  "6046": " stretching",
  "6047": "ib",
  "6048": "njoy",
  "6049": " weeks",
  "6050": " darker",
  "6051": " wherever",
  "6052": "Tiny",
  "6053": "jam",
  "6054": " X",
  "6055": "sses",
  "6056": " onwards",
  "6057": " rings",
  "6058": " Katie",
  "6059": " united",
  "6060": "Achoo",
  "6061": " bead",
  "6062": " Being",
  "6063": " Everyday",
  "6064": " prettiest",
  "6065": " caut",
  "6066": "Johnny",
  "6067": " realize",
  "6068": " company",
  "6069": " penguins",
  "6070": "annah",
  "6071": "Luna",
  "6072": "Fr",
  "6073": " Spring",
  "6074": " bedtime",
  "6075": " Wisdom",
  "6076": " completed",
  "6077": " Leave",
  "6078": " knights",
  "6079": "\u00e2\u0080\u009d.",
  "6080": " Je",
  "6081": " flags",
  "6082": " Because",
  "6083": " Prin",
  "6084": " playroom",
  "6085": " actions",
  "6086": " Zero",
  "6087": " learns",
  "6088": " gotten",
  "6089": " patience",
  "6090": "dam",
  "6091": "inda",
  "6092": " shrug",
  "6093": " kites",
  "6094": " responsible",
  "6095": " fears",
  "6096": " destination",
  "6097": " reply",
  "6098": " wires",
  "6099": " dam",
  "6100": " wrist",
  "6101": "aws",
  "6102": " packing",
  "6103": " applauded",
  "6104": " fault",
  "6105": " mountains",
  "6106": " scrubbed",
  "6107": " ma",
  "6108": " Ava",
  "6109": " crept",
  "6110": "Uh",
  "6111": " Earth",
  "6112": " satis",
  "6113": " phot",
  "6114": " third",
  "6115": " pencils",
  "6116": " wins",
  "6117": " sticking",
  "6118": " baker",
  "6119": " visiting",
  "6120": " wound",
  "6121": " peas",
  "6122": " uses",
  "6123": " reminder",
  "6124": " control",
  "6125": "Grandpa",
  "6126": "ashed",
  "6127": " joking",
  "6128": " awake",
  "6129": " instruct",
  "6130": " Put",
  "6131": " healed",
  "6132": " staring",
  "6133": " hitting",
  "6134": " Fish",
  "6135": " screaming",
  "6136": " begin",
  "6137": "Rob",
  "6138": "uckily",
  "6139": " Friends",
  "6140": " Moo",
  "6141": "icorn",
  "6142": " helmets",
  "6143": "enty",
  "6144": " unicorn",
  "6145": "ler",
  "6146": "seek",
  "6147": " towels",
  "6148": " Lou",
  "6149": "Silly",
  "6150": " chips",
  "6151": " creation",
  "6152": "ica",
  "6153": " wasted",
  "6154": "bie",
  "6155": " Behind",
  "6156": "Mar",
  "6157": " masks",
  "6158": "laire",
  "6159": " forgi",
  "6160": " items",
  "6161": " firefight",
  "6162": " lollipops",
  "6163": " outdo",
  "6164": "Watch",
  "6165": " heav",
  "6166": " guns",
  "6167": " Hippy",
  "6168": " died",
  "6169": " seas",
  "6170": " glitter",
  "6171": "uddles",
  "6172": " arrive",
  "6173": " stole",
  "6174": " weren",
  "6175": " scales",
  "6176": " accom",
  "6177": " perched",
  "6178": " achieve",
  "6179": " logs",
  "6180": " practicing",
  "6181": "die",
  "6182": "ining",
  "6183": " whose",
  "6184": " instructions",
  "6185": " pumpkins",
  "6186": "Stay",
  "6187": " batteries",
  "6188": " swoop",
  "6189": " agrees",
  "6190": " candies",
  "6191": " project",
  "6192": " snakes",
  "6193": " chirping",
  "6194": "Benny",
  "6195": " shelves",
  "6196": " protecting",
  "6197": " exact",
  "6198": " parked",
  "6199": " Cra",
  "6200": " patiently",
  "6201": " activ",
  "6202": " shoulders",
  "6203": " videos",
  "6204": " blows",
  "6205": " promises",
  "6206": "Fo",
  "6207": "hee",
  "6208": " dent",
  "6209": "go",
  "6210": "usan",
  "6211": "ners",
  "6212": "uest",
  "6213": " airplane",
  "6214": " examined",
  "6215": "jamas",
  "6216": "Doggy",
  "6217": " roses",
  "6218": " accompl",
  "6219": " tasks",
  "6220": "Dave",
  "6221": " Hoot",
  "6222": "Poppy",
  "6223": " Bop",
  "6224": "Bunny",
  "6225": " beads",
  "6226": " bowls",
  "6227": " crumbs",
  "6228": "zes",
  "6229": " listens",
  "6230": " Love",
  "6231": " Brownie",
  "6232": " Catty",
  "6233": "Pete",
  "6234": " Ol",
  "6235": " bunch",
  "6236": " cough",
  "6237": " dolphins",
  "6238": " guest",
  "6239": " requested",
  "6240": "cakes",
  "6241": " remote",
  "6242": " improved",
  "6243": " brand",
  "6244": " reaching",
  "6245": "anta",
  "6246": " Jan",
  "6247": " alien",
  "6248": "ayla",
  "6249": " Bye",
  "6250": "irm",
  "6251": " Sun",
  "6252": " copy",
  "6253": " cheering",
  "6254": " photos",
  "6255": " Chew",
  "6256": " Julie",
  "6257": "Bad",
  "6258": " Blink",
  "6259": "Time",
  "6260": " cans",
  "6261": " Cuddles",
  "6262": " timer",
  "6263": " By",
  "6264": " replaced",
  "6265": " workers",
  "6266": "athy",
  "6267": " stern",
  "6268": " Enjoy",
  "6269": " neither",
  "6270": "aster",
  "6271": "Mike",
  "6272": " misses",
  "6273": " passing",
  "6274": " curtains",
  "6275": " confl",
  "6276": "Chirpy",
  "6277": " rainbows",
  "6278": " rubs",
  "6279": "George",
  "6280": " rolls",
  "6281": "uctantly",
  "6282": " patted",
  "6283": " pajamas",
  "6284": "ilo",
  "6285": " outdoors",
  "6286": "esome",
  "6287": " complaining",
  "6288": "dies",
  "6289": "  ",
  "6290": " Squirrel",
  "6291": "Lola",
  "6292": "Run",
  "6293": " puppet",
  "6294": " Princess",
  "6295": " beneath",
  "6296": " closes",
  "6297": " drums",
  "6298": " lap",
  "6299": " tune",
  "6300": " Beth",
  "6301": " Mouse",
  "6302": " filling",
  "6303": "Miss",
  "6304": " refuse",
  "6305": "angled",
  "6306": " Sorry",
  "6307": " sweat",
  "6308": " faced",
  "6309": "...",
  "6310": " seven",
  "6311": " balanced",
  "6312": " rescued",
  "6313": " quacked",
  "6314": "bl",
  "6315": "neath",
  "6316": " Abby",
  "6317": "Paul",
  "6318": "istle",
  "6319": " awesome",
  "6320": " 1",
  "6321": " However",
  "6322": " mission",
  "6323": " cautious",
  "6324": " conflict",
  "6325": " guys",
  "6326": " cause",
  "6327": " observed",
  "6328": " vent",
  "6329": " Thomas",
  "6330": " introduc",
  "6331": " pastries",
  "6332": "nie",
  "6333": " Our",
  "6334": " doctors",
  "6335": " exactly",
  "6336": " rule",
  "6337": " becoming",
  "6338": " mes",
  "6339": " policeman",
  "6340": " rockets",
  "6341": "uly",
  "6342": " Yes",
  "6343": "you",
  "6344": " Dot",
  "6345": " fairies",
  "6346": "lay",
  "6347": " pout",
  "6348": "An",
  "6349": " insist",
  "6350": " blooming",
  "6351": " tractor",
  "6352": " farther",
  "6353": " Sad",
  "6354": "avi",
  "6355": "Oops",
  "6356": "Great",
  "6357": " included",
  "6358": " remembering",
  "6359": " curly",
  "6360": "Fine",
  "6361": "Zoom",
  "6362": " teamwork",
  "6363": "zie",
  "6364": " fascinated",
  "6365": " slam",
  "6366": " wobbled",
  "6367": " truly",
  "6368": " helpers",
  "6369": " sights",
  "6370": " paddle",
  "6371": " firm",
  "6372": " stumble",
  "6373": " Jilly",
  "6374": "Henry",
  "6375": " caused",
  "6376": "acob",
  "6377": " prayer",
  "6378": " recording",
  "6379": " spong",
  "6380": "kelly",
  "6381": "ais",
  "6382": " starfish",
  "6383": " traded",
  "6384": " supplies",
  "6385": " pointy",
  "6386": " thro",
  "6387": " inviting",
  "6388": " situation",
  "6389": "eah",
  "6390": " everyday",
  "6391": " neighbourhood",
  "6392": "gers",
  "6393": " ornaments",
  "6394": " Ally",
  "6395": " valued",
  "6396": "inkle",
  "6397": " adding",
  "6398": "Some",
  "6399": " reluctantly",
  "6400": " dots",
  "6401": " stays",
  "6402": " bare",
  "6403": " prettier",
  "6404": " tables",
  "6405": " desert",
  "6406": " snowmen",
  "6407": " steady",
  "6408": " minerals",
  "6409": "araway",
  "6410": " thorn",
  "6411": "ody",
  "6412": " ast",
  "6413": " faraway",
  "6414": " glasses",
  "6415": " Foxy",
  "6416": " Get",
  "6417": " Sure",
  "6418": " Two",
  "6419": " Welcome",
  "6420": " swooped",
  "6421": " unf",
  "6422": " forks",
  "6423": " usual",
  "6424": " usually",
  "6425": "Polly",
  "6426": " Jamie",
  "6427": " dar",
  "6428": " sneezing",
  "6429": " winked",
  "6430": " solut",
  "6431": " loading",
  "6432": " sponge",
  "6433": " Quick",
  "6434": " insects",
  "6435": " pans",
  "6436": "Dog",
  "6437": " Santa",
  "6438": " sobbed",
  "6439": " growling",
  "6440": "James",
  "6441": "sm",
  "6442": " Chloe",
  "6443": " throat",
  "6444": "arter",
  "6445": " Josh",
  "6446": " noses",
  "6447": " Dizzy",
  "6448": " confident",
  "6449": " scarves",
  "6450": " Want",
  "6451": " yourselves",
  "6452": "agull",
  "6453": " homework",
  "6454": " Stay",
  "6455": " superheroes",
  "6456": "Joey",
  "6457": " smarter",
  "6458": " windy",
  "6459": " librarian",
  "6460": " Kids",
  "6461": "Tina",
  "6462": " gems",
  "6463": "Days",
  "6464": "ora",
  "6465": " underneath",
  "6466": " kicks",
  "6467": " knowled",
  "6468": " itchy",
  "6469": " jackets",
  "6470": " knowledge",
  "6471": " For",
  "6472": " Skelly",
  "6473": " surface",
  "6474": " untie",
  "6475": " comm",
  "6476": " Duck",
  "6477": " princesses",
  "6478": "...\"",
  "6479": "Those",
  "6480": "Hold",
  "6481": "eed",
  "6482": "ido",
  "6483": "Yeah",
  "6484": "coon",
  "6485": " squares",
  "6486": " Henny",
  "6487": " giggling",
  "6488": " warnings",
  "6489": " reads",
  "6490": "iar",
  "6491": "vin",
  "6492": " choo",
  "6493": "Our",
  "6494": " younger",
  "6495": " clowns",
  "6496": " Mix",
  "6497": "Toby",
  "6498": " ropes",
  "6499": "son",
  "6500": " biting",
  "6501": " crowd",
  "6502": " Unfortunately",
  "6503": "Danny",
  "6504": "pite",
  "6505": " seagull",
  "6506": "True",
  "6507": " paddled",
  "6508": " wears",
  "6509": " delivered",
  "6510": " Mon",
  "6511": " buzzed",
  "6512": " onions",
  "6513": " twirl",
  "6514": " complained",
  "6515": " bumpy",
  "6516": " stem",
  "6517": "Ew",
  "6518": " piggy",
  "6519": "Mrs",
  "6520": " Anne",
  "6521": " direction",
  "6522": " dived",
  "6523": "ouch",
  "6524": "Roar",
  "6525": " startled",
  "6526": " tangled",
  "6527": "ults",
  "6528": " leaning",
  "6529": " Ant",
  "6530": "bbie",
  "6531": " Jones",
  "6532": " badge",
  "6533": " Po",
  "6534": " unp",
  "6535": "Grace",
  "6536": " deal",
  "6537": "though",
  "6538": "Annie",
  "6539": " vowed",
  "6540": " napkins",
  "6541": " risk",
  "6542": " tickled",
  "6543": "anes",
  "6544": " covers",
  "6545": " pec",
  "6546": "Shh",
  "6547": " yells",
  "6548": " satisfied",
  "6549": "int",
  "6550": " knocks",
  "6551": " refreshed",
  "6552": " Sc",
  "6553": "tuce",
  "6554": "cuse",
  "6555": " cous",
  "6556": " arrows",
  "6557": "Maggie",
  "6558": " Whistle",
  "6559": " wipes",
  "6560": "Pe",
  "6561": " speaking",
  "6562": " guessing",
  "6563": " lettuce",
  "6564": " Quack",
  "6565": "Unfortunately",
  "6566": " Susan",
  "6567": " ripe",
  "6568": " Dodo",
  "6569": " choices",
  "6570": " hides",
  "6571": " Rover",
  "6572": " signed",
  "6573": "Buzz",
  "6574": " slower",
  "6575": " seeker",
  "6576": " introduced",
  "6577": " creating",
  "6578": " singer",
  "6579": " Matt",
  "6580": " cent",
  "6581": " froze",
  "6582": "uggles",
  "6583": " joked",
  "6584": " squeal",
  "6585": " explorers",
  "6586": " toaster",
  "6587": " avo",
  "6588": "anging",
  "6589": " praying",
  "6590": "Sophie",
  "6591": " discovering",
  "6592": " written",
  "6593": " Dara",
  "6594": " provided",
  "6595": " Lion",
  "6596": " refle",
  "6597": "Excuse",
  "6598": " Jeff",
  "6599": " mushrooms",
  "6600": " Paws",
  "6601": " knees",
  "6602": " paying",
  "6603": " hider",
  "6604": "ences",
  "6605": "fit",
  "6606": " Ash",
  "6607": " wandering",
  "6608": " images",
  "6609": "Charlie",
  "6610": " stung",
  "6611": " Wink",
  "6612": " barely",
  "6613": " magnets",
  "6614": " behaving",
  "6615": " tipto",
  "6616": " marked",
  "6617": "?\",",
  "6618": "brush",
  "6619": "rrr",
  "6620": " Dee",
  "6621": " restored",
  "6622": " leading",
  "6623": " chuck",
  "6624": "lled",
  "6625": " greet",
  "6626": " nine",
  "6627": "ados",
  "6628": "Teddy",
  "6629": " bravery",
  "6630": " gears",
  "6631": " Snuggles",
  "6632": " competition",
  "6633": "ky",
  "6634": " outfit",
  "6635": "eal",
  "6636": "oline",
  "6637": " properly",
  "6638": " wishing",
  "6639": " ventured",
  "6640": " chat",
  "6641": " dances",
  "6642": " muscle",
  "6643": "aa",
  "6644": "tle",
  "6645": " pens",
  "6646": " salty",
  "6647": "amb",
  "6648": " Betsy",
  "6649": " Ziggy",
  "6650": " ranger",
  "6651": " deserve",
  "6652": " however",
  "6653": " matters",
  "6654": "sequ",
  "6655": " darkness",
  "6656": " Fu",
  "6657": " burst",
  "6658": " cobwebs",
  "6659": " rainy",
  "6660": " chefs",
  "6661": " ruining",
  "6662": " bak",
  "6663": " blocking",
  "6664": " consequ",
  "6665": "usted",
  "6666": "itely",
  "6667": " scur",
  "6668": "sty",
  "6669": " vines",
  "6670": " fab",
  "6671": " fabric",
  "6672": "abel",
  "6673": " basement",
  "6674": " entire",
  "6675": " least",
  "6676": " performed",
  "6677": " Buggy",
  "6678": "Sn",
  "6679": " scratches",
  "6680": " heavier",
  "6681": " Claire",
  "6682": " mints",
  "6683": " avocados",
  "6684": " twirling",
  "6685": "However",
  "6686": " Linda",
  "6687": "rink",
  "6688": "fl",
  "6689": " losing",
  "6690": " scurried",
  "6691": " Jenna",
  "6692": " sunflowers",
  "6693": " rainco",
  "6694": " swords",
  "6695": "Tweet",
  "6696": " click",
  "6697": " Laser",
  "6698": "agic",
  "6699": " jobs",
  "6700": " silent",
  "6701": " flames",
  "6702": " necklaces",
  "6703": " Luke",
  "6704": " Grumpy",
  "6705": " relief",
  "6706": " rotting",
  "6707": " sewed",
  "6708": " snat",
  "6709": "len",
  "6710": " tricky",
  "6711": "Follow",
  "6712": "Listen",
  "6713": "Jerry",
  "6714": " lighter",
  "6715": "ophia",
  "6716": " Skip",
  "6717": " bows",
  "6718": " exha",
  "6719": " consequences",
  "6720": " solution",
  "6721": "Alex",
  "6722": " Lena",
  "6723": " Pr",
  "6724": " stain",
  "6725": " tires",
  "6726": "Beep",
  "6727": " unpacked",
  "6728": "Ab",
  "6729": " partic",
  "6730": " races",
  "6731": "rance",
  "6732": " bumps",
  "6733": " pins",
  "6734": " wraps",
  "6735": " backed",
  "6736": " decorating",
  "6737": " wow",
  "6738": "aisies",
  "6739": "cher",
  "6740": " dentist",
  "6741": " cautiously",
  "6742": " needles",
  "6743": " purr",
  "6744": " lifting",
  "6745": "izzie",
  "6746": " accomplish",
  "6747": " daisies",
  "6748": " triangles",
  "6749": " annoy",
  "6750": " hesitated",
  "6751": "ept",
  "6752": " Those",
  "6753": " growls",
  "6754": " crackers",
  "6755": "oke",
  "6756": " stomped",
  "6757": " cott",
  "6758": " grabbing",
  "6759": " bodies",
  "6760": " figured",
  "6761": " mater",
  "6762": " Tree",
  "6763": " buying",
  "6764": " Fido",
  "6765": " Rolly",
  "6766": " material",
  "6767": " Adam",
  "6768": " swans",
  "6769": " ties",
  "6770": " gri",
  "6771": "vers",
  "6772": " grows",
  "6773": " \n ",
  "6774": " sweets",
  "6775": " Goodbye",
  "6776": " cheeks",
  "6777": " flavor",
  "6778": " owners",
  "6779": " Cathy",
  "6780": "Big",
  "6781": " El",
  "6782": " Jessie",
  "6783": " suffering",
  "6784": " fact",
  "6785": "vroom",
  "6786": " groups",
  "6787": " forehead",
  "6788": "bly",
  "6789": " lungs",
  "6790": " repa",
  "6791": "Harry",
  "6792": " bakery",
  "6793": " interested",
  "6794": " Milo",
  "6795": " freed",
  "6796": "Lilly",
  "6797": " Nothing",
  "6798": "itches",
  "6799": " chuckled",
  "6800": "For",
  "6801": " conn",
  "6802": " swept",
  "6803": " exhausted",
  "6804": " thud",
  "6805": "?'",
  "6806": " tapped",
  "6807": " twinkling",
  "6808": "Tw",
  "6809": "Ru",
  "6810": " nect",
  "6811": " nectar",
  "6812": "rosty",
  "6813": "elle",
  "6814": " feast",
  "6815": " darling",
  "6816": "indr",
  "6817": " Mad",
  "6818": " worries",
  "6819": " fuzzy",
  "6820": " tunnels",
  "6821": " uns",
  "6822": " Trust",
  "6823": " reason",
  "6824": " repaired",
  "6825": " Ball",
  "6826": " Copper",
  "6827": " activities",
  "6828": " Hannah",
  "6829": " pecked",
  "6830": "lets",
  "6831": " Try",
  "6832": " entrance",
  "6833": " Listen",
  "6834": " meals",
  "6835": " raindr",
  "6836": " completely",
  "6837": " particular",
  "6838": " mailed",
  "6839": " nests",
  "6840": "ctions",
  "6841": " cuddly",
  "6842": " waiter",
  "6843": " sense",
  "6844": " Nana",
  "6845": " colored",
  "6846": " leap",
  "6847": "arky",
  "6848": " peeking",
  "6849": " plenty",
  "6850": "band",
  "6851": "step",
  "6852": " Cara",
  "6853": " slammed",
  "6854": "no",
  "6855": " players",
  "6856": " Birthday",
  "6857": " budge",
  "6858": " month",
  "6859": " Q",
  "6860": " scra",
  "6861": " forgets",
  "6862": " den",
  "6863": " Oliver",
  "6864": " handful",
  "6865": " mer",
  "6866": "ossible",
  "6867": " genie",
  "6868": " Christ",
  "6869": " stool",
  "6870": "iggie",
  "6871": " Pup",
  "6872": " talks",
  "6873": " Suzie",
  "6874": " feeding",
  "6875": " passports",
  "6876": " films",
  "6877": " baths",
  "6878": " impossible",
  "6879": " determination",
  "6880": " printing",
  "6881": "May",
  "6882": " designed",
  "6883": "boat",
  "6884": " buses",
  "6885": " opp",
  "6886": " bars",
  "6887": " suitcase",
  "6888": "lephant",
  "6889": "ueen",
  "6890": " counts",
  "6891": " stolen",
  "6892": " Snap",
  "6893": " spikes",
  "6894": " spreading",
  "6895": " steer",
  "6896": " wiping",
  "6897": " Rain",
  "6898": " lamb",
  "6899": " honked",
  "6900": "etty",
  "6901": " cowb",
  "6902": "Whee",
  "6903": "nies",
  "6904": " separated",
  "6905": "blings",
  "6906": " siblings",
  "6907": " hops",
  "6908": " chop",
  "6909": " Twinkle",
  "6910": " fires",
  "6911": " sewing",
  "6912": " fever",
  "6913": " twinkle",
  "6914": " ty",
  "6915": " camping",
  "6916": " Mira",
  "6917": " lower",
  "6918": " changing",
  "6919": " behavi",
  "6920": "retch",
  "6921": "yes",
  "6922": " Bloom",
  "6923": " celebration",
  "6924": " liqu",
  "6925": "mas",
  "6926": " dollhouse",
  "6927": " squealed",
  "6928": "but",
  "6929": "Sunny",
  "6930": " backward",
  "6931": " age",
  "6932": " snatched",
  "6933": " cash",
  "6934": " twice",
  "6935": "ho",
  "6936": " sway",
  "6937": "lee",
  "6938": "itched",
  "6939": " celebrating",
  "6940": " Peanut",
  "6941": " ache",
  "6942": " shrinking",
  "6943": " kings",
  "6944": "weed",
  "6945": "rious",
  "6946": " kittens",
  "6947": " shops",
  "6948": " Jacob",
  "6949": " Jessica",
  "6950": "Rose",
  "6951": "cope",
  "6952": " Gina",
  "6953": "aura",
  "6954": " hus",
  "6955": " touches",
  "6956": " pancakes",
  "6957": "airy",
  "6958": " avoid",
  "6959": " spat",
  "6960": " Frosty",
  "6961": "rig",
  "6962": " Nina",
  "6963": "hog",
  "6964": " paths",
  "6965": " Hold",
  "6966": "cky",
  "6967": "ives",
  "6968": " calmed",
  "6969": " rotten",
  "6970": " Jon",
  "6971": " dropping",
  "6972": " seaweed",
  "6973": "Sandy",
  "6974": " Mel",
  "6975": " stroked",
  "6976": " twisting",
  "6977": "Pipp",
  "6978": "iles",
  "6979": " untied",
  "6980": " playhouse",
  "6981": "llen",
  "6982": "Millie",
  "6983": "ne",
  "6984": " puppies",
  "6985": " students",
  "6986": "cl",
  "6987": " Re",
  "6988": " astron",
  "6989": " screws",
  "6990": "hi",
  "6991": " somebody",
  "6992": " liquid",
  "6993": "igning",
  "6994": " squish",
  "6995": " wakes",
  "6996": "ammy",
  "6997": " Woof",
  "6998": " astronaut",
  "6999": " bracelets",
  "7000": " thrown",
  "7001": "aren",
  "7002": "immer",
  "7003": " loops",
  "7004": " Other",
  "7005": " plain",
  "7006": " wrapping",
  "7007": "Luckily",
  "7008": " planning",
  "7009": " tramp",
  "7010": " aimed",
  "7011": " skunk",
  "7012": " pennies",
  "7013": " shoo",
  "7014": " dancers",
  "7015": " lifts",
  "7016": " firefly",
  "7017": " sparks",
  "7018": "pen",
  "7019": "Dan",
  "7020": " poster",
  "7021": " Christmas",
  "7022": " cust",
  "7023": "endy",
  "7024": "yan",
  "7025": " objects",
  "7026": " rewarded",
  "7027": " directions",
  "7028": "ingo",
  "7029": "using",
  "7030": " husband",
  "7031": " reflection",
  "7032": "Take",
  "7033": "\u00e2\u0080\u0094",
  "7034": "river",
  "7035": " clues",
  "7036": "uppy",
  "7037": " leads",
  "7038": " increased",
  "7039": " blocked",
  "7040": " rising",
  "7041": " Yesterday",
  "7042": " cousin",
  "7043": " dod",
  "7044": " Without",
  "7045": " forgetting",
  "7046": " custom",
  "7047": "rigued",
  "7048": "Kate",
  "7049": "ude",
  "7050": " beginning",
  "7051": " trampoline",
  "7052": " pouted",
  "7053": " storekeeper",
  "7054": " zebras",
  "7055": " aff",
  "7056": " hedgehog",
  "7057": " Rollie",
  "7058": " borrowed",
  "7059": " \u00e2\u0080\u0098",
  "7060": " snowfl",
  "7061": " countryside",
  "7062": " Jay",
  "7063": " mesmer",
  "7064": "Jump",
  "7065": " vehicles",
  "7066": " instrum",
  "7067": " Kayla",
  "7068": " Mic",
  "7069": " Up",
  "7070": " frowning",
  "7071": "Pat",
  "7072": "ivity",
  "7073": "Under",
  "7074": " marker",
  "7075": " Queen",
  "7076": " bey",
  "7077": " beyond",
  "7078": " presses",
  "7079": " Only",
  "7080": " damage",
  "7081": " Biggie",
  "7082": " Tara",
  "7083": " fart",
  "7084": "ivery",
  "7085": "iece",
  "7086": "jo",
  "7087": " health",
  "7088": " nibb",
  "7089": " slips",
  "7090": " swimsuit",
  "7091": " whispers",
  "7092": " Julia",
  "7093": " flapping",
  "7094": " warmer",
  "7095": "armer",
  "7096": " tiptoed",
  "7097": " regretted",
  "7098": " Robo",
  "7099": " laying",
  "7100": "Zip",
  "7101": "itted",
  "7102": " Fire",
  "7103": " yelp",
  "7104": "ades",
  "7105": " everybody",
  "7106": " glued",
  "7107": " rains",
  "7108": " creations",
  "7109": " hearing",
  "7110": " colder",
  "7111": " swir",
  "7112": "iversity",
  "7113": "ael",
  "7114": " Elephant",
  "7115": " shaped",
  "7116": " fins",
  "7117": " streets",
  "7118": " cushions",
  "7119": " rusty",
  "7120": "Out",
  "7121": " san",
  "7122": " farthest",
  "7123": " Mikey",
  "7124": " creativity",
  "7125": " sale",
  "7126": "Always",
  "7127": "ans",
  "7128": " strongest",
  "7129": " Sparky",
  "7130": " fits",
  "7131": "ibbit",
  "7132": " bells",
  "7133": " Larry",
  "7134": " dollars",
  "7135": " earn",
  "7136": " Chirp",
  "7137": " Moon",
  "7138": " lending",
  "7139": "angle",
  "7140": "iam",
  "7141": " cashier",
  "7142": "eese",
  "7143": " including",
  "7144": "Milly",
  "7145": " Rich",
  "7146": " raincoat",
  "7147": " sank",
  "7148": " sniffs",
  "7149": " stopping",
  "7150": " trembled",
  "7151": " source",
  "7152": "iti",
  "7153": " Missy",
  "7154": "imon",
  "7155": " indeed",
  "7156": " wobbly",
  "7157": "ters",
  "7158": " guests",
  "7159": " single",
  "7160": " recommended",
  "7161": " spells",
  "7162": " accomplishment",
  "7163": " belts",
  "7164": " ends",
  "7165": " surprising",
  "7166": " hopeful",
  "7167": " seasons",
  "7168": " Snowman",
  "7169": " Take",
  "7170": " Els",
  "7171": " plans",
  "7172": "Bear",
  "7173": " encourag",
  "7174": "ichael",
  "7175": " supported",
  "7176": " artist",
  "7177": " suffered",
  "7178": "illed",
  "7179": "stick",
  "7180": " performance",
  "7181": " slowed",
  "7182": "Nina",
  "7183": "eet",
  "7184": " gross",
  "7185": " flavors",
  "7186": " spins",
  "7187": "ertain",
  "7188": "iding",
  "7189": "cho",
  "7190": " labels",
  "7191": "Quack",
  "7192": " delivery",
  "7193": " raindrops",
  "7194": "arac",
  "7195": "uing",
  "7196": " forgiving",
  "7197": " raccoon",
  "7198": " Woo",
  "7199": "obody",
  "7200": " pours",
  "7201": " stands",
  "7202": " turtles",
  "7203": " vanilla",
  "7204": "ility",
  "7205": "the",
  "7206": "Bill",
  "7207": "uess",
  "7208": " beam",
  "7209": " recipe",
  "7210": " tying",
  "7211": " Sw",
  "7212": " geese",
  "7213": " drawn",
  "7214": " robber",
  "7215": " willing",
  "7216": " wept",
  "7217": "Vroom",
  "7218": " Bones",
  "7219": " charac",
  "7220": " Sophia",
  "7221": " corners",
  "7222": " pops",
  "7223": " queens",
  "7224": "elia",
  "7225": " die",
  "7226": " grip",
  "7227": " sailboat",
  "7228": " drivers",
  "7229": " moo",
  "7230": "itude",
  "7231": " hallway",
  "7232": " imagining",
  "7233": " seconds",
  "7234": " Fuzzy",
  "7235": " preparing",
  "7236": "Mine",
  "7237": " widened",
  "7238": " adult",
  "7239": " Spirit",
  "7240": " coop",
  "7241": " grocer",
  "7242": " talented",
  "7243": " Beaky",
  "7244": " Pam",
  "7245": " Izzy",
  "7246": " sailors",
  "7247": "ummies",
  "7248": " aside",
  "7249": " softer",
  "7250": "lling",
  "7251": " watering",
  "7252": " knots",
  "7253": " sending",
  "7254": " tipped",
  "7255": " unsure",
  "7256": " horiz",
  "7257": " treehouse",
  "7258": "Lulu",
  "7259": " Lizzie",
  "7260": " notes",
  "7261": " echo",
  "7262": "Co",
  "7263": " achieved",
  "7264": "igers",
  "7265": " horizon",
  "7266": " delivering",
  "7267": " squeak",
  "7268": " Stella",
  "7269": " hotter",
  "7270": " pleasure",
  "7271": " pupils",
  "7272": "Clara",
  "7273": " burrow",
  "7274": " angels",
  "7275": " curiously",
  "7276": " blinking",
  "7277": " yum",
  "7278": "Ellie",
  "7279": " June",
  "7280": " Stretch",
  "7281": " det",
  "7282": " symbols",
  "7283": " tweet",
  "7284": " Cindy",
  "7285": " Rudy",
  "7286": " passen",
  "7287": "wk",
  "7288": " tummies",
  "7289": " figures",
  "7290": " pigeons",
  "7291": " tiss",
  "7292": "umbling",
  "7293": " Robert",
  "7294": " bandages",
  "7295": " Doctor",
  "7296": " coup",
  "7297": " robots",
  "7298": "oey",
  "7299": " tossed",
  "7300": "alph",
  "7301": " backwards",
  "7302": " hour",
  "7303": " roars",
  "7304": " merma",
  "7305": "Baby",
  "7306": " rather",
  "7307": "uzz",
  "7308": "atur",
  "7309": "Maria",
  "7310": "cited",
  "7311": " Crab",
  "7312": " Play",
  "7313": "Moo",
  "7314": "Dolly",
  "7315": "ighting",
  "7316": " groceries",
  "7317": " zipping",
  "7318": "Put",
  "7319": " unw",
  "7320": "Very",
  "7321": "prin",
  "7322": " among",
  "7323": " icing",
  "7324": " blown",
  "7325": " afterwards",
  "7326": " rumble",
  "7327": "!\u00e2\u0080\u009d.",
  "7328": " screwd",
  "7329": "ipper",
  "7330": " Tia",
  "7331": " Titi",
  "7332": " glee",
  "7333": " prove",
  "7334": " sped",
  "7335": "ushing",
  "7336": " dip",
  "7337": " overcome",
  "7338": "Quick",
  "7339": "Ruby",
  "7340": " surfboard",
  "7341": " shovels",
  "7342": " Toot",
  "7343": " slices",
  "7344": " merry",
  "7345": " mate",
  "7346": " wobble",
  "7347": " Abbie",
  "7348": " Turt",
  "7349": " disturbing",
  "7350": " heading",
  "7351": " firefighters",
  "7352": " reversed",
  "7353": " swall",
  "7354": " swallowed",
  "7355": "Jul",
  "7356": " chip",
  "7357": " flipped",
  "7358": " scored",
  "7359": "eds",
  "7360": " Jump",
  "7361": " squeezing",
  "7362": "Frank",
  "7363": "usty",
  "7364": " waking",
  "7365": "Su",
  "7366": "aty",
  "7367": " intrigued",
  "7368": "Sad",
  "7369": " maker",
  "7370": "Like",
  "7371": " Barky",
  "7372": " puff",
  "7373": "Betty",
  "7374": "awn",
  "7375": " Ex",
  "7376": " hawk",
  "7377": " encouraging",
  "7378": " aud",
  "7379": " Ron",
  "7380": " chos",
  "7381": " chosen",
  "7382": "onies",
  "7383": "hew",
  "7384": " Ang",
  "7385": " Farmer",
  "7386": " couple",
  "7387": " designs",
  "7388": " screwdriver",
  "7389": " slipping",
  "7390": " Emmy",
  "7391": " squishy",
  "7392": " center",
  "7393": " gardener",
  "7394": " rivers",
  "7395": " markers",
  "7396": " respond",
  "7397": " jars",
  "7398": " tigers",
  "7399": "iley",
  "7400": " frowns",
  "7401": "pecting",
  "7402": " Kit",
  "7403": " Sadly",
  "7404": " fluttered",
  "7405": "bird",
  "7406": " Ryan",
  "7407": " Sl",
  "7408": " firefighter",
  "7409": "Ribbit",
  "7410": " secure",
  "7411": " suits",
  "7412": " sprinkled",
  "7413": " creamy",
  "7414": " bru",
  "7415": " ignoring",
  "7416": " sharks",
  "7417": "ashes",
  "7418": " giggles",
  "7419": " tighter",
  "7420": " tissue",
  "7421": " firmly",
  "7422": " Laura",
  "7423": "ounce",
  "7424": " familiar",
  "7425": " shown",
  "7426": " thorns",
  "7427": "fly",
  "7428": "Spike",
  "7429": " Wo",
  "7430": " drawers",
  "7431": " Zee",
  "7432": "child",
  "7433": " def",
  "7434": " express",
  "7435": "Car",
  "7436": " audience",
  "7437": " crossing",
  "7438": " daring",
  "7439": "ments",
  "7440": " cloudy",
  "7441": " coloured",
  "7442": " performing",
  "7443": " cor",
  "7444": " Nick",
  "7445": " ais",
  "7446": "ae",
  "7447": "rat",
  "7448": " pedaled",
  "7449": " mixture",
  "7450": "Get",
  "7451": " gracefully",
  "7452": " til",
  "7453": "ggy",
  "7454": " haircuts",
  "7455": " yielded",
  "7456": " ponies",
  "7457": " crowns",
  "7458": " disob",
  "7459": " bits",
  "7460": " Sleep",
  "7461": " todd",
  "7462": " hangers",
  "7463": " nervously",
  "7464": " Patch",
  "7465": "bbled",
  "7466": " 2",
  "7467": " pays",
  "7468": "Zoomy",
  "7469": " peck",
  "7470": " ev",
  "7471": " stroke",
  "7472": "Bang",
  "7473": "fall",
  "7474": " napped",
  "7475": " respected",
  "7476": "aven",
  "7477": " minded",
  "7478": "Bessie",
  "7479": "ddie",
  "7480": "ably",
  "7481": " tested",
  "7482": "Boys",
  "7483": "ading",
  "7484": "parent",
  "7485": " Chris",
  "7486": " Near",
  "7487": " University",
  "7488": "Kim",
  "7489": " beeh",
  "7490": " Turtle",
  "7491": " neighbours",
  "7492": " surfing",
  "7493": "arrow",
  "7494": " shady",
  "7495": "vered",
  "7496": " darl",
  "7497": " darlings",
  "7498": " enthusiasm",
  "7499": " magician",
  "7500": "iona",
  "7501": " wisely",
  "7502": " sails",
  "7503": " stitches",
  "7504": "Dear",
  "7505": " thoughts",
  "7506": " weekend",
  "7507": " Tweetie",
  "7508": "Freddy",
  "7509": " reminds",
  "7510": "fted",
  "7511": " temper",
  "7512": "oring",
  "7513": " fleas",
  "7514": " spits",
  "7515": " surroundings",
  "7516": "antha",
  "7517": "tha",
  "7518": " teams",
  "7519": " fills",
  "7520": " lessons",
  "7521": " Along",
  "7522": " flip",
  "7523": " melons",
  "7524": " paintbrush",
  "7525": " mermaid",
  "7526": "Katie",
  "7527": "lle",
  "7528": "oni",
  "7529": " grandchild",
  "7530": " elbow",
  "7531": " explo",
  "7532": " hoops",
  "7533": " sports",
  "7534": " Fighting",
  "7535": " lies",
  "7536": "Guess",
  "7537": " panicked",
  "7538": "rac",
  "7539": " amount",
  "7540": " cleaner",
  "7541": " longest",
  "7542": "cused",
  "7543": " scooters",
  "7544": " lent",
  "7545": " beloved",
  "7546": " sill",
  "7547": "immering",
  "7548": "ita",
  "7549": " beehive",
  "7550": "Pippin",
  "7551": "Alright",
  "7552": "oga",
  "7553": "ongrat",
  "7554": " grandparent",
  "7555": " oysters",
  "7556": "ongratul",
  "7557": " forgiven",
  "7558": " magazines",
  "7559": " Wise",
  "7560": " arr",
  "7561": " elf",
  "7562": " repeating",
  "7563": " discussed",
  "7564": " Thanks",
  "7565": " sweetest",
  "7566": " Maya",
  "7567": " wadd",
  "7568": "Keep",
  "7569": " Granny",
  "7570": " lace",
  "7571": " reass",
  "7572": " nightmares",
  "7573": " Willy",
  "7574": " tubes",
  "7575": " spoonful",
  "7576": " understands",
  "7577": " Zoey",
  "7578": " bathing",
  "7579": " nood",
  "7580": "asty",
  "7581": "Am",
  "7582": " manners",
  "7583": " sweep",
  "7584": " Holly",
  "7585": " bully",
  "7586": " nur",
  "7587": " sprang",
  "7588": " wrink",
  "7589": "Uncle",
  "7590": "crow",
  "7591": " Yet",
  "7592": " guide",
  "7593": " crew",
  "7594": "ancy",
  "7595": "onna",
  "7596": "romise",
  "7597": " breathed",
  "7598": "Jazz",
  "7599": "ently",
  "7600": "ilda",
  "7601": "steps",
  "7602": "while",
  "7603": " Bally",
  "7604": " bulbs",
  "7605": " grassy",
  "7606": " neare",
  "7607": " spies",
  "7608": " testing",
  "7609": " wiggly",
  "7610": " coug",
  "7611": " Roo",
  "7612": " sheets",
  "7613": " solving",
  "7614": " footsteps",
  "7615": " speeding",
  "7616": "Afterwards",
  "7617": "ntil",
  "7618": " focused",
  "7619": "cept",
  "7620": "ounced",
  "7621": "?!\"",
  "7622": " braver",
  "7623": " camel",
  "7624": " mesmerized",
  "7625": " Sparkle",
  "7626": " hesitant",
  "7627": " licking",
  "7628": " rushing",
  "7629": " Well",
  "7630": " Puppy",
  "7631": " joining",
  "7632": " Martha",
  "7633": " greeted",
  "7634": " polar",
  "7635": " Bubb",
  "7636": "--",
  "7637": "espite",
  "7638": " Nobody",
  "7639": " changes",
  "7640": " materials",
  "7641": " worn",
  "7642": "Kiki",
  "7643": "Which",
  "7644": "undred",
  "7645": " bicycles",
  "7646": " stored",
  "7647": " anger",
  "7648": " mast",
  "7649": "een",
  "7650": " peacefully",
  "7651": "Leave",
  "7652": " ships",
  "7653": " spice",
  "7654": " Show",
  "7655": " gonna",
  "7656": " nuzz",
  "7657": " terrified",
  "7658": " politely",
  "7659": " scarecrow",
  "7660": " spills",
  "7661": "Snow",
  "7662": " knives",
  "7663": " Mixy",
  "7664": " evil",
  "7665": " burying",
  "7666": "ppies",
  "7667": "ca",
  "7668": " aren",
  "7669": " healing",
  "7670": " aeroplanes",
  "7671": " donkey",
  "7672": "Even",
  "7673": "freeze",
  "7674": " miles",
  "7675": " scattering",
  "7676": " seals",
  "7677": " Chewy",
  "7678": " dump",
  "7679": "amboo",
  "7680": " Soft",
  "7681": " worrying",
  "7682": "Bee",
  "7683": "zoom",
  "7684": " Lenny",
  "7685": "David",
  "7686": "beep",
  "7687": " puzzled",
  "7688": " stacked",
  "7689": " Kip",
  "7690": " Nice",
  "7691": "Penny",
  "7692": " loses",
  "7693": " Win",
  "7694": " baskets",
  "7695": " travelled",
  "7696": "dding",
  "7697": " Okay",
  "7698": " blast",
  "7699": " gazing",
  "7700": " Tess",
  "7701": "ipes",
  "7702": " temperature",
  "7703": "Hurry",
  "7704": "erm",
  "7705": " believing",
  "7706": " clue",
  "7707": " dripping",
  "7708": " tasting",
  "7709": " und",
  "7710": " pinching",
  "7711": " 10",
  "7712": " rats",
  "7713": " soaking",
  "7714": "isc",
  "7715": " sandy",
  "7716": " Isn",
  "7717": "rect",
  "7718": " Simon",
  "7719": "anwhile",
  "7720": "rey",
  "7721": " Abi",
  "7722": " banged",
  "7723": " punishment",
  "7724": "Binky",
  "7725": " crashing",
  "7726": " humans",
  "7727": " Ana",
  "7728": " force",
  "7729": " gest",
  "7730": " hundred",
  "7731": " Lia",
  "7732": " Chess",
  "7733": " swimmer",
  "7734": " snowflakes",
  "7735": " relaxing",
  "7736": " Fairy",
  "7737": " beeped",
  "7738": " resisted",
  "7739": " \n",
  "7740": " quarreled",
  "7741": " Wendy",
  "7742": " ramp",
  "7743": "elie",
  "7744": "form",
  "7745": " joins",
  "7746": " Ph",
  "7747": " backpacks",
  "7748": "abby",
  "7749": " delayed",
  "7750": " dressing",
  "7751": "years",
  "7752": " toddler",
  "7753": " Luckily",
  "7754": " Te",
  "7755": " covering",
  "7756": " flight",
  "7757": "ofia",
  "7758": " benches",
  "7759": " encouragement",
  "7760": "By",
  "7761": "Open",
  "7762": "Two",
  "7763": "orter",
  "7764": " scraped",
  "7765": " toward",
  "7766": " Judy",
  "7767": " focus",
  "7768": " purpose",
  "7769": " correct",
  "7770": "Bow",
  "7771": " lipstick",
  "7772": "'.\"",
  "7773": " bamboo",
  "7774": " Cow",
  "7775": " months",
  "7776": " permitted",
  "7777": " potion",
  "7778": " twinkled",
  "7779": "Spe",
  "7780": " languages",
  "7781": " freedom",
  "7782": " orders",
  "7783": " master",
  "7784": " poppies",
  "7785": " risks",
  "7786": "Tony",
  "7787": " noodles",
  "7788": "shm",
  "7789": " faded",
  "7790": " wounds",
  "7791": "Kids",
  "7792": "rier",
  "7793": "shmallow",
  "7794": " Jojo",
  "7795": "isions",
  "7796": " birdhouse",
  "7797": " creams",
  "7798": " Herb",
  "7799": " annoyed",
  "7800": " cells",
  "7801": " adults",
  "7802": " cheers",
  "7803": " sniffing",
  "7804": "opes",
  "7805": " unwra",
  "7806": "Birdy",
  "7807": " floats",
  "7808": " opinions",
  "7809": " puck",
  "7810": "Buzzy",
  "7811": "ecca",
  "7812": "Instead",
  "7813": "andas",
  "7814": " flown",
  "7815": " handsome",
  "7816": " scen",
  "7817": " sneezes",
  "7818": " Mint",
  "7819": " nodding",
  "7820": " 5",
  "7821": " burnt",
  "7822": " smelling",
  "7823": " drifted",
  "7824": " within",
  "7825": "bage",
  "7826": "ider",
  "7827": " bothering",
  "7828": " damaged",
  "7829": " height",
  "7830": " scient",
  "7831": " instruments",
  "7832": " pleaded",
  "7833": " slither",
  "7834": " tearing",
  "7835": " ease",
  "7836": " Ali",
  "7837": " Marie",
  "7838": " scientist",
  "7839": "Back",
  "7840": "da",
  "7841": "Goodnight",
  "7842": "Mira",
  "7843": " pound",
  "7844": " handing",
  "7845": " seller",
  "7846": " Say",
  "7847": " germ",
  "7848": " files",
  "7849": " wasting",
  "7850": " dreamt",
  "7851": " results",
  "7852": " Mabel",
  "7853": " brushing",
  "7854": " destroying",
  "7855": " explains",
  "7856": "bell",
  "7857": " Cr",
  "7858": " Razor",
  "7859": " characters",
  "7860": " hiss",
  "7861": "ousy",
  "7862": " Ste",
  "7863": " certain",
  "7864": "Carl",
  "7865": " Hug",
  "7866": " sweaty",
  "7867": "Behind",
  "7868": "Pandy",
  "7869": "unched",
  "7870": " Robbie",
  "7871": " business",
  "7872": " onward",
  "7873": " talents",
  "7874": " bravest",
  "7875": " engines",
  "7876": "Try",
  "7877": " Janie",
  "7878": " Pen",
  "7879": " sternly",
  "7880": "ition",
  "7881": " mosquitoes",
  "7882": " postman",
  "7883": "prints",
  "7884": " minds",
  "7885": " scares",
  "7886": " tuck",
  "7887": "cake",
  "7888": "under",
  "7889": " apologised",
  "7890": " stomp",
  "7891": "urious",
  "7892": " manag",
  "7893": "uel",
  "7894": " bitten",
  "7895": " snuck",
  "7896": " decisions",
  "7897": " reminding",
  "7898": " switched",
  "7899": " tilted",
  "7900": "attered",
  "7901": " Poor",
  "7902": " behavior",
  "7903": " desper",
  "7904": " singers",
  "7905": " Judge",
  "7906": "ashing",
  "7907": "bbers",
  "7908": " peeled",
  "7909": " squeaked",
  "7910": "inny",
  "7911": " Everybody",
  "7912": " purrs",
  "7913": " yumm",
  "7914": " Bra",
  "7915": " Until",
  "7916": " displayed",
  "7917": " rustling",
  "7918": " smashed",
  "7919": " treated",
  "7920": " matey",
  "7921": " neatly",
  "7922": " Bess",
  "7923": " planting",
  "7924": " marshmallow",
  "7925": " insp",
  "7926": " bellies",
  "7927": " cracks",
  "7928": " grandparents",
  "7929": " sy",
  "7930": " yelped",
  "7931": " Navy",
  "7932": " scamp",
  "7933": " shines",
  "7934": "aver",
  "7935": " coloring",
  "7936": " failed",
  "7937": " hoo",
  "7938": " Yoga",
  "7939": " Make",
  "7940": " zooms",
  "7941": "line",
  "7942": " breathing",
  "7943": " nasty",
  "7944": "rup",
  "7945": " combed",
  "7946": " despite",
  "7947": " pandas",
  "7948": " address",
  "7949": " waterfall",
  "7950": "ighing",
  "7951": "omp",
  "7952": "uffin",
  "7953": " Angel",
  "7954": " Loop",
  "7955": "cc",
  "7956": " antic",
  "7957": " robbers",
  "7958": " wider",
  "7959": "Tilly",
  "7960": " Todd",
  "7961": " doorway",
  "7962": " echoed",
  "7963": " sweaters",
  "7964": "Abigail",
  "7965": "Play",
  "7966": " edges",
  "7967": "evin",
  "7968": " Shadow",
  "7969": " inj",
  "7970": "Aunt",
  "7971": " Blinky",
  "7972": " disobey",
  "7973": " gap",
  "7974": " Michael",
  "7975": "Liz",
  "7976": "wise",
  "7977": " Flick",
  "7978": " tar",
  "7979": " magnif",
  "7980": " taped",
  "7981": "Wake",
  "7982": "orking",
  "7983": "oscope",
  "7984": " action",
  "7985": " flaps",
  "7986": " scolds",
  "7987": "father",
  "7988": "ulp",
  "7989": " Mindy",
  "7990": " crawls",
  "7991": " Gary",
  "7992": " backs",
  "7993": " gobbled",
  "7994": " swap",
  "7995": "Ros",
  "7996": " Eddie",
  "7997": " Fishy",
  "7998": " warri",
  "7999": " sever",
  "8000": " steth",
  "8001": "Slow",
  "8002": " newspapers",
  "8003": " probably",
  "8004": " shinier",
  "8005": " occ",
  "8006": " several",
  "8007": " Meg",
  "8008": " encount",
  "8009": "Lena",
  "8010": "Rock",
  "8011": " connected",
  "8012": " plucked",
  "8013": " quieter",
  "8014": " serving",
  "8015": " ouch",
  "8016": " Share",
  "8017": "tock",
  "8018": "igger",
  "8019": " gesture",
  "8020": "Adam",
  "8021": "Ted",
  "8022": " doorbell",
  "8023": " plot",
  "8024": " student",
  "8025": "Fl",
  "8026": "Too",
  "8027": " cares",
  "8028": " squaw",
  "8029": " Se",
  "8030": " grandson",
  "8031": " rescuing",
  "8032": "fire",
  "8033": " goo",
  "8034": " rows",
  "8035": " simply",
  "8036": " spy",
  "8037": " whistles",
  "8038": "iel",
  "8039": "mies",
  "8040": " astronauts",
  "8041": " shorter",
  "8042": " snaps",
  "8043": "Magic",
  "8044": "Shrink",
  "8045": "vant",
  "8046": " Time",
  "8047": " cottage",
  "8048": " unpacking",
  "8049": "ssss",
  "8050": " accidents",
  "8051": " swo",
  "8052": " Nut",
  "8053": " mood",
  "8054": " swollen",
  "8055": "ibi",
  "8056": "Steve",
  "8057": " Mousy",
  "8058": " Zippy",
  "8059": "abelle",
  "8060": " bothered",
  "8061": "Zara",
  "8062": "anie",
  "8063": " stethoscope",
  "8064": "Hannah",
  "8065": " causing",
  "8066": " trusting",
  "8067": "Mad",
  "8068": "Mat",
  "8069": " dresser",
  "8070": " leapt",
  "8071": " sou",
  "8072": "aint",
  "8073": "found",
  "8074": " pills",
  "8075": " proper",
  "8076": " throughout",
  "8077": "retty",
  "8078": " Dina",
  "8079": " prayers",
  "8080": " runner",
  "8081": "Olive",
  "8082": " joyful",
  "8083": "Thomas",
  "8084": " Prince",
  "8085": " locks",
  "8086": "mates",
  "8087": " goats",
  "8088": "Jamie",
  "8089": " target",
  "8090": "what",
  "8091": " Karen",
  "8092": " Wait",
  "8093": "rest",
  "8094": " Bang",
  "8095": " dears",
  "8096": " Cro",
  "8097": " flips",
  "8098": " munch",
  "8099": " waddled",
  "8100": "Red",
  "8101": "artled",
  "8102": " lowered",
  "8103": " stepping",
  "8104": " Jackie",
  "8105": " cons",
  "8106": " teachers",
  "8107": " Toys",
  "8108": " cowboy",
  "8109": " envelopes",
  "8110": " inches",
  "8111": " Vroom",
  "8112": " char",
  "8113": "ears",
  "8114": " anticip",
  "8115": " explorer",
  "8116": " Ralph",
  "8117": " Ruff",
  "8118": " Ready",
  "8119": " playd",
  "8120": "Finn",
  "8121": "Nice",
  "8122": "unity",
  "8123": " Bad",
  "8124": "ening",
  "8125": " Pl",
  "8126": " efforts",
  "8127": " floors",
  "8128": " knocking",
  "8129": " uniforms",
  "8130": " Tri",
  "8131": "lied",
  "8132": " aware",
  "8133": " footprints",
  "8134": " Fiona",
  "8135": " nearly",
  "8136": "Someone",
  "8137": " Ria",
  "8138": " disc",
  "8139": "llas",
  "8140": " appreciation",
  "8141": " glitt",
  "8142": " sens",
  "8143": " trot",
  "8144": " whimp",
  "8145": "ivi",
  "8146": " checks",
  "8147": " collap",
  "8148": " necks",
  "8149": "oosh",
  "8150": " except",
  "8151": " lapt",
  "8152": " Jacky",
  "8153": " charge",
  "8154": " plug",
  "8155": " fluttering",
  "8156": " umbrellas",
  "8157": " stamped",
  "8158": " Davey",
  "8159": " sandcastles",
  "8160": "acy",
  "8161": " Honey",
  "8162": " statues",
  "8163": " Amelia",
  "8164": " shrank",
  "8165": "Hoppy",
  "8166": "ails",
  "8167": "iscuit",
  "8168": "omb",
  "8169": " adds",
  "8170": " finishing",
  "8171": " prick",
  "8172": "rily",
  "8173": "rons",
  "8174": " chocolates",
  "8175": " dodged",
  "8176": " hunters",
  "8177": " stroll",
  "8178": " germs",
  "8179": " passengers",
  "8180": "oger",
  "8181": " aisle",
  "8182": " aprons",
  "8183": " wrigg",
  "8184": " sets",
  "8185": " Gerry",
  "8186": ".'\"",
  "8187": " novels",
  "8188": " weeds",
  "8189": " Taking",
  "8190": " demanding",
  "8191": "order",
  "8192": " meows",
  "8193": " scratching",
  "8194": " nurses",
  "8195": "Dr",
  "8196": "issa",
  "8197": " discussing",
  "8198": " minding",
  "8199": "Lucky",
  "8200": " Cari",
  "8201": " driveway",
  "8202": " killed",
  "8203": "urrender",
  "8204": " becomes",
  "8205": " Eliz",
  "8206": " haird",
  "8207": " laptop",
  "8208": " toolbox",
  "8209": " Despite",
  "8210": " Sadie",
  "8211": " attack",
  "8212": " posit",
  "8213": "Speedy",
  "8214": " bounces",
  "8215": " scampered",
  "8216": "sol",
  "8217": " Gl",
  "8218": " deed",
  "8219": " sprays",
  "8220": " supplied",
  "8221": " tempt",
  "8222": " burns",
  "8223": " friendships",
  "8224": " suggestion",
  "8225": " closing",
  "8226": " slapping",
  "8227": "Coco",
  "8228": " anticipation",
  "8229": " belongings",
  "8230": " invites",
  "8231": "Arrr",
  "8232": " Stan",
  "8233": " cotton",
  "8234": " erase",
  "8235": " form",
  "8236": " springing",
  "8237": " rays",
  "8238": " twists",
  "8239": " forgives",
  "8240": " snuggle",
  "8241": " models",
  "8242": " humming",
  "8243": " massages",
  "8244": " shall",
  "8245": " newfound",
  "8246": " responded",
  "8247": "onnie",
  "8248": " Shelly",
  "8249": " expecting",
  "8250": " ghosts",
  "8251": " cheated",
  "8252": " Wooly",
  "8253": "Does",
  "8254": "Gigi",
  "8255": " Ne",
  "8256": " traveling",
  "8257": "otte",
  "8258": " although",
  "8259": " battle",
  "8260": " cond",
  "8261": " mommies",
  "8262": "alloween",
  "8263": " aim",
  "8264": " carries",
  "8265": " invitations",
  "8266": " refreshing",
  "8267": " conc",
  "8268": " presented",
  "8269": " Bumpy",
  "8270": " rowed",
  "8271": " twenty",
  "8272": "hel",
  "8273": " squir",
  "8274": "ots",
  "8275": " cooper",
  "8276": " foxes",
  "8277": "arlotte",
  "8278": "rie",
  "8279": " duckling",
  "8280": " final",
  "8281": " Bibi",
  "8282": " cafe",
  "8283": " marshmallows",
  "8284": "Pip",
  "8285": " Zipper",
  "8286": " clicked",
  "8287": " beaver",
  "8288": " designing",
  "8289": " jets",
  "8290": "oor",
  "8291": " Halloween",
  "8292": " Muffin",
  "8293": "five",
  "8294": " Whoever",
  "8295": " mugs",
  "8296": " Although",
  "8297": " drown",
  "8298": " Excited",
  "8299": " Ruth",
  "8300": " convin",
  "8301": " oppos",
  "8302": " picnics",
  "8303": " tricycle",
  "8304": " Cle",
  "8305": "iens",
  "8306": " Maddie",
  "8307": " Pop",
  "8308": " congratul",
  "8309": " scoops",
  "8310": "po",
  "8311": " aliens",
  "8312": " travels",
  "8313": " \u00e2\u0080\u0094",
  "8314": "Sadly",
  "8315": "off",
  "8316": " Speed",
  "8317": " questioned",
  "8318": " tests",
  "8319": " strips",
  "8320": "inted",
  "8321": "Near",
  "8322": "Mouse",
  "8323": "atty",
  "8324": " Flutter",
  "8325": " defe",
  "8326": "covered",
  "8327": " Bubba",
  "8328": "ended",
  "8329": "iri",
  "8330": " fights",
  "8331": "Br",
  "8332": " Biggy",
  "8333": " opposite",
  "8334": "Ball",
  "8335": "roken",
  "8336": " Im",
  "8337": "Chloe",
  "8338": "Elly",
  "8339": "Find",
  "8340": "Hmm",
  "8341": " Never",
  "8342": " afford",
  "8343": " encountered",
  "8344": " grandfather",
  "8345": " rout",
  "8346": " decl",
  "8347": "inch",
  "8348": " raising",
  "8349": " Vivi",
  "8350": " upside",
  "8351": "iment",
  "8352": " Rita",
  "8353": " calmly",
  "8354": " flashed",
  "8355": "Jess",
  "8356": "Meanwhile",
  "8357": " realizes",
  "8358": " sincere",
  "8359": " yawning",
  "8360": " Samantha",
  "8361": " buddy",
  "8362": " crystals",
  "8363": "Choo",
  "8364": "Trust",
  "8365": "aturday",
  "8366": " buckled",
  "8367": " cupcakes",
  "8368": " defin",
  "8369": " winners",
  "8370": "Both",
  "8371": "byes",
  "8372": "ris",
  "8373": "verse",
  "8374": " caw",
  "8375": " weapons",
  "8376": "',",
  "8377": " Saturday",
  "8378": " cheat",
  "8379": " packages",
  "8380": "Josh",
  "8381": "shadow",
  "8382": " attem",
  "8383": " coach",
  "8384": " goodbyes",
  "8385": " messes",
  "8386": " sacks",
  "8387": " Flo",
  "8388": " Truck",
  "8389": " convers",
  "8390": "quet",
  "8391": " Eva",
  "8392": " Mina",
  "8393": " caps",
  "8394": "val",
  "8395": " enem",
  "8396": " enemies",
  "8397": " scrub",
  "8398": " yummiest",
  "8399": "asha",
  "8400": " returning",
  "8401": " swallow",
  "8402": " Megan",
  "8403": " Softy",
  "8404": " admiration",
  "8405": "rian",
  "8406": " Louise",
  "8407": " sprout",
  "8408": "Since",
  "8409": " Another",
  "8410": " Playing",
  "8411": " unable",
  "8412": " Yawn",
  "8413": " bless",
  "8414": " brightest",
  "8415": " freezing",
  "8416": " sadder",
  "8417": "ooks",
  "8418": "ugging",
  "8419": " Man",
  "8420": " respon",
  "8421": " Oh",
  "8422": " cosy",
  "8423": " response",
  "8424": "reverse",
  "8425": " bride",
  "8426": " diamonds",
  "8427": " garbage",
  "8428": " honking",
  "8429": " opport",
  "8430": " reapp",
  "8431": "stalk",
  "8432": " prevented",
  "8433": " stretches",
  "8434": " whispering",
  "8435": " Gray",
  "8436": " awful",
  "8437": " odd",
  "8438": " whoever",
  "8439": "antastic",
  "8440": "erk",
  "8441": " awoke",
  "8442": " journeys",
  "8443": " weighs",
  "8444": "alth",
  "8445": " dragonfly",
  "8446": " spices",
  "8447": " traps",
  "8448": "Brrr",
  "8449": " born",
  "8450": " clip",
  "8451": " reassured",
  "8452": " argum",
  "8453": " beanstalk",
  "8454": " stall",
  "8455": "ivia",
  "8456": " Maisy",
  "8457": " automobiles",
  "8458": " beetles",
  "8459": " definitely",
  "8460": " examining",
  "8461": " playdate",
  "8462": " stuffing",
  "8463": " visitors",
  "8464": "Hop",
  "8465": "ici",
  "8466": "mine",
  "8467": " washes",
  "8468": "broken",
  "8469": "cie",
  "8470": " customer",
  "8471": " wiser",
  "8472": " Flop",
  "8473": " Jolly",
  "8474": " Sofia",
  "8475": " travelling",
  "8476": "Rachel",
  "8477": "emma",
  "8478": "uper",
  "8479": " Nurse",
  "8480": " bou",
  "8481": " bouquet",
  "8482": " hairdress",
  "8483": " Elle",
  "8484": " campfire",
  "8485": " decoration",
  "8486": " tumbled",
  "8487": ",'",
  "8488": "bble",
  "8489": "orse",
  "8490": " bud",
  "8491": " honesty",
  "8492": " bomb",
  "8493": "Only",
  "8494": "action",
  "8495": "ebecca",
  "8496": "vy",
  "8497": " offering",
  "8498": " welcoming",
  "8499": " Hello",
  "8500": " Jax",
  "8501": " Ot",
  "8502": " increasing",
  "8503": " occas",
  "8504": " troubles",
  "8505": " wealth",
  "8506": " inspired",
  "8507": " loudest",
  "8508": " Chick",
  "8509": " groan",
  "8510": " parted",
  "8511": " type",
  "8512": " Nutty",
  "8513": " Ricky",
  "8514": " Thunder",
  "8515": " whales",
  "8516": "irac",
  "8517": "yl",
  "8518": " declared",
  "8519": " correctly",
  "8520": " Quacky",
  "8521": " beaks",
  "8522": " craft",
  "8523": "fus",
  "8524": "ooky",
  "8525": "yler",
  "8526": " cleared",
  "8527": "athan",
  "8528": " cowboys",
  "8529": " Dotty",
  "8530": " nuzzled",
  "8531": " exch",
  "8532": " prizes",
  "8533": " Missile",
  "8534": " warmly",
  "8535": "Finny",
  "8536": " customers",
  "8537": " obeyed",
  "8538": " rewards",
  "8539": " Fel",
  "8540": " comforting",
  "8541": " sirens",
  "8542": "Should",
  "8543": " Flappy",
  "8544": " connect",
  "8545": "shaped",
  "8546": " Bingo",
  "8547": " Magic",
  "8548": " towns",
  "8549": "match",
  "8550": " Vicky",
  "8551": " rely",
  "8552": "elieve",
  "8553": " Fe",
  "8554": " bends",
  "8555": " fantastic",
  "8556": " insisting",
  "8557": " owns",
  "8558": " trigger",
  "8559": "Honey",
  "8560": " hairdresser",
  "8561": " spoiling",
  "8562": " cleans",
  "8563": " pipes",
  "8564": " poses",
  "8565": " shares",
  "8566": " supporting",
  "8567": " surrendered",
  "8568": " Cook",
  "8569": " wrinkled",
  "8570": "Julie",
  "8571": "Outside",
  "8572": "Sun",
  "8573": "rench",
  "8574": " chopped",
  "8575": " beaming",
  "8576": " moons",
  "8577": " recorder",
  "8578": " Wolf",
  "8579": " snowy",
  "8580": " thanking",
  "8581": "Beth",
  "8582": "ellow",
  "8583": "unes",
  "8584": " active",
  "8585": " enjoyable",
  "8586": " experien",
  "8587": " scurry",
  "8588": " Piggy",
  "8589": " coral",
  "8590": " Kevin",
  "8591": " dollar",
  "8592": " environ",
  "8593": " loc",
  "8594": "elope",
  "8595": "worm",
  "8596": " Bub",
  "8597": " streamers",
  "8598": "Je",
  "8599": " Mother",
  "8600": " Patty",
  "8601": "udged",
  "8602": " Zack",
  "8603": " examp",
  "8604": "Suzy",
  "8605": "inger",
  "8606": " environment",
  "8607": " shooed",
  "8608": " shorts",
  "8609": " ill",
  "8610": "Tree",
  "8611": " bruises",
  "8612": " scent",
  "8613": " Luc",
  "8614": " grat",
  "8615": "uster",
  "8616": " hisses",
  "8617": "Bo",
  "8618": " Elsa",
  "8619": " plugged",
  "8620": " self",
  "8621": " steering",
  "8622": " warrior",
  "8623": " exercises",
  "8624": " visits",
  "8625": " Ar",
  "8626": " Min",
  "8627": " Rel",
  "8628": " cuddles",
  "8629": " dangers",
  "8630": "aptain",
  "8631": "irl",
  "8632": "screen",
  "8633": " signing",
  "8634": " squished",
  "8635": " unfortunately",
  "8636": " Light",
  "8637": " disappoint",
  "8638": " pilots",
  "8639": "Ray",
  "8640": "bee",
  "8641": " applauding",
  "8642": " gratitude",
  "8643": "munk",
  "8644": " Moppy",
  "8645": " providing",
  "8646": "alf",
  "8647": " Rub",
  "8648": " ting",
  "8649": " tickles",
  "8650": " Elsie",
  "8651": " badger",
  "8652": " convinced",
  "8653": " jud",
  "8654": " nights",
  "8655": " storms",
  "8656": "Grow",
  "8657": " Kelly",
  "8658": " choosing",
  "8659": " responsib",
  "8660": " youn",
  "8661": " activity",
  "8662": " brains",
  "8663": " nearest",
  "8664": " youngest",
  "8665": "Joy",
  "8666": " arranged",
  "8667": " coughed",
  "8668": " exploded",
  "8669": "Abby",
  "8670": " Fly",
  "8671": " Tre",
  "8672": " rewarding",
  "8673": "Claire",
  "8674": " Floppy",
  "8675": " bond",
  "8676": " peep",
  "8677": " sunscreen",
  "8678": "erpiece",
  "8679": "good",
  "8680": " Joan",
  "8681": " Katy",
  "8682": " Sweet",
  "8683": " Tweety",
  "8684": "Mon",
  "8685": "asers",
  "8686": " Sal",
  "8687": " annoying",
  "8688": "ilities",
  "8689": " soapy",
  "8690": "sn",
  "8691": "Splash",
  "8692": "meow",
  "8693": " laces",
  "8694": " rails",
  "8695": " Pine",
  "8696": " appreciated",
  "8697": " offic",
  "8698": " tapping",
  "8699": " threads",
  "8700": " Phil",
  "8701": " Pick",
  "8702": " congratulated",
  "8703": " emerged",
  "8704": " heartbroken",
  "8705": " weighing",
  "8706": "boards",
  "8707": " Sil",
  "8708": " tin",
  "8709": "Danger",
  "8710": " clerk",
  "8711": " crocodiles",
  "8712": " Nancy",
  "8713": " attempt",
  "8714": " scram",
  "8715": " Any",
  "8716": " Kay",
  "8717": " dial",
  "8718": " example",
  "8719": " messed",
  "8720": " snug",
  "8721": "Ahoy",
  "8722": "water",
  "8723": " Jonny",
  "8724": " hooks",
  "8725": "Momma",
  "8726": " chipmunk",
  "8727": " tops",
  "8728": " bathed",
  "8729": " guarding",
  "8730": " soot",
  "8731": " Tippy",
  "8732": " manager",
  "8733": " Microscope",
  "8734": "ortunately",
  "8735": "Friends",
  "8736": " De",
  "8737": " Baa",
  "8738": " masterpiece",
  "8739": "Snowy",
  "8740": "etah",
  "8741": " erasers",
  "8742": "ending",
  "8743": " Tomorrow",
  "8744": " common",
  "8745": " fet",
  "8746": " finishes",
  "8747": " tips",
  "8748": " digs",
  "8749": " memb",
  "8750": " members",
  "8751": " nibbled",
  "8752": " trotted",
  "8753": " cheetah",
  "8754": " kinder",
  "8755": "People",
  "8756": " blond",
  "8757": " chews",
  "8758": " particularly",
  "8759": " beast",
  "8760": " rips",
  "8761": "ircle",
  "8762": " argument",
  "8763": "Lizzy",
  "8764": " Helping",
  "8765": " faith",
  "8766": "ative",
  "8767": " earned",
  "8768": " Cici",
  "8769": " Joke",
  "8770": " forgiveness",
  "8771": " observing",
  "8772": "Anne",
  "8773": " Jumpy",
  "8774": " cheaper",
  "8775": " curl",
  "8776": " experienced",
  "8777": " fishes",
  "8778": " instantly",
  "8779": " mischie",
  "8780": " Twist",
  "8781": " cages",
  "8782": " generosity",
  "8783": " mischievous",
  "8784": "Rosie",
  "8785": " foam",
  "8786": " meowing",
  "8787": "Baa",
  "8788": "Gr",
  "8789": " Ag",
  "8790": " grandd",
  "8791": " stores",
  "8792": "Cindy",
  "8793": "mered",
  "8794": " mattered",
  "8795": "etchup",
  "8796": " limp",
  "8797": " passes",
  "8798": " teles",
  "8799": " sleeps",
  "8800": "Sque",
  "8801": " breaths",
  "8802": "iolet",
  "8803": " Freddie",
  "8804": " gasps",
  "8805": " rin",
  "8806": "ettle",
  "8807": "ordinary",
  "8808": "pr",
  "8809": " Momma",
  "8810": " hatch",
  "8811": " rumbling",
  "8812": " trans",
  "8813": "Got",
  "8814": " Hopper",
  "8815": " accomplished",
  "8816": " grassho",
  "8817": " satisf",
  "8818": "abra",
  "8819": "over",
  "8820": " mats",
  "8821": " smartest",
  "8822": " strum",
  "8823": " telescope",
  "8824": " thump",
  "8825": "acing",
  "8826": " moat",
  "8827": " whined",
  "8828": " Ice",
  "8829": " farmers",
  "8830": " jugg",
  "8831": " scrambled",
  "8832": "Gina",
  "8833": " drip",
  "8834": " More",
  "8835": " angrily",
  "8836": " collapsed",
  "8837": " gardens",
  "8838": " syrup",
  "8839": "Robbie",
  "8840": " discoveries",
  "8841": " experiences",
  "8842": " forests",
  "8843": " styles",
  "8844": " vegg",
  "8845": "idey",
  "8846": "ouraged",
  "8847": " medals",
  "8848": " tor",
  "8849": "hole",
  "8850": " Does",
  "8851": " conqu",
  "8852": " faint",
  "8853": " meaning",
  "8854": " otters",
  "8855": " types",
  "8856": " fif",
  "8857": " hardest",
  "8858": " snapping",
  "8859": "acock",
  "8860": "adabra",
  "8861": "pit",
  "8862": " expression",
  "8863": " movements",
  "8864": "ering",
  "8865": " affect",
  "8866": " bubbly",
  "8867": " chilly",
  "8868": " surv",
  "8869": " court",
  "8870": " unfair",
  "8871": " vests",
  "8872": "Pinky",
  "8873": " extraordinary",
  "8874": " scores",
  "8875": " toothbrush",
  "8876": "Whenever",
  "8877": " attitude",
  "8878": "Never",
  "8879": " Monkey",
  "8880": " bluebird",
  "8881": " horri",
  "8882": " vibr",
  "8883": " ketchup",
  "8884": " spears",
  "8885": "Mo",
  "8886": "lls",
  "8887": "mel",
  "8888": " Berry",
  "8889": " behaviour",
  "8890": " grasshopper",
  "8891": " sooner",
  "8892": "Mother",
  "8893": " habit",
  "8894": " patches",
  "8895": " Ashley",
  "8896": " afar",
  "8897": " momma",
  "8898": " pokes",
  "8899": "Karen",
  "8900": "erts",
  "8901": "yd",
  "8902": " Friend",
  "8903": " scri",
  "8904": " thie",
  "8905": " thicker",
  "8906": "Jacob",
  "8907": "lo",
  "8908": " icky",
  "8909": " Fle",
  "8910": " Terry",
  "8911": " classmates",
  "8912": " shrunk",
  "8913": " slithered",
  "8914": " squeezes",
  "8915": "Jon",
  "8916": " glittering",
  "8917": " prickly",
  "8918": " expert",
  "8919": " Riri",
  "8920": " Super",
  "8921": " announced",
  "8922": " kneeling",
  "8923": " topp",
  "8924": " marking",
  "8925": " peacock",
  "8926": "elling",
  "8927": " Achoo",
  "8928": " Cally",
  "8929": " costs",
  "8930": "ctric",
  "8931": " thieves",
  "8932": " watermel",
  "8933": " zigzags",
  "8934": " App",
  "8935": " Zog",
  "8936": " acts",
  "8937": " hood",
  "8938": " jumper",
  "8939": " skirts",
  "8940": " Cloud",
  "8941": " Swim",
  "8942": " wolves",
  "8943": " cocoon",
  "8944": " concer",
  "8945": " drift",
  "8946": " squeaky",
  "8947": " thumbs",
  "8948": "Papa",
  "8949": " Becky",
  "8950": " Eliza",
  "8951": " boards",
  "8952": " woodcut",
  "8953": " servant",
  "8954": " Jason",
  "8955": " cheating",
  "8956": "affle",
  "8957": "idence",
  "8958": " raking",
  "8959": " trading",
  "8960": "bu",
  "8961": " Eric",
  "8962": " explaining",
  "8963": "Jessie",
  "8964": "cat",
  "8965": " biscuit",
  "8966": " tidied",
  "8967": "rick",
  "8968": " Ac",
  "8969": " luckily",
  "8970": " lunchtime",
  "8971": " Puffy",
  "8972": "Frog",
  "8973": "anced",
  "8974": " spilling",
  "8975": " Day",
  "8976": " Animal",
  "8977": " Daniel",
  "8978": " Maddy",
  "8979": " Use",
  "8980": " desserts",
  "8981": " transform",
  "8982": "Fire",
  "8983": " Mine",
  "8984": " Pig",
  "8985": "ror",
  "8986": "\u00e2\u0080\u00a6",
  "8987": " Gill",
  "8988": " Still",
  "8989": "its",
  "8990": " Captain",
  "8991": " mirac",
  "8992": " messages",
  "8993": "amma",
  "8994": "rough",
  "8995": " Gilly",
  "8996": " Lung",
  "8997": " Tammy",
  "8998": " beating",
  "8999": " chill",
  "9000": " windowsill",
  "9001": "idy",
  "9002": " seeking",
  "9003": "oot",
  "9004": " Lina",
  "9005": " Rainbow",
  "9006": " actor",
  "9007": " William",
  "9008": " Math",
  "9009": "sess",
  "9010": " foreshadow",
  "9011": "Any",
  "9012": "pril",
  "9013": " Hi",
  "9014": " Pinch",
  "9015": " Step",
  "9016": " leans",
  "9017": "Bluey",
  "9018": "acles",
  "9019": "war",
  "9020": " Frankie",
  "9021": " Monster",
  "9022": " Tiger",
  "9023": " cloths",
  "9024": " dev",
  "9025": " flashing",
  "9026": " hissing",
  "9027": " watermelon",
  "9028": "Bounce",
  "9029": "Freeze",
  "9030": "racadabra",
  "9031": " Wil",
  "9032": " discouraged",
  "9033": " funn",
  "9034": " positive",
  "9035": " winding",
  "9036": " compete",
  "9037": " dripped",
  "9038": " forts",
  "9039": " woodcutter",
  "9040": "pop",
  "9041": " disagreeing",
  "9042": " pressing",
  "9043": " teapot",
  "9044": " glimmering",
  "9045": "icking",
  "9046": " kangaroos",
  "9047": " tidying",
  "9048": " trusts",
  "9049": " veggies",
  "9050": " Peep",
  "9051": " Flora",
  "9052": " landing",
  "9053": " tempted",
  "9054": " dock",
  "9055": " formed",
  "9056": " overw",
  "9057": " shallow",
  "9058": " Tooth",
  "9059": " fade",
  "9060": " rack",
  "9061": "lers",
  "9062": " cops",
  "9063": " electric",
  "9064": " worst",
  "9065": "flowers",
  "9066": " apology",
  "9067": "Nothing",
  "9068": "eling",
  "9069": " Life",
  "9070": " Silver",
  "9071": " sleds",
  "9072": "ai",
  "9073": "creams",
  "9074": "iving",
  "9075": " ass",
  "9076": " comets",
  "9077": "upid",
  "9078": " Jelly",
  "9079": " Mag",
  "9080": " Shark",
  "9081": " sav",
  "9082": "Owl",
  "9083": " 4",
  "9084": " conversation",
  "9085": " officers",
  "9086": " papa",
  "9087": " situations",
  "9088": "Bug",
  "9089": " Charlotte",
  "9090": " Roger",
  "9091": "Rain",
  "9092": " ding",
  "9093": " suns",
  "9094": "aye",
  "9095": "storm",
  "9096": " Butter",
  "9097": " miller",
  "9098": " overwhel",
  "9099": " pizzas",
  "9100": " scurrying",
  "9101": " structures",
  "9102": " zips",
  "9103": "\u00e2\u0080\u009d,",
  "9104": " Amber",
  "9105": " Hurry",
  "9106": " Olivia",
  "9107": " foggy",
  "9108": " granddaughter",
  "9109": " Janey",
  "9110": "Zoe",
  "9111": " deserved",
  "9112": " webs",
  "9113": " Buster",
  "9114": " Mixie",
  "9115": " Sasha",
  "9116": " Spidey",
  "9117": " Yummy",
  "9118": " cubs",
  "9119": " opportunity",
  "9120": "Rabbit",
  "9121": " Gold",
  "9122": " differences",
  "9123": " rhino",
  "9124": " snorted",
  "9125": " Tell",
  "9126": " quacking",
  "9127": " Birds",
  "9128": " heaven",
  "9129": "Fifi",
  "9130": "ifully",
  "9131": " inchworm",
  "9132": " levers",
  "9133": " unlo",
  "9134": " Tyler",
  "9135": " approach",
  "9136": " inter",
  "9137": " Boom",
  "9138": " Felix",
  "9139": " Rufus",
  "9140": " cooperate",
  "9141": " pos",
  "9142": " possess",
  "9143": " seagulls",
  "9144": "?\u00e2\u0080\u009d.",
  "9145": "ragon",
  "9146": "sers",
  "9147": "welcome",
  "9148": " Smoke",
  "9149": " disappointment",
  "9150": " pose",
  "9151": "andra",
  "9152": " binoc",
  "9153": " sneaks",
  "9154": " speaks",
  "9155": " artwork",
  "9156": " binocular",
  "9157": "snap",
  "9158": " Snake",
  "9159": " answering",
  "9160": " scowl",
  "9161": " surfed",
  "9162": " Grand",
  "9163": " shortcut",
  "9164": " dep",
  "9165": " robin",
  "9166": " sipped",
  "9167": " Inky",
  "9168": " arrest",
  "9169": "Climb",
  "9170": " Amanda",
  "9171": " amused",
  "9172": " reun",
  "9173": " ribbit",
  "9174": " unwrapped",
  "9175": "ssy",
  "9176": " applause",
  "9177": " pepperoni",
  "9178": " repeats",
  "9179": "ugar",
  "9180": " Cars",
  "9181": " Mae",
  "9182": " checkout",
  "9183": " keyhole",
  "9184": " paddling",
  "9185": " puppets",
  "9186": " striking",
  "9187": " visitor",
  "9188": "Deal",
  "9189": "Lia",
  "9190": " Brian",
  "9191": " Circle",
  "9192": " attacked",
  "9193": " croaked",
  "9194": " unz",
  "9195": "Eat",
  "9196": " Gus",
  "9197": " Otto",
  "9198": " spooky",
  "9199": "orsie",
  "9200": " Jean",
  "9201": " beautifully",
  "9202": " groaned",
  "9203": "Each",
  "9204": " checking",
  "9205": " consider",
  "9206": " swimsuits",
  "9207": "cidents",
  "9208": "gar",
  "9209": "sie",
  "9210": " Yellow",
  "9211": "uses",
  "9212": " Slinky",
  "9213": " Squeak",
  "9214": " groom",
  "9215": " waters",
  "9216": "jest",
  "9217": " invent",
  "9218": "yle",
  "9219": " exams",
  "9220": " nets",
  "9221": "Luke",
  "9222": " Rebecca",
  "9223": " drying",
  "9224": "ets",
  "9225": "otion",
  "9226": " Auntie",
  "9227": " lump",
  "9228": " shrugs",
  "9229": "agine",
  "9230": "artin",
  "9231": "udy",
  "9232": " Since",
  "9233": " cheerfully",
  "9234": " heels",
  "9235": " honks",
  "9236": " shoots",
  "9237": " shyly",
  "9238": " sobbing",
  "9239": "lest",
  "9240": " chin",
  "9241": " shh",
  "9242": "esses",
  "9243": "hny",
  "9244": "ili",
  "9245": " hangs",
  "9246": " healthier",
  "9247": " whimpered",
  "9248": "anish",
  "9249": " Mus",
  "9250": "Milo",
  "9251": "icious",
  "9252": " caterpillars",
  "9253": " Ratty",
  "9254": " fries",
  "9255": " magnifying",
  "9256": " squinted",
  "9257": "Slowly",
  "9258": "izzes",
  "9259": " Find",
  "9260": " blamed",
  "9261": " fascinating",
  "9262": " Tip",
  "9263": " frustration",
  "9264": " sculp",
  "9265": " sculpture",
  "9266": "ching",
  "9267": " Penelope",
  "9268": " shimmering",
  "9269": "ouched",
  "9270": " Peace",
  "9271": " poss",
  "9272": " numbered",
  "9273": " pleas",
  "9274": " suck",
  "9275": "Sharing",
  "9276": "edic",
  "9277": " Waffle",
  "9278": " nibble",
  "9279": " baa",
  "9280": " flowing",
  "9281": "amil",
  "9282": "ellie",
  "9283": "ibbles",
  "9284": "othy",
  "9285": " Off",
  "9286": " grumbled",
  "9287": " raked",
  "9288": "Pepper",
  "9289": "hings",
  "9290": " builder",
  "9291": "Bubbles",
  "9292": "that",
  "9293": " Woolly",
  "9294": " facing",
  "9295": " guards",
  "9296": " petting",
  "9297": " swaying",
  "9298": "eat",
  "9299": "racted",
  "9300": " Har",
  "9301": " details",
  "9302": " mysteries",
  "9303": " sprinkle",
  "9304": " Boat",
  "9305": " enemy",
  "9306": " flock",
  "9307": " snort",
  "9308": "sey",
  "9309": " Barry",
  "9310": " Curious",
  "9311": " goodies",
  "9312": " tablet",
  "9313": " textures",
  "9314": " popping",
  "9315": " wig",
  "9316": "Yesterday",
  "9317": " Gracie",
  "9318": " Jenn",
  "9319": " countries",
  "9320": " crops",
  "9321": " fans",
  "9322": " marve",
  "9323": " stacks",
  "9324": " wildflowers",
  "9325": " Seeing",
  "9326": " Tessa",
  "9327": " knobs",
  "9328": "how",
  "9329": " bushy",
  "9330": " local",
  "9331": " Bubu",
  "9332": " angrier",
  "9333": " binoculars",
  "9334": " bowing",
  "9335": " drowned",
  "9336": " hunting",
  "9337": " peeped",
  "9338": " stew",
  "9339": " Match",
  "9340": " maps",
  "9341": " Glow",
  "9342": " moonlight",
  "9343": " niece",
  "9344": " quizzes",
  "9345": " Deal",
  "9346": " Johnson",
  "9347": " outfits",
  "9348": " crowded",
  "9349": " mindful",
  "9350": " wrench",
  "9351": " weaker",
  "9352": " whoosh",
  "9353": "OO",
  "9354": " Beef",
  "9355": " endings",
  "9356": "Squ",
  "9357": "cycles",
  "9358": " flashes",
  "9359": " hesitation",
  "9360": " property",
  "9361": "Im",
  "9362": "oll",
  "9363": " Andrew",
  "9364": " Oxy",
  "9365": " ability",
  "9366": " boil",
  "9367": " carts",
  "9368": " fond",
  "9369": " imaginations",
  "9370": " unless",
  "9371": "amiliar",
  "9372": " Accidents",
  "9373": " Right",
  "9374": " glared",
  "9375": "getic",
  "9376": " folds",
  "9377": " haven",
  "9378": " knit",
  "9379": " microw",
  "9380": " spaces",
  "9381": " unfamiliar",
  "9382": "stand",
  "9383": " Pet",
  "9384": " dirtier",
  "9385": " responsibility",
  "9386": "Tuna",
  "9387": "saw",
  "9388": "ths",
  "9389": " desks",
  "9390": " microwave",
  "9391": " pouch",
  "9392": "bank",
  "9393": " cracker",
  "9394": "Bless",
  "9395": "ibly",
  "9396": " Oxygen",
  "9397": " aston",
  "9398": " date",
  "9399": " member",
  "9400": " swapped",
  "9401": "rnie",
  "9402": " Ravi",
  "9403": " Ring",
  "9404": " Bun",
  "9405": " Helen",
  "9406": " Peggy",
  "9407": " disappearing",
  "9408": " doorstep",
  "9409": " rebu",
  "9410": " softened",
  "9411": " whine",
  "9412": "Cra",
  "9413": "Want",
  "9414": "free",
  "9415": "lt",
  "9416": " Chip",
  "9417": " natur",
  "9418": " quacks",
  "9419": " Fix",
  "9420": " Too",
  "9421": " listener",
  "9422": " writer",
  "9423": "scar",
  "9424": " Spicy",
  "9425": " blushed",
  "9426": " priv",
  "9427": " noticing",
  "9428": " palms",
  "9429": "venir",
  "9430": " Past",
  "9431": " souvenir",
  "9432": "peat",
  "9433": "poison",
  "9434": "upt",
  "9435": " Gabby",
  "9436": " Res",
  "9437": " Tra",
  "9438": " disaster",
  "9439": " laws",
  "9440": "endant",
  "9441": "entr",
  "9442": "repeat",
  "9443": " phones",
  "9444": "Robby",
  "9445": "reg",
  "9446": "str",
  "9447": " Bert",
  "9448": " Cut",
  "9449": " Coal",
  "9450": " Li",
  "9451": " confidence",
  "9452": "Ava",
  "9453": "ala",
  "9454": " overwhelmed",
  "9455": " stirs",
  "9456": " timid",
  "9457": " flick",
  "9458": " mayor",
  "9459": "Being",
  "9460": "ingly",
  "9461": " Mole",
  "9462": " Pretty",
  "9463": " tugging",
  "9464": "Che",
  "9465": "asmine",
  "9466": "guess",
  "9467": " injured",
  "9468": " mailing",
  "9469": " owls",
  "9470": " untangle",
  "9471": "lor",
  "9472": " Books",
  "9473": " Immediately",
  "9474": " White",
  "9475": " concentr",
  "9476": " satisfaction",
  "9477": "Whose",
  "9478": " Animals",
  "9479": " March",
  "9480": "Fly",
  "9481": " Eat",
  "9482": " lim",
  "9483": "Mittens",
  "9484": "Sc",
  "9485": "mers",
  "9486": " Bonnie",
  "9487": " Nora",
  "9488": " Wonder",
  "9489": " prank",
  "9490": "Mabel",
  "9491": "this",
  "9492": " Kn",
  "9493": " Melissa",
  "9494": " Pot",
  "9495": " Run",
  "9496": " Triangle",
  "9497": " hooves",
  "9498": "Wiggly",
  "9499": " Close",
  "9500": " Clean",
  "9501": " Sir",
  "9502": " Startled",
  "9503": " fixer",
  "9504": "Jeff",
  "9505": "well",
  "9506": " clut",
  "9507": " snar",
  "9508": "icate",
  "9509": " Trucky",
  "9510": " instrument",
  "9511": " skies",
  "9512": "Excited",
  "9513": "bling",
  "9514": "lish",
  "9515": " Faye",
  "9516": " Horsie",
  "9517": " Matilda",
  "9518": " capt",
  "9519": " desc",
  "9520": " disagre",
  "9521": "adually",
  "9522": " Sleepy",
  "9523": " creak",
  "9524": " pecks",
  "9525": " rinse",
  "9526": " stains",
  "9527": " wriggled",
  "9528": "iky",
  "9529": "Susan",
  "9530": " Crabby",
  "9531": " Heli",
  "9532": " Icy",
  "9533": " Sing",
  "9534": " bumping",
  "9535": " shave",
  "9536": " bending",
  "9537": " ruff",
  "9538": " swirl",
  "9539": "ulf",
  "9540": " Scissors",
  "9541": " chatted",
  "9542": " exploration",
  "9543": " sandpit",
  "9544": "Close",
  "9545": "Playing",
  "9546": "cessary",
  "9547": " facts",
  "9548": " lever",
  "9549": " rods",
  "9550": "Make",
  "9551": " Candy",
  "9552": " attaching",
  "9553": "Sm",
  "9554": " Bro",
  "9555": " burger",
  "9556": " fooled",
  "9557": " clearly",
  "9558": " concerned",
  "9559": " glows",
  "9560": " certainly",
  "9561": " compan",
  "9562": " lava",
  "9563": " reversing",
  "9564": " salon",
  "9565": "Maya",
  "9566": " circ",
  "9567": " fetched",
  "9568": " motorcycles",
  "9569": " smelt",
  "9570": "Wally",
  "9571": "els",
  "9572": " fireflies",
  "9573": " oldest",
  "9574": " prod",
  "9575": " sometime",
  "9576": " tunes",
  "9577": " troll",
  "9578": " blonde",
  "9579": " challenges",
  "9580": " kissing",
  "9581": "Ring",
  "9582": " Bobbie",
  "9583": " warmed",
  "9584": "Kayla",
  "9585": " Lots",
  "9586": " bound",
  "9587": " differently",
  "9588": " natural",
  "9589": " unlocking",
  "9590": " conquered",
  "9591": " cupcake",
  "9592": " cutter",
  "9593": " detect",
  "9594": " riverbank",
  "9595": " rubb",
  "9596": "Abracadabra",
  "9597": "Dino",
  "9598": "Tara",
  "9599": "erg",
  "9600": "sa",
  "9601": "urple",
  "9602": " Flap",
  "9603": " alley",
  "9604": " hates",
  "9605": " Flopsy",
  "9606": " Open",
  "9607": " realise",
  "9608": " sends",
  "9609": " swirls",
  "9610": "sorry",
  "9611": " Cammy",
  "9612": " banging",
  "9613": " munched",
  "9614": " sensation",
  "9615": " wiggling",
  "9616": "Isn",
  "9617": "Julia",
  "9618": " Reliable",
  "9619": " clips",
  "9620": " fist",
  "9621": " hippos",
  "9622": " toppings",
  "9623": " Greeny",
  "9624": " brakes",
  "9625": " halves",
  "9626": " miracle",
  "9627": " robe",
  "9628": " stings",
  "9629": " swayed",
  "9630": "Doctor",
  "9631": " Climb",
  "9632": " Pink",
  "9633": " ostriches",
  "9634": " survive",
  "9635": "Fish",
  "9636": "Hope",
  "9637": " bubbling",
  "9638": " crushed",
  "9639": " embra",
  "9640": " otherwise",
  "9641": " torto",
  "9642": "Michael",
  "9643": "bert",
  "9644": "keepers",
  "9645": "ula",
  "9646": " Looking",
  "9647": " tents",
  "9648": " Of",
  "9649": " repairing",
  "9650": "ani",
  "9651": " Flicker",
  "9652": " Working",
  "9653": " lizards",
  "9654": " rubbish",
  "9655": " stretchy",
  "9656": " vinegar",
  "9657": " Ed",
  "9658": " passenger",
  "9659": " Which",
  "9660": " pounced",
  "9661": " tortoise",
  "9662": " vibrant",
  "9663": "Many",
  "9664": "aste",
  "9665": " Grump",
  "9666": " Rh",
  "9667": " scene",
  "9668": "Suzie",
  "9669": " bas",
  "9670": " desperately",
  "9671": " glided",
  "9672": " mooed",
  "9673": "gr",
  "9674": " Lightning",
  "9675": " Sundays",
  "9676": " calmer",
  "9677": " copied",
  "9678": " intently",
  "9679": " majest",
  "9680": " poop",
  "9681": " snip",
  "9682": " Per",
  "9683": " coolest",
  "9684": " jing",
  "9685": " joyfully",
  "9686": " judges",
  "9687": " rags",
  "9688": " twel",
  "9689": " woken",
  "9690": "net",
  "9691": "ooh",
  "9692": "rap",
  "9693": " Jody",
  "9694": " glob",
  "9695": " lectures",
  "9696": "smelling",
  "9697": " astonished",
  "9698": " cousins",
  "9699": " hips",
  "9700": "isible",
  "9701": "lyn",
  "9702": " Lu",
  "9703": " Outside",
  "9704": " capes",
  "9705": " arrives",
  "9706": " gooey",
  "9707": " guesses",
  "9708": " invisible",
  "9709": " reunited",
  "9710": " speaker",
  "9711": " successfully",
  "9712": "Eww",
  "9713": "uno",
  "9714": " bats",
  "9715": " twelve",
  "9716": "why",
  "9717": " Carla",
  "9718": " chatting",
  "9719": " computers",
  "9720": " goodness",
  "9721": "Mikey",
  "9722": "urity",
  "9723": " snowflake",
  "9724": " stacking",
  "9725": "mie",
  "9726": " commun",
  "9727": " companion",
  "9728": " desperate",
  "9729": " parks",
  "9730": " pounds",
  "9731": " racer",
  "9732": " reappeared",
  "9733": "istory",
  "9734": " ank",
  "9735": " dou",
  "9736": " level",
  "9737": " luckiest",
  "9738": "Ol",
  "9739": "Zigzag",
  "9740": "bed",
  "9741": " Sugar",
  "9742": " crickets",
  "9743": " dumb",
  "9744": " gall",
  "9745": " sells",
  "9746": " stomachs",
  "9747": " tale",
  "9748": " Steven",
  "9749": " disagreement",
  "9750": " disobeyed",
  "9751": " gates",
  "9752": " sus",
  "9753": " winds",
  "9754": "Nick",
  "9755": "iggles",
  "9756": " Whee",
  "9757": " awh",
  "9758": " awhile",
  "9759": " crisp",
  "9760": " hoses",
  "9761": " pearls",
  "9762": "More",
  "9763": " Orange",
  "9764": " loyalty",
  "9765": " popsic",
  "9766": " soda",
  "9767": "Lou",
  "9768": "ites",
  "9769": " Rosa",
  "9770": " tongues",
  "9771": "Linda",
  "9772": " CD",
  "9773": " rider",
  "9774": "rent",
  "9775": "usion",
  "9776": " Black",
  "9777": "Ooh",
  "9778": " Annabelle",
  "9779": " Law",
  "9780": " abo",
  "9781": " surely",
  "9782": "pan",
  "9783": " bund",
  "9784": " occasion",
  "9785": "colored",
  "9786": "des",
  "9787": " chicks",
  "9788": " guitars",
  "9789": " stun",
  "9790": "!\u00e2\u0080\u0099",
  "9791": "dog",
  "9792": "izza",
  "9793": "rum",
  "9794": " April",
  "9795": " Iron",
  "9796": " Raven",
  "9797": " aboard",
  "9798": " alligators",
  "9799": " intelligence",
  "9800": " rebuild",
  "9801": " seashe",
  "9802": " separating",
  "9803": "chief",
  "9804": " Violet",
  "9805": " Winky",
  "9806": " creep",
  "9807": " croak",
  "9808": "Found",
  "9809": " Care",
  "9810": " Old",
  "9811": " cuc",
  "9812": " caution",
  "9813": " learner",
  "9814": "Catch",
  "9815": "Something",
  "9816": "aids",
  "9817": " Uni",
  "9818": " rins",
  "9819": " revealing",
  "9820": " spiky",
  "9821": " whines",
  "9822": "solut",
  "9823": " Settle",
  "9824": " escap",
  "9825": " tickling",
  "9826": "working",
  "9827": " Ba",
  "9828": " Coby",
  "9829": " Roar",
  "9830": " crouched",
  "9831": " globe",
  "9832": " underwater",
  "9833": " ''",
  "9834": " appearance",
  "9835": " blooms",
  "9836": " prog",
  "9837": "!'.",
  "9838": "everse",
  "9839": "udge",
  "9840": " Socky",
  "9841": " guardian",
  "9842": " hatched",
  "9843": " leaking",
  "9844": " strokes",
  "9845": "Jan",
  "9846": "fived",
  "9847": "ifer",
  "9848": "seph",
  "9849": "stop",
  "9850": "urricane",
  "9851": " doves",
  "9852": " persistence",
  "9853": " routine",
  "9854": " tant",
  "9855": " zookeepers",
  "9856": "arning",
  "9857": "ealing",
  "9858": " admit",
  "9859": " blame",
  "9860": " lighting",
  "9861": " painful",
  "9862": " quilt",
  "9863": " squashes",
  "9864": " taps",
  "9865": "Chicky",
  "9866": "Sleep",
  "9867": "Snap",
  "9868": " Puff",
  "9869": " deeply",
  "9870": " mold",
  "9871": " ripp",
  "9872": " shattered",
  "9873": " tempting",
  "9874": "Ahh",
  "9875": "Toys",
  "9876": " Spin",
  "9877": " burgers",
  "9878": " centre",
  "9879": " electricity",
  "9880": " peeks",
  "9881": " security",
  "9882": " squirted",
  "9883": " throne",
  "9884": "Matt",
  "9885": "Ralph",
  "9886": "Three",
  "9887": "ggles",
  "9888": " Liam",
  "9889": " allowing",
  "9890": " cooks",
  "9891": " realizing",
  "9892": "con",
  "9893": "emon",
  "9894": " chopping",
  "9895": " exchange",
  "9896": " lar",
  "9897": "Jessica",
  "9898": "cker",
  "9899": "orth",
  "9900": "ushes",
  "9901": " Alf",
  "9902": " Quickly",
  "9903": " Race",
  "9904": " sweetly",
  "9905": "Sophia",
  "9906": "Share",
  "9907": " glittered",
  "9908": " rinsed",
  "9909": " sweeter",
  "9910": "oss",
  "9911": "vering",
  "9912": "isapp",
  "9913": " Inch",
  "9914": " builders",
  "9915": " defeated",
  "9916": " energetic",
  "9917": " furious",
  "9918": " goggles",
  "9919": " melody",
  "9920": " melts",
  "9921": "Sw",
  "9922": "Zero",
  "9923": " Comet",
  "9924": " Cats",
  "9925": " Otherwise",
  "9926": " chooses",
  "9927": " sniffled",
  "9928": " tantrum",
  "9929": " waded",
  "9930": "asy",
  "9931": " Giant",
  "9932": " competing",
  "9933": " container",
  "9934": " Mila",
  "9935": " Sharp",
  "9936": "bang",
  "9937": "eremy",
  "9938": " Duke",
  "9939": " Park",
  "9940": " Rara",
  "9941": " attempts",
  "9942": " hudd",
  "9943": " lull",
  "9944": " larger",
  "9945": " protection",
  "9946": " seriously",
  "9947": " undone",
  "9948": "arted",
  "9949": " Cher",
  "9950": " Pinchy",
  "9951": " Whale",
  "9952": " buckles",
  "9953": " cluck",
  "9954": " cooed",
  "9955": " helicopters",
  "9956": " tossing",
  "9957": "Lizzie",
  "9958": "Shoo",
  "9959": " Over",
  "9960": " Smo",
  "9961": " Tears",
  "9962": "Sweet",
  "9963": " Din",
  "9964": " Hor",
  "9965": " Ma",
  "9966": " courageous",
  "9967": " dedic",
  "9968": " hummed",
  "9969": "Squeaky",
  "9970": "Still",
  "9971": "solutely",
  "9972": " Things",
  "9973": " aloud",
  "9974": " deserves",
  "9975": " god",
  "9976": " muster",
  "9977": " patients",
  "9978": " racers",
  "9979": "Curious",
  "9980": "Everything",
  "9981": "Maddy",
  "9982": " Dragon",
  "9983": " Squee",
  "9984": "Use",
  "9985": "aps",
  "9986": " Jet",
  "9987": " Liza",
  "9988": " Rusty",
  "9989": " marvel",
  "9990": " meets",
  "9991": " tours",
  "9992": " Crusty",
  "9993": " Hops",
  "9994": " Reddy",
  "9995": " wrapper",
  "9996": "Froggy",
  "9997": " booth",
  "9998": " improving",
  "9999": " nicest"
}
