{
  "0": "\u0000",
  "1": "\u0001",
  "2": "\u0002",
  "3": "\u0003",
  "4": "\u0004",
  "5": "\u0005",
  "6": "\u0006",
  "7": "\u0007",
  "8": "\b",
  "9": "\t",
  "10": "\n",
  "11": "\u000b",
  "12": "\f",
  "13": "\r",
  "14": "\u000e",
  "15": "\u000f",
  "16": "\u0010",
  "17": "\u0011",
  "18": "\u0012",
  "19": "\u0013",
  "20": "\u0014",
  "21": "\u0015",
  "22": "\u0016",
  "23": "\u0017",
  "24": "\u0018",
  "25": "\u0019",
  "26": "\u001a",
  "27": "\u001b",
  "28": "\u001c",
  "29": "\u001d",
  "30": "\u001e",
  "31": "\u001f",
  "32": " ",
  "33": "!",
  "34": "\"",
  "35": "#",
  "36": "$",
  "37": "%",
  "38": "&",
  "39": "'",
  "40": "(",
  "41": ")",
  "42": "*",
  "43": "+",
  "44": ",",
  "45": "-",
  "46": ".",
  "47": "/",
  "48": "0",
  "49": "1",
  "50": "2",
  "51": "3",
  "52": "4",
  "53": "5",
  "54": "6",
  "55": "7",
  "56": "8",
  "57": "9",
  "58": ":",
  "59": ";",
  "60": "<",
  "61": "=",
  "62": ">",
  "63": "?",
  "64": "@",
  "65": "A",
  "66": "B",
  "67": "C",
  "68": "D",
  "69": "E",
  "70": "F",
  "71": "G",
  "72": "H",
  "73": "I",
  "74": "J",
  "75": "K",
  "76": "L",
  "77": "M",
  "78": "N",
  "79": "O",
  "80": "P",
  "81": "Q",
  "82": "R",
  "83": "S",
  "84": "T",
  "85": "U",
  "86": "V",
  "87": "W",
  "88": "X",
  "89": "Y",
  "90": "Z",
  "91": "[",
  "92": "\\",
  "93": "]",
  "94": "^",
  "95": "_",
  "96": "`",
  "97": "a",
  "98": "b",
  "99": "c",
  "100": "d",
  "101": "e",
  "102": "f",
  "103": "g",
  "104": "h",
  "105": "i",
  "106": "j",
  "107": "k",
  "108": "l",
  "109": "m",
  "110": "n",
  "111": "o",
  "112": "p",
  "113": "q",
  "114": "r",
  "115": "s",
  "116": "t",
  "117": "u",
  "118": "v",
  "119": "w",
  "120": "x",
  "121": "y",
  "122": "z",
  "123": "{",
  "124": "|",
  "125": "}",
  "126": "~",
  "127": "",
  "128": "80",
  "129": "81",
  "130": "82",
  "131": "83",
  "132": "84",
  "133": "85",
  "134": "86",
  "135": "87",
  "136": "88",
  "137": "89",
  "138": "8a",
  "139": "8b",
  "140": "8c",
  "141": "8d",
  "142": "8e",
  "143": "8f",
  "144": "90",
  "145": "91",
  "146": "92",
  "147": "93",
  "148": "94",
  "149": "95",
  "150": "96",
  "151": "97",
  "152": "98",
  "153": "99",
  "154": "9a",
  "155": "9b",
  "156": "9c",
  "157": "9d",
  "158": "9e",
  "159": "9f",
  "160": "a0",
  "161": "a1",
  "162": "a2",
  "163": "a3",
  "164": "a4",
  "165": "a5",
  "166": "a6",
  "167": "a7",
  "168": "a8",
  "169": "a9",
  "170": "aa",
  "171": "ab",
  "172": "ac",
  "173": "ad",
  "174": "ae",
  "175": "af",
  "176": "b0",
  "177": "b1",
  "178": "b2",
  "179": "b3",
  "180": "b4",
  "181": "b5",
  "182": "b6",
  "183": "b7",
  "184": "b8",
  "185": "b9",
  "186": "ba",
  "187": "bb",
  "188": "bc",
  "189": "bd",
  "190": "be",
  "191": "bf",
  "192": "c0",
  "193": "c1",
  "194": "c2",
  "195": "c3",
  "196": "c4",
  "197": "c5",
  "198": "c6",
  "199": "c7",
  "200": "c8",
  "201": "c9",
  "202": "ca",
  "203": "cb",
  "204": "cc",
  "205": "cd",
  "206": "ce",
  "207": "cf",
  "208": "d0",
  "209": "d1",
  "210": "d2",
  "211": "d3",
  "212": "d4",
  "213": "d5",
  "214": "d6",
  "215": "d7",
  "216": "d8",
  "217": "d9",
  "218": "da",
  "219": "db",
  "220": "dc",
  "221": "dd",
  "222": "de",
  "223": "df",
  "224": "e0",
  "225": "e1",
  "226": "e2",
  "227": "e3",
  "228": "e4",
  "229": "e5",
  "230": "e6",
  "231": "e7",
  "232": "e8",
  "233": "e9",
  "234": "ea",
  "235": "eb",
  "236": "ec",
  "237": "ed",
  "238": "ee",
  "239": "ef",
  "240": "f0",
  "241": "f1",
  "242": "f2",
  "243": "f3",
  "244": "f4",
  "245": "f5",
  "246": "f6",
  "247": "f7",
  "248": "f8",
  "249": "f9",
  "250": "fa",
  "251": "fb",
  "252": "fc",
  "253": "fd",
  "254": "fe",
  "255": "ff",
  "256": "<|endoftext|>",
  "257": "he",
  "258": " t",
  "259": " a",
  "260": " s",
  "261": " w",
  "262": "nd",
  "263": " the",
  "264": "ed",
  "265": " b",
  "266": " to",
  "267": " and",
  "268": " h",
  "269": " f",
  "270": "in",
  "271": " wa",
  "272": " T",
  "273": "it",
  "274": "re",
  "275": "ou",
  "276": " l",
  "277": " d",
  "278": " c",
  "279": " p",
  "280": "ay",
  "281": " was",
  "282": "er",
  "283": " m",
  "284": "om",
  "285": " he",
  "286": " The",
  "287": "is",
  "288": " n",
  "289": "on",
  "290": "ar",
  "291": "im",
  "292": " sa",
  "293": "ll",
  "294": "id",
  "295": " ha",
  "296": " g",
  "297": " S",
  "298": "at",
  "299": "ing",
  "300": "ot",
  "301": "en",
  "302": "an",
  "303": "le",
  "304": "or",
  "305": "ir",
  "306": " H",
  "307": "am",
  "308": "et",
  "309": " it",
  "310": " th",
  "311": "ig",
  "312": " They",
  "313": "il",
  "314": " in",
  "315": " He",
  "316": " pl",
  "317": " \"",
  "318": "ow",
  "319": "ver",
  "320": "ri",
  "321": " u",
  "322": "ut",
  "323": " day",
  "324": " said",
  "325": "ith",
  "326": "pp",
  "327": " play",
  "328": " be",
  "329": "On",
  "330": " with",
  "331": " o",
  "332": " y",
  "333": " her",
  "334": " r",
  "335": "oo",
  "336": "ked",
  "337": "ce",
  "338": " his",
  "339": " She",
  "340": " I",
  "341": "ld",
  "342": " st",
  "343": " Tim",
  "344": "ke",
  "345": " e",
  "346": "nt",
  "347": "ck",
  "348": " big",
  "349": "very",
  "350": " you",
  "351": "ve",
  "352": "st",
  "353": " happ",
  "354": " on",
  "355": "end",
  "356": "un",
  "357": "all",
  "358": "ily",
  "359": "riend",
  "360": " friend",
  "361": " L",
  "362": " up",
  "363": " they",
  "364": " want",
  "365": " we",
  "366": " had",
  "367": " not",
  "368": "her",
  "369": " li",
  "370": "itt",
  "371": " do",
  "372": " of",
  "373": " B",
  "374": "ad",
  "375": "es",
  "376": " happy",
  "377": " M",
  "378": "ent",
  "379": " very",
  "380": " that",
  "381": "One",
  "382": " saw",
  "383": " mom",
  "384": "ould",
  "385": "'s",
  "386": "se",
  "387": " for",
  "388": "ittle",
  "389": " little",
  "390": " so",
  "391": " she",
  "392": " sh",
  "393": "ime",
  "394": " k",
  "395": " time",
  "396": " ne",
  "397": " nam",
  "398": "ch",
  "399": " there",
  "400": ".\"",
  "401": "ound",
  "402": " bo",
  "403": " named",
  "404": " Lily",
  "405": "ird",
  "406": " sm",
  "407": " wanted",
  "408": " bird",
  "409": " Tom",
  "410": "ved",
  "411": " were",
  "412": " but",
  "413": "The",
  "414": " friends",
  "415": "!\"",
  "416": "out",
  "417": "ht",
  "418": "el",
  "419": "ake",
  "420": "al",
  "421": " an",
  "422": " too",
  "423": "ide",
  "424": " hel",
  "425": "Once",
  "426": " wh",
  "427": " help",
  "428": "ug",
  "429": "ome",
  "430": " went",
  "431": " all",
  "432": " It",
  "433": " A",
  "434": " loo",
  "435": " is",
  "436": " upon",
  "437": " lo",
  "438": "ue",
  "439": "ter",
  "440": "ry",
  "441": "ore",
  "442": "ind",
  "443": "get",
  "444": " fun",
  "445": " toy",
  "446": "ill",
  "447": "ack",
  "448": "gether",
  "449": " at",
  "450": " j",
  "451": " as",
  "452": " did",
  "453": "ame",
  "454": " re",
  "455": " together",
  "456": "ur",
  "457": " cat",
  "458": "ra",
  "459": " dog",
  "460": " se",
  "461": "ly",
  "462": " tre",
  "463": "ood",
  "464": " gir",
  "465": " can",
  "466": "ic",
  "467": " ball",
  "468": "my",
  "469": " girl",
  "470": " could",
  "471": "ard",
  "472": "ted",
  "473": " him",
  "474": " their",
  "475": "ec",
  "476": "ark",
  "477": " ro",
  "478": "way",
  "479": " kn",
  "480": " played",
  "481": "?\"",
  "482": "hed",
  "483": " fr",
  "484": "ain",
  "485": "hen",
  "486": " le",
  "487": " out",
  "488": "um",
  "489": "'t",
  "490": "ax",
  "491": " go",
  "492": " them",
  "493": " are",
  "494": " boy",
  "495": " sad",
  "496": "ul",
  "497": "oug",
  "498": " have",
  "499": " tree",
  "500": " cl",
  "501": " loved",
  "502": "other",
  "503": " back",
  "504": " looked",
  "505": " sp",
  "506": " found",
  "507": "own",
  "508": "one",
  "509": " Max",
  "510": " me",
  "511": " sc",
  "512": " man",
  "513": "are",
  "514": " star",
  "515": " Sue",
  "516": "hing",
  "517": "side",
  "518": " park",
  "519": "ong",
  "520": "op",
  "521": "ful",
  "522": " bec",
  "523": " like",
  "524": " would",
  "525": " liked",
  "526": "elt",
  "527": "round",
  "528": " One",
  "529": " felt",
  "530": "ight",
  "531": " fa",
  "532": " Ben",
  "533": " la",
  "534": " W",
  "535": "ell",
  "536": " make",
  "537": " But",
  "538": "You",
  "539": " asked",
  "540": " new",
  "541": "ice",
  "542": "iled",
  "543": "ss",
  "544": "ared",
  "545": "ag",
  "546": " Sam",
  "547": "ought",
  "548": " see",
  "549": "omet",
  "550": " al",
  "551": " started",
  "552": " ag",
  "553": " came",
  "554": " no",
  "555": " smiled",
  "556": " car",
  "557": " other",
  "558": "ried",
  "559": " somet",
  "560": " good",
  "561": " say",
  "562": " br",
  "563": " small",
  "564": "ade",
  "565": "pot",
  "566": "ob",
  "567": "ings",
  "568": " wor",
  "569": " away",
  "570": "ab",
  "571": "ouse",
  "572": " find",
  "573": "us",
  "574": " ex",
  "575": " from",
  "576": " put",
  "577": "ty",
  "578": " thought",
  "579": " what",
  "580": " made",
  "581": "ened",
  "582": " playing",
  "583": "ie",
  "584": " home",
  "585": "king",
  "586": " wal",
  "587": "ach",
  "588": " something",
  "589": "ia",
  "590": "ile",
  "591": " every",
  "592": " ran",
  "593": " Spot",
  "594": " again",
  "595": " F",
  "596": " co",
  "597": "ave",
  "598": "uc",
  "599": "arn",
  "600": " box",
  "601": " down",
  "602": "dd",
  "603": " toys",
  "604": "ook",
  "605": " J",
  "606": " pr",
  "607": " took",
  "608": " sw",
  "609": " some",
  "610": "if",
  "611": " laug",
  "612": "oud",
  "613": "ust",
  "614": "ew",
  "615": " sun",
  "616": " around",
  "617": "ny",
  "618": " scared",
  "619": " lived",
  "620": " learn",
  "621": " will",
  "622": " my",
  "623": " fl",
  "624": "ure",
  "625": " your",
  "626": "ick",
  "627": "ret",
  "628": "ep",
  "629": " house",
  "630": " when",
  "631": " You",
  "632": " things",
  "633": " bl",
  "634": ",\"",
  "635": "ank",
  "636": "uck",
  "637": " then",
  "638": "pped",
  "639": " Mia",
  "640": "ist",
  "641": "Th",
  "642": " bot",
  "643": " ab",
  "644": "ish",
  "645": " who",
  "646": " get",
  "647": " know",
  "648": "ucy",
  "649": " fe",
  "650": "as",
  "651": " tried",
  "652": " got",
  "653": " knew",
  "654": "ited",
  "655": " lot",
  "656": "uch",
  "657": " says",
  "658": "ally",
  "659": "ap",
  "660": " int",
  "661": " ch",
  "662": "ive",
  "663": " red",
  "664": "Tim",
  "665": "nder",
  "666": "ump",
  "667": "Lily",
  "668": " pret",
  "669": "ous",
  "670": " about",
  "671": " care",
  "672": "fter",
  "673": " dec",
  "674": " So",
  "675": " op",
  "676": "fe",
  "677": " look",
  "678": " D",
  "679": " many",
  "680": "use",
  "681": " un",
  "682": " more",
  "683": "ise",
  "684": "ways",
  "685": " E",
  "686": "nn",
  "687": " exc",
  "688": " Mom",
  "689": " always",
  "690": " pic",
  "691": " po",
  "692": "e280",
  "693": " best",
  "694": "qu",
  "695": " any",
  "696": " show",
  "697": " both",
  "698": " Lucy",
  "699": "ite",
  "700": " room",
  "701": " hug",
  "702": "ace",
  "703": "ers",
  "704": "ause",
  "705": " into",
  "706": " water",
  "707": " became",
  "708": " outside",
  "709": " learned",
  "710": " laughed",
  "711": "udd",
  "712": " dad",
  "713": "ided",
  "714": "ant",
  "715": " because",
  "716": " one",
  "717": " gre",
  "718": " pe",
  "719": " decided",
  "720": " And",
  "721": "pr",
  "722": " excited",
  "723": " v",
  "724": "Yes",
  "725": " nice",
  "726": " ho",
  "727": "nna",
  "728": " ke",
  "729": " eat",
  "730": " sor",
  "731": " this",
  "732": "ara",
  "733": " jump",
  "734": " long",
  "735": " feel",
  "736": "They",
  "737": " Bob",
  "738": "Tom",
  "739": " mo",
  "740": " told",
  "741": " run",
  "742": "ull",
  "743": "ink",
  "744": " sur",
  "745": " rock",
  "746": " inside",
  "747": " pretty",
  "748": " sl",
  "749": " sk",
  "750": "lew",
  "751": "iny",
  "752": " take",
  "753": " am",
  "754": " gave",
  "755": " surpr",
  "756": " fast",
  "757": " each",
  "758": " tow",
  "759": "our",
  "760": "ess",
  "761": "ro",
  "762": "ven",
  "763": "ged",
  "764": " sorry",
  "765": " need",
  "766": " or",
  "767": " much",
  "768": " than",
  "769": "urt",
  "770": " how",
  "771": "ised",
  "772": " str",
  "773": "able",
  "774": " under",
  "775": "Wh",
  "776": "og",
  "777": "ge",
  "778": " kind",
  "779": "and",
  "780": " gra",
  "781": " Amy",
  "782": "imal",
  "783": "ving",
  "784": " animal",
  "785": "ft",
  "786": " ta",
  "787": "But",
  "788": " food",
  "789": "etter",
  "790": "Can",
  "791": " walked",
  "792": " We",
  "793": " tr",
  "794": " wat",
  "795": " hand",
  "796": " old",
  "797": " His",
  "798": " list",
  "799": " hig",
  "800": "ff",
  "801": " just",
  "802": " clo",
  "803": " flow",
  "804": " en",
  "805": "rom",
  "806": " cle",
  "807": "ched",
  "808": " didn",
  "809": "urn",
  "810": " ide",
  "811": "eci",
  "812": "Mom",
  "813": "ase",
  "814": " try",
  "815": " idea",
  "816": " dan",
  "817": "ion",
  "818": "here",
  "819": " sky",
  "820": " its",
  "821": "ecial",
  "822": " special",
  "823": " near",
  "824": " flew",
  "825": " us",
  "826": " Anna",
  "827": " tw",
  "828": " happened",
  "829": "pl",
  "830": "gry",
  "831": " fo",
  "832": "ine",
  "833": " fi",
  "834": " sn",
  "835": " Th",
  "836": "Thank",
  "837": " if",
  "838": " cake",
  "839": "ber",
  "840": " fish",
  "841": " animals",
  "842": " stor",
  "843": " over",
  "844": " bug",
  "845": "lf",
  "846": " heard",
  "847": "ate",
  "848": " careful",
  "849": "ex",
  "850": " com",
  "851": "udden",
  "852": "rm",
  "853": " better",
  "854": " lots",
  "855": " by",
  "856": " let",
  "857": " hard",
  "858": " wind",
  "859": " never",
  "860": " hurt",
  "861": " bear",
  "862": " share",
  "863": "ople",
  "864": " Every",
  "865": " dre",
  "866": "uddenly",
  "867": "more",
  "868": " anymore",
  "869": " even",
  "870": " te",
  "871": "ort",
  "872": " tal",
  "873": "pec",
  "874": " fly",
  "875": " Sara",
  "876": " safe",
  "877": " love",
  "878": "ady",
  "879": " bu",
  "880": " end",
  "881": " don",
  "882": " K",
  "883": " fore",
  "884": "\n\n",
  "885": " give",
  "886": " people",
  "887": " after",
  "888": " clean",
  "889": "uff",
  "890": " proud",
  "891": " opened",
  "892": "bed",
  "893": "'m",
  "894": " high",
  "895": " gr",
  "896": " fam",
  "897": " bad",
  "898": " door",
  "899": " surprised",
  "900": " Then",
  "901": "itty",
  "902": "ak",
  "903": " turn",
  "904": "As",
  "905": " gl",
  "906": "age",
  "907": " From",
  "908": "ummy",
  "909": "ough",
  "910": " ground",
  "911": " clim",
  "912": " Her",
  "913": " thanked",
  "914": " im",
  "915": " When",
  "916": "iz",
  "917": " blue",
  "918": " call",
  "919": " book",
  "920": "kay",
  "921": "arden",
  "922": " garden",
  "923": "ild",
  "924": " far",
  "925": " ma",
  "926": " ever",
  "927": " way",
  "928": "pected",
  "929": " hugged",
  "930": " che",
  "931": " shiny",
  "932": " col",
  "933": " picked",
  "934": "Let",
  "935": " smile",
  "936": " mag",
  "937": " loud",
  "938": " cu",
  "939": " off",
  "940": " should",
  "941": " come",
  "942": " In",
  "943": "expected",
  "944": " unexpected",
  "945": "xt",
  "946": " next",
  "947": " stick",
  "948": " place",
  "949": " walk",
  "950": " N",
  "951": "ture",
  "952": " family",
  "953": "hes",
  "954": "em",
  "955": " qu",
  "956": " color",
  "957": "by",
  "958": " P",
  "959": " still",
  "960": "ip",
  "961": " unt",
  "962": " strong",
  "963": " great",
  "964": " boat",
  "965": " app",
  "966": "les",
  "967": " hat",
  "968": "oy",
  "969": " happily",
  "970": " bro",
  "971": "ool",
  "972": " until",
  "973": " jumped",
  "974": " town",
  "975": " ca",
  "976": " frog",
  "977": "dy",
  "978": " kid",
  "979": " helped",
  "980": " Sally",
  "981": " forest",
  "982": "ies",
  "983": " sto",
  "984": "orn",
  "985": "ct",
  "986": " doll",
  "987": "aut",
  "988": " squ",
  "989": "ary",
  "990": " Kitty",
  "991": " beaut",
  "992": " listen",
  "993": " showed",
  "994": " met",
  "995": " now",
  "996": "No",
  "997": "uffy",
  "998": " par",
  "999": " magic",
  "1000": "oon",
  "1001": "raw",
  "1002": " while",
  "1003": " open",
  "1004": " story",
  "1005": "iful",
  "1006": " rem",
  "1007": " picture",
  "1008": "lease",
  "1009": " beautiful",
  "1010": " bra",
  "1011": "th",
  "1012": "bit",
  "1013": " soft",
  "1014": "He",
  "1015": "abbit",
  "1016": " stay",
  "1017": " couldn",
  "1018": " clos",
  "1019": "ock",
  "1020": " called",
  "1021": "ush",
  "1022": "ane",
  "1023": " yummy",
  "1024": " kids",
  "1025": "pt",
  "1026": "It",
  "1027": " rabbit",
  "1028": " watch",
  "1029": "When",
  "1030": " slide",
  "1031": "luffy",
  "1032": " everyone",
  "1033": " ate",
  "1034": " pa",
  "1035": " being",
  "1036": " warm",
  "1037": " wo",
  "1038": " face",
  "1039": " fin",
  "1040": "illy",
  "1041": " de",
  "1042": " stopped",
  "1043": " ad",
  "1044": "rel",
  "1045": " tra",
  "1046": " thre",
  "1047": " flowers",
  "1048": " soon",
  "1049": " cry",
  "1050": "iss",
  "1051": " two",
  "1052": "vent",
  "1053": "fore",
  "1054": " imp",
  "1055": " angry",
  "1056": " keep",
  "1057": " hear",
  "1058": "unny",
  "1059": "dded",
  "1060": " store",
  "1061": " cre",
  "1062": " fell",
  "1063": "ished",
  "1064": " lost",
  "1065": " leave",
  "1066": "ired",
  "1067": " rain",
  "1068": " Let",
  "1069": "self",
  "1070": " pain",
  "1071": " having",
  "1072": "That",
  "1073": " fix",
  "1074": " cook",
  "1075": " Fluffy",
  "1076": " Wh",
  "1077": "owl",
  "1078": "day",
  "1079": " nodded",
  "1080": " C",
  "1081": "so",
  "1082": "ear",
  "1083": " sat",
  "1084": " brave",
  "1085": " where",
  "1086": "oh",
  "1087": " also",
  "1088": "”",
  "1089": " yell",
  "1090": " mommy",
  "1091": "“",
  "1092": "Ben",
  "1093": " before",
  "1094": "ohn",
  "1095": " game",
  "1096": " sand",
  "1097": " hands",
  "1098": " Now",
  "1099": " tired",
  "1100": "ud",
  "1101": "ger",
  "1102": "irst",
  "1103": " mean",
  "1104": " bre",
  "1105": "gan",
  "1106": "What",
  "1107": " work",
  "1108": "Hi",
  "1109": " use",
  "1110": " noise",
  "1111": " head",
  "1112": "be",
  "1113": " kept",
  "1114": " fav",
  "1115": "Look",
  "1116": " okay",
  "1117": "ble",
  "1118": " pie",
  "1119": " mon",
  "1120": " has",
  "1121": " z",
  "1122": " sing",
  "1123": " real",
  "1124": " green",
  "1125": " ey",
  "1126": " cou",
  "1127": " block",
  "1128": " wait",
  "1129": "irrel",
  "1130": " G",
  "1131": " think",
  "1132": " bed",
  "1133": "ange",
  "1134": "Then",
  "1135": " squirrel",
  "1136": " others",
  "1137": " catch",
  "1138": " R",
  "1139": "ember",
  "1140": " dress",
  "1141": "joy",
  "1142": " sunny",
  "1143": " shared",
  "1144": " funny",
  "1145": " “",
  "1146": "az",
  "1147": " looking",
  "1148": " duck",
  "1149": "itc",
  "1150": " pond",
  "1151": " dr",
  "1152": "ath",
  "1153": " mess",
  "1154": " hole",
  "1155": " bunny",
  "1156": " own",
  "1157": " expl",
  "1158": " beh",
  "1159": "uit",
  "1160": " used",
  "1161": " pull",
  "1162": " thr",
  "1163": "ello",
  "1164": "ect",
  "1165": "Hello",
  "1166": " going",
  "1167": " enjoy",
  "1168": " Mr",
  "1169": " Can",
  "1170": " Do",
  "1171": "oral",
  "1172": "leep",
  "1173": " making",
  "1174": " dif",
  "1175": "itchen",
  "1176": " right",
  "1177": " kitchen",
  "1178": " swing",
  "1179": " favor",
  "1180": "ster",
  "1181": "eet",
  "1182": " worked",
  "1183": " table",
  "1184": " remember",
  "1185": " favorite",
  "1186": " birds",
  "1187": " our",
  "1188": " move",
  "1189": " con",
  "1190": "ng",
  "1191": "ub",
  "1192": " jo",
  "1193": " agre",
  "1194": "ning",
  "1195": " truck",
  "1196": " vo",
  "1197": " eyes",
  "1198": " Jack",
  "1199": " moral",
  "1200": " lady",
  "1201": " curi",
  "1202": "imes",
  "1203": " flo",
  "1204": " cut",
  "1205": "ught",
  "1206": " sound",
  "1207": "thing",
  "1208": "lly",
  "1209": "We",
  "1210": "After",
  "1211": " curious",
  "1212": " yard",
  "1213": " tall",
  "1214": " cla",
  "1215": "ma",
  "1216": "aper",
  "1217": " climb",
  "1218": "que",
  "1219": " import",
  "1220": " first",
  "1221": " ice",
  "1222": " talk",
  "1223": " advent",
  "1224": "ious",
  "1225": " flower",
  "1226": "ila",
  "1227": " ask",
  "1228": " tri",
  "1229": " party",
  "1230": " forg",
  "1231": " bag",
  "1232": " dir",
  "1233": " watched",
  "1234": "ied",
  "1235": "aybe",
  "1236": " important",
  "1237": " blocks",
  "1238": " bab",
  "1239": " This",
  "1240": "led",
  "1241": " does",
  "1242": " here",
  "1243": " top",
  "1244": " grab",
  "1245": " cold",
  "1246": "ting",
  "1247": " tail",
  "1248": " ste",
  "1249": " dis",
  "1250": "ken",
  "1251": " hair",
  "1252": " bel",
  "1253": "At",
  "1254": " song",
  "1255": " pick",
  "1256": "zy",
  "1257": " yellow",
  "1258": " grass",
  "1259": " draw",
  "1260": "llow",
  "1261": " wr",
  "1262": " agreed",
  "1263": " hill",
  "1264": " sweet",
  "1265": " mouse",
  "1266": " bright",
  "1267": " began",
  "1268": "ign",
  "1269": " hun",
  "1270": " cloud",
  "1271": "fere",
  "1272": " rest",
  "1273": " baby",
  "1274": "af",
  "1275": " night",
  "1276": " Fin",
  "1277": "Don",
  "1278": " tast",
  "1279": " differe",
  "1280": " stop",
  "1281": " walking",
  "1282": "Wow",
  "1283": "Anna",
  "1284": " voice",
  "1285": " sleep",
  "1286": " Mommy",
  "1287": "ushed",
  "1288": "ient",
  "1289": "ced",
  "1290": " laugh",
  "1291": "Sara",
  "1292": " shar",
  "1293": " hop",
  "1294": " Suddenly",
  "1295": "cked",
  "1296": " touch",
  "1297": "ppy",
  "1298": " hid",
  "1299": " clot",
  "1300": "oom",
  "1301": "ached",
  "1302": " follow",
  "1303": " surprise",
  "1304": " piece",
  "1305": "co",
  "1306": "Max",
  "1307": " please",
  "1308": " feeling",
  "1309": " different",
  "1310": " dance",
  "1311": " another",
  "1312": " leaves",
  "1313": "Why",
  "1314": " prom",
  "1315": " cried",
  "1316": " hungry",
  "1317": " race",
  "1318": " gone",
  "1319": " shout",
  "1320": " needed",
  "1321": "air",
  "1322": " fair",
  "1323": " closer",
  "1324": " bus",
  "1325": "’",
  "1326": " thing",
  "1327": " per",
  "1328": " floor",
  "1329": " farm",
  "1330": " cr",
  "1331": " trees",
  "1332": "isy",
  "1333": "So",
  "1334": " helping",
  "1335": " swim",
  "1336": " hot",
  "1337": " behind",
  "1338": " tell",
  "1339": " read",
  "1340": " listened",
  "1341": " adventure",
  "1342": "Suddenly",
  "1343": " sho",
  "1344": " dark",
  "1345": "bo",
  "1346": " worry",
  "1347": " full",
  "1348": " climbed",
  "1349": "bye",
  "1350": " ac",
  "1351": " As",
  "1352": " ri",
  "1353": "key",
  "1354": "ered",
  "1355": " count",
  "1356": "Sam",
  "1357": " wood",
  "1358": " paper",
  "1359": " That",
  "1360": "av",
  "1361": " tiny",
  "1362": " must",
  "1363": " prin",
  "1364": " friendly",
  "1365": " fire",
  "1366": "ely",
  "1367": "ater",
  "1368": " turned",
  "1369": " sit",
  "1370": " apple",
  "1371": " Dad",
  "1372": " reached",
  "1373": " hold",
  "1374": " broken",
  "1375": " repl",
  "1376": " treat",
  "1377": "where",
  "1378": " pink",
  "1379": " colors",
  "1380": " smell",
  "1381": " ready",
  "1382": " All",
  "1383": "ash",
  "1384": " sees",
  "1385": " del",
  "1386": " been",
  "1387": " wonder",
  "1388": " roll",
  "1389": "She",
  "1390": " wag",
  "1391": " only",
  "1392": " fight",
  "1393": " window",
  "1394": " fall",
  "1395": " cast",
  "1396": " Everyone",
  "1397": "red",
  "1398": " goodbye",
  "1399": " owl",
  "1400": "iced",
  "1401": "Sue",
  "1402": " trying",
  "1403": " hide",
  "1404": " pushed",
  "1405": " din",
  "1406": " O",
  "1407": " looks",
  "1408": " bit",
  "1409": "ower",
  "1410": "'re",
  "1411": " train",
  "1412": " perf",
  "1413": " moment",
  "1414": " dri",
  "1415": " cream",
  "1416": " cars",
  "1417": "sh",
  "1418": " ar",
  "1419": " wise",
  "1420": " running",
  "1421": " glad",
  "1422": " doing",
  "1423": " slow",
  "1424": " reach",
  "1425": " done",
  "1426": " bar",
  "1427": " wear",
  "1428": " pretend",
  "1429": " less",
  "1430": " wet",
  "1431": " replied",
  "1432": " light",
  "1433": " dream",
  "1434": " stuck",
  "1435": " pu",
  "1436": " pot",
  "1437": " explore",
  "1438": "man",
  "1439": " scary",
  "1440": "ather",
  "1441": "nts",
  "1442": "avy",
  "1443": " name",
  "1444": "In",
  "1445": " close",
  "1446": " balloon",
  "1447": " lion",
  "1448": " Jane",
  "1449": " build",
  "1450": " paint",
  "1451": " nest",
  "1452": " dro",
  "1453": " bott",
  "1454": " amaz",
  "1455": " buy",
  "1456": "andy",
  "1457": " wall",
  "1458": " ra",
  "1459": " cool",
  "1460": " sure",
  "1461": " mum",
  "1462": "ield",
  "1463": "up",
  "1464": " set",
  "1465": " butter",
  "1466": "Oh",
  "1467": " miss",
  "1468": " Timmy",
  "1469": "orm",
  "1470": " broke",
  "1471": " After",
  "1472": "ike",
  "1473": "Mia",
  "1474": "oney",
  "1475": "oe",
  "1476": "atter",
  "1477": " shouted",
  "1478": " sometimes",
  "1479": " fruit",
  "1480": " coming",
  "1481": "Her",
  "1482": " threw",
  "1483": " swam",
  "1484": " snow",
  "1485": " clapped",
  "1486": " air",
  "1487": "ized",
  "1488": " job",
  "1489": " cont",
  "1490": " Bobo",
  "1491": "uddy",
  "1492": "ames",
  "1493": "aisy",
  "1494": " underst",
  "1495": " turns",
  "1496": " thank",
  "1497": " blew",
  "1498": "outh",
  "1499": " spl",
  "1500": " remembered",
  "1501": " mouth",
  "1502": " heavy",
  "1503": "art",
  "1504": " land",
  "1505": " dirty",
  "1506": "der",
  "1507": "ask",
  "1508": " grabbed",
  "1509": " books",
  "1510": "ucky",
  "1511": "ation",
  "1512": " left",
  "1513": " John",
  "1514": "ndma",
  "1515": " through",
  "1516": " join",
  "1517": " Lila",
  "1518": "gg",
  "1519": " pulled",
  "1520": " noticed",
  "1521": " fox",
  "1522": "room",
  "1523": "olly",
  "1524": " plan",
  "1525": " pen",
  "1526": " enjoyed",
  "1527": "pe",
  "1528": " world",
  "1529": " three",
  "1530": " mus",
  "1531": " clothes",
  "1532": " child",
  "1533": "ner",
  "1534": "ister",
  "1535": "\".",
  "1536": " why",
  "1537": " stayed",
  "1538": " might",
  "1539": " lesson",
  "1540": " gent",
  "1541": " deep",
  "1542": " cookies",
  "1543": "ape",
  "1544": "Bob",
  "1545": " white",
  "1546": " win",
  "1547": " waved",
  "1548": " pig",
  "1549": " hopped",
  "1550": " gif",
  "1551": " finished",
  "1552": " fill",
  "1553": " butterf",
  "1554": "Okay",
  "1555": " pictures",
  "1556": " leaf",
  "1557": " brother",
  "1558": " spot",
  "1559": " shop",
  "1560": " scre",
  "1561": " grow",
  "1562": " castle",
  "1563": "This",
  "1564": " colorful",
  "1565": "Lucy",
  "1566": " woods",
  "1567": " quick",
  "1568": " key",
  "1569": "John",
  "1570": "ully",
  "1571": "asure",
  "1572": " round",
  "1573": " everywhere",
  "1574": " There",
  "1575": "iet",
  "1576": " forgot",
  "1577": " arm",
  "1578": "ple",
  "1579": "ang",
  "1580": "ac",
  "1581": " quiet",
  "1582": "thy",
  "1583": " wished",
  "1584": " pare",
  "1585": " bran",
  "1586": " anything",
  "1587": "zz",
  "1588": "ssed",
  "1589": "lc",
  "1590": "imi",
  "1591": "icy",
  "1592": "fully",
  "1593": " gu",
  "1594": " dinner",
  "1595": "less",
  "1596": " himself",
  "1597": " Buddy",
  "1598": " Billy",
  "1599": "ds",
  "1600": " music",
  "1601": " held",
  "1602": " alone",
  "1603": " sister",
  "1604": " ride",
  "1605": " monster",
  "1606": " games",
  "1607": " wrong",
  "1608": " waited",
  "1609": " em",
  "1610": "ued",
  "1611": "ins",
  "1612": "ix",
  "1613": " sea",
  "1614": " Sarah",
  "1615": "rag",
  "1616": " seen",
  "1617": " break",
  "1618": " brought",
  "1619": "ton",
  "1620": " snack",
  "1621": " rel",
  "1622": " monkey",
  "1623": "rot",
  "1624": "ass",
  "1625": " well",
  "1626": " plant",
  "1627": " butterfly",
  "1628": "itten",
  "1629": "cle",
  "1630": " likes",
  "1631": " ju",
  "1632": " What",
  "1633": " egg",
  "1634": " danced",
  "1635": " dry",
  "1636": " bottle",
  "1637": " que",
  "1638": " year",
  "1639": " wants",
  "1640": " beach",
  "1641": "cess",
  "1642": " fairy",
  "1643": "row",
  "1644": "Amy",
  "1645": " makes",
  "1646": " cup",
  "1647": " bee",
  "1648": " att",
  "1649": " Daisy",
  "1650": "sc",
  "1651": " promised",
  "1652": " ve",
  "1653": "ph",
  "1654": " followed",
  "1655": " carefully",
  "1656": "ries",
  "1657": "ee",
  "1658": " quickly",
  "1659": " field",
  "1660": " Inside",
  "1661": " today",
  "1662": " To",
  "1663": " Em",
  "1664": " tower",
  "1665": " parents",
  "1666": " cra",
  "1667": " bigger",
  "1668": " Z",
  "1669": "Spot",
  "1670": "From",
  "1671": " gi",
  "1672": " ce",
  "1673": "ove",
  "1674": "ey",
  "1675": "ards",
  "1676": " nap",
  "1677": " gift",
  "1678": " danger",
  "1679": "onely",
  "1680": " silly",
  "1681": " sign",
  "1682": " lonely",
  "1683": " fre",
  "1684": "itch",
  "1685": ".”",
  "1686": " really",
  "1687": " orange",
  "1688": " kite",
  "1689": " faster",
  "1690": " Soon",
  "1691": " someone",
  "1692": " smart",
  "1693": " Mimi",
  "1694": "os",
  "1695": "cy",
  "1696": " without",
  "1697": " tight",
  "1698": " spr",
  "1699": " shin",
  "1700": " pol",
  "1701": " pre",
  "1702": " mar",
  "1703": " brown",
  "1704": " di",
  "1705": " wagged",
  "1706": " won",
  "1707": " talked",
  "1708": " pieces",
  "1709": " hit",
  "1710": " enough",
  "1711": " drink",
  "1712": "ated",
  "1713": " mail",
  "1714": " fur",
  "1715": " eating",
  "1716": " cro",
  "1717": " bath",
  "1718": "ren",
  "1719": "igg",
  "1720": "aught",
  "1721": "Do",
  "1722": " talking",
  "1723": " perfect",
  "1724": " pur",
  "1725": " lake",
  "1726": "ella",
  "1727": " sharing",
  "1728": "pper",
  "1729": "fish",
  "1730": "ence",
  "1731": " understand",
  "1732": " road",
  "1733": " mix",
  "1734": " contin",
  "1735": " branch",
  "1736": "oup",
  "1737": " belie",
  "1738": "itting",
  "1739": "amed",
  "1740": " wish",
  "1741": " pet",
  "1742": "His",
  "1743": " realized",
  "1744": " king",
  "1745": " ant",
  "1746": " rocks",
  "1747": " poin",
  "1748": " living",
  "1749": " ear",
  "1750": " children",
  "1751": "orning",
  "1752": "iver",
  "1753": " welc",
  "1754": " morning",
  "1755": " jar",
  "1756": "oun",
  "1757": "arm",
  "1758": "ance",
  "1759": " yes",
  "1760": " stone",
  "1761": " side",
  "1762": " num",
  "1763": " flying",
  "1764": " filled",
  "1765": " dolls",
  "1766": " delic",
  "1767": " cow",
  "1768": "ze",
  "1769": " worried",
  "1770": " throw",
  "1771": " pat",
  "1772": " owner",
  "1773": " juice",
  "1774": " continued",
  "1775": " buck",
  "1776": " bike",
  "1777": "ract",
  "1778": "pping",
  "1779": " smiles",
  "1780": " ph",
  "1781": " finally",
  "1782": " comp",
  "1783": " carrot",
  "1784": " Tommy",
  "1785": "ord",
  "1786": "lla",
  "1787": "eo",
  "1788": "amp",
  "1789": "althy",
  "1790": " stre",
  "1791": " apples",
  "1792": "br",
  "1793": " words",
  "1794": " sail",
  "1795": " river",
  "1796": "fort",
  "1797": "ast",
  "1798": " sitting",
  "1799": " crying",
  "1800": " button",
  "1801": " barked",
  "1802": " Bl",
  "1803": " At",
  "1804": "Mommy",
  "1805": " sang",
  "1806": " higher",
  "1807": " bowl",
  "1808": "used",
  "1809": "unch",
  "1810": "ich",
  "1811": "ead",
  "1812": " whist",
  "1813": " tasty",
  "1814": " sharp",
  "1815": " pudd",
  "1816": " free",
  "1817": " blank",
  "1818": " balls",
  "1819": " Joe",
  "1820": " welcome",
  "1821": " pill",
  "1822": " mat",
  "1823": " leg",
  "1824": " letter",
  "1825": " asks",
  "1826": "vel",
  "1827": "lder",
  "1828": "enny",
  "1829": "Just",
  "1830": " shining",
  "1831": " runs",
  "1832": " mine",
  "1833": " happen",
  "1834": " closed",
  "1835": " blanket",
  "1836": "stead",
  "1837": "cket",
  "1838": " vis",
  "1839": " laughing",
  "1840": " everything",
  "1841": " caught",
  "1842": " candy",
  "1843": "ves",
  "1844": "ato",
  "1845": " rolled",
  "1846": " mother",
  "1847": " fan",
  "1848": " el",
  "1849": " bor",
  "1850": " -",
  "1851": " coat",
  "1852": " Gra",
  "1853": "\n ",
  "1854": "irt",
  "1855": " stand",
  "1856": " sec",
  "1857": " heart",
  "1858": " dangerous",
  "1859": " drag",
  "1860": " bone",
  "1861": "sw",
  "1862": " moved",
  "1863": " answ",
  "1864": "set",
  "1865": "me",
  "1866": "ises",
  "1867": "ail",
  "1868": "Maybe",
  "1869": " whe",
  "1870": " ele",
  "1871": " strange",
  "1872": " start",
  "1873": " secret",
  "1874": " fit",
  "1875": " else",
  "1876": "ung",
  "1877": "oth",
  "1878": "llie",
  "1879": " chair",
  "1880": " boun",
  "1881": "ctor",
  "1882": " wore",
  "1883": " trou",
  "1884": " paw",
  "1885": "isk",
  "1886": " singing",
  "1887": " rope",
  "1888": " pers",
  "1889": " band",
  "1890": "idge",
  "1891": "ama",
  "1892": " treasure",
  "1893": " same",
  "1894": " power",
  "1895": " mud",
  "1896": " mad",
  "1897": " Leo",
  "1898": "isa",
  "1899": "board",
  "1900": "While",
  "1901": "Jack",
  "1902": "Fin",
  "1903": " gentle",
  "1904": " corn",
  "1905": "ude",
  "1906": " woke",
  "1907": " visit",
  "1908": " herself",
  "1909": "unt",
  "1910": "ney",
  "1911": "ire",
  "1912": " shy",
  "1913": " sear",
  "1914": " dropped",
  "1915": " bucket",
  "1916": " believe",
  "1917": " Thank",
  "1918": "sp",
  "1919": "Please",
  "1920": " spoon",
  "1921": " nose",
  "1922": " dragon",
  "1923": " Blue",
  "1924": "ost",
  "1925": "izz",
  "1926": " thinks",
  "1927": " cookie",
  "1928": "iskers",
  "1929": "gy",
  "1930": " swings",
  "1931": " push",
  "1932": " lunch",
  "1933": " getting",
  "1934": " belong",
  "1935": "ased",
  "1936": " touc",
  "1937": " shook",
  "1938": " cute",
  "1939": " card",
  "1940": " black",
  "1941": " bite",
  "1942": "urtle",
  "1943": "phant",
  "1944": "ol",
  "1945": "gly",
  "1946": "!”",
  "1947": " seat",
  "1948": " soup",
  "1949": " rocket",
  "1950": " live",
  "1951": " kitten",
  "1952": " craw",
  "1953": " slowly",
  "1954": " shr",
  "1955": " ben",
  "1956": " Bella",
  "1957": "cing",
  "1958": "cer",
  "1959": "asket",
  "1960": " taking",
  "1961": " mark",
  "1962": " jour",
  "1963": " hoped",
  "1964": " holding",
  "1965": " eas",
  "1966": " boss",
  "1967": " basket",
  "1968": " Fred",
  "1969": "med",
  "1970": "ible",
  "1971": " wild",
  "1972": " vill",
  "1973": " ugly",
  "1974": " treats",
  "1975": " touched",
  "1976": " money",
  "1977": " joy",
  "1978": " days",
  "1979": " Maybe",
  "1980": "thday",
  "1981": "ourse",
  "1982": "irthday",
  "1983": "chool",
  "1984": "Lila",
  "1985": " years",
  "1986": " school",
  "1987": " inc",
  "1988": " forever",
  "1989": " dirt",
  "1990": " delicious",
  "1991": " course",
  "1992": " arri",
  "1993": " twins",
  "1994": " turtle",
  "1995": " string",
  "1996": " spo",
  "1997": " kiss",
  "1998": " gray",
  "1999": " Sp",
  "2000": "izza",
  "2001": "app",
  "2002": " teac",
  "2003": " shake",
  "2004": " puppy",
  "2005": " je",
  "2006": " feels",
  "2007": "ress",
  "2008": "iling",
  "2009": "est",
  "2010": " wra",
  "2011": " shell",
  "2012": " late",
  "2013": " farmer",
  "2014": " chees",
  "2015": " carry",
  "2016": " bush",
  "2017": " arrived",
  "2018": "sting",
  "2019": "ose",
  "2020": "ined",
  "2021": "ere",
  "2022": "ayon",
  "2023": "'ll",
  "2024": " tom",
  "2025": " storm",
  "2026": " shoes",
  "2027": " puddle",
  "2028": " puzz",
  "2029": " med",
  "2030": " intere",
  "2031": " fixed",
  "2032": " few",
  "2033": " cheese",
  "2034": "lower",
  "2035": "fused",
  "2036": " pop",
  "2037": " mist",
  "2038": " grew",
  "2039": " dist",
  "2040": " busy",
  "2041": "umpy",
  "2042": "igh",
  "2043": "ier",
  "2044": "eddy",
  "2045": " snowman",
  "2046": " sandw",
  "2047": " prob",
  "2048": " hiding",
  "2049": " amazing",
  "2050": " Whiskers",
  "2051": "bb",
  "2052": " worm",
  "2053": " wash",
  "2054": " rude",
  "2055": " queen",
  "2056": " promise",
  "2057": " interesting",
  "2058": " healthy",
  "2059": " crayon",
  "2060": " birthday",
  "2061": "ling",
  "2062": "Hey",
  "2063": " young",
  "2064": " wonderful",
  "2065": " whistle",
  "2066": " shelf",
  "2067": " plane",
  "2068": " pillow",
  "2069": " patient",
  "2070": " pile",
  "2071": " giant",
  "2072": " Ch",
  "2073": " ign",
  "2074": "lem",
  "2075": " war",
  "2076": " teacher",
  "2077": " problem",
  "2078": " nut",
  "2079": " moon",
  "2080": " life",
  "2081": " inv",
  "2082": " crab",
  "2083": " bow",
  "2084": " Ducky",
  "2085": "ount",
  "2086": "eared",
  "2087": " teach",
  "2088": " shirt",
  "2089": " res",
  "2090": " princess",
  "2091": " part",
  "2092": " past",
  "2093": " neck",
  "2094": " towards",
  "2095": " snake",
  "2096": " lay",
  "2097": " elephant",
  "2098": " Lisa",
  "2099": "ross",
  "2100": "oof",
  "2101": "ilk",
  "2102": "ipped",
  "2103": " wings",
  "2104": " village",
  "2105": " smo",
  "2106": " seed",
  "2107": " ser",
  "2108": " pocket",
  "2109": " milk",
  "2110": " landed",
  "2111": " doctor",
  "2112": " disapp",
  "2113": " creat",
  "2114": " bench",
  "2115": " amazed",
  "2116": " able",
  "2117": " Emma",
  "2118": "ors",
  "2119": "oman",
  "2120": "lebr",
  "2121": "irr",
  "2122": "fortable",
  "2123": "elly",
  "2124": " woman",
  "2125": " suddenly",
  "2126": " rub",
  "2127": " pizza",
  "2128": " drove",
  "2129": " coll",
  "2130": " cheered",
  "2131": " chick",
  "2132": " celebr",
  "2133": " bread",
  "2134": "rill",
  "2135": "ider",
  "2136": "St",
  "2137": " stepped",
  "2138": " foot",
  "2139": " driver",
  "2140": "ually",
  "2141": "ountain",
  "2142": "ond",
  "2143": "aughty",
  "2144": "OK",
  "2145": "Good",
  "2146": " street",
  "2147": " stories",
  "2148": " save",
  "2149": " naughty",
  "2150": " law",
  "2151": " hugs",
  "2152": " honey",
  "2153": " cart",
  "2154": " Grandma",
  "2155": "sy",
  "2156": "iger",
  "2157": "ian",
  "2158": "ek",
  "2159": "Later",
  "2160": "Kitty",
  "2161": " zoom",
  "2162": " sock",
  "2163": " slid",
  "2164": " path",
  "2165": " daddy",
  "2166": " cave",
  "2167": " bought",
  "2168": " across",
  "2169": " Ann",
  "2170": "ife",
  "2171": "ches",
  "2172": "Finally",
  "2173": " upset",
  "2174": " thin",
  "2175": " most",
  "2176": " fighting",
  "2177": " ducks",
  "2178": " bring",
  "2179": " Dog",
  "2180": "ert",
  "2181": " rob",
  "2182": " cover",
  "2183": " beak",
  "2184": "eter",
  "2185": "epend",
  "2186": "ens",
  "2187": "Be",
  "2188": " zoo",
  "2189": " purple",
  "2190": " powerful",
  "2191": " peace",
  "2192": " number",
  "2193": " mind",
  "2194": " grumpy",
  "2195": " Molly",
  "2196": "ular",
  "2197": "turn",
  "2198": "oop",
  "2199": "bow",
  "2200": " though",
  "2201": " spin",
  "2202": " suc",
  "2203": " lovely",
  "2204": " forget",
  "2205": " bell",
  "2206": " Momo",
  "2207": " Finally",
  "2208": "oose",
  "2209": "izzy",
  "2210": "erry",
  "2211": " wheel",
  "2212": " wasn",
  "2213": " trip",
  "2214": " shap",
  "2215": " sal",
  "2216": " return",
  "2217": " pour",
  "2218": " noises",
  "2219": " act",
  "2220": "upid",
  "2221": "not",
  "2222": " splash",
  "2223": " smelly",
  "2224": " seek",
  "2225": " saved",
  "2226": " sack",
  "2227": " pool",
  "2228": " journey",
  "2229": " fancy",
  "2230": " bugs",
  "2231": " bossy",
  "2232": " bat",
  "2233": "ity",
  "2234": "Of",
  "2235": " spider",
  "2236": " shapes",
  "2237": " puzzle",
  "2238": " net",
  "2239": " forgive",
  "2240": " fence",
  "2241": " dish",
  "2242": " clouds",
  "2243": " cannot",
  "2244": "ward",
  "2245": "oph",
  "2246": "To",
  "2247": " working",
  "2248": " stupid",
  "2249": " sounds",
  "2250": " messy",
  "2251": " meet",
  "2252": " easy",
  "2253": " cap",
  "2254": " brush",
  "2255": "ym",
  "2256": "llo",
  "2257": "eon",
  "2258": "Now",
  "2259": " val",
  "2260": " steal",
  "2261": " robot",
  "2262": " missed",
  "2263": " min",
  "2264": " grandma",
  "2265": " finish",
  "2266": " drive",
  "2267": " des",
  "2268": " ban",
  "2269": " ba",
  "2270": " anyone",
  "2271": " Tiny",
  "2272": "ocked",
  "2273": "kin",
  "2274": "Sure",
  "2275": "?”",
  "2276": " tie",
  "2277": " spark",
  "2278": " pigeon",
  "2279": " organ",
  "2280": " jelly",
  "2281": " helpful",
  "2282": " glass",
  "2283": " cloth",
  "2284": "to",
  "2285": "oomy",
  "2286": "mon",
  "2287": "ery",
  "2288": "bedient",
  "2289": "amond",
  "2290": "alm",
  "2291": " unk",
  "2292": " teddy",
  "2293": " rod",
  "2294": " rainbow",
  "2295": " puts",
  "2296": " poor",
  "2297": " obedient",
  "2298": " note",
  "2299": " mistake",
  "2300": " hor",
  "2301": " fake",
  "2302": " diamond",
  "2303": " unkn",
  "2304": " towel",
  "2305": " tiger",
  "2306": " ob",
  "2307": " magical",
  "2308": " lift",
  "2309": " huge",
  "2310": " grate",
  "2311": " glow",
  "2312": " exp",
  "2313": " class",
  "2314": " cir",
  "2315": " along",
  "2316": " Together",
  "2317": " Jill",
  "2318": "getable",
  "2319": "bled",
  "2320": " whole",
  "2321": " vegetable",
  "2322": " unknown",
  "2323": " takes",
  "2324": " sug",
  "2325": " phone",
  "2326": " pack",
  "2327": " later",
  "2328": " hope",
  "2329": " grateful",
  "2330": " adventures",
  "2331": " Mark",
  "2332": " On",
  "2333": "lderly",
  "2334": "ize",
  "2335": "com",
  "2336": " wondered",
  "2337": " watching",
  "2338": " taste",
  "2339": " splas",
  "2340": " sel",
  "2341": " rose",
  "2342": " person",
  "2343": " pan",
  "2344": " oven",
  "2345": " lock",
  "2346": " fing",
  "2347": " emb",
  "2348": " elderly",
  "2349": " banan",
  "2350": "ventually",
  "2351": "ions",
  "2352": "asp",
  "2353": " songs",
  "2354": " su",
  "2355": " potato",
  "2356": " pract",
  "2357": " lemon",
  "2358": " jumping",
  "2359": " ignor",
  "2360": " arms",
  "2361": "uce",
  "2362": "irror",
  "2363": "aur",
  "2364": " selfish",
  "2365": " scar",
  "2366": " pointed",
  "2367": " pin",
  "2368": " mirror",
  "2369": " longer",
  "2370": " line",
  "2371": " horse",
  "2372": " coo",
  "2373": " bark",
  "2374": " av",
  "2375": "scape",
  "2376": "ork",
  "2377": "icine",
  "2378": "col",
  "2379": "Sally",
  "2380": "Dad",
  "2381": " zip",
  "2382": " wis",
  "2383": " sheep",
  "2384": " seemed",
  "2385": " rough",
  "2386": " onto",
  "2387": " medicine",
  "2388": " drank",
  "2389": " couch",
  "2390": " comes",
  "2391": " Just",
  "2392": "ewel",
  "2393": "ever",
  "2394": "arra",
  "2395": " wrap",
  "2396": " supp",
  "2397": " such",
  "2398": " sick",
  "2399": " legs",
  "2400": " jewel",
  "2401": " instead",
  "2402": " hello",
  "2403": " faces",
  "2404": " fil",
  "2405": " embarra",
  "2406": " confused",
  "2407": " bounce",
  "2408": " Bear",
  "2409": "work",
  "2410": "una",
  "2411": "pty",
  "2412": "pill",
  "2413": "pillar",
  "2414": "emy",
  "2415": "dile",
  "2416": "codile",
  "2417": " wide",
  "2418": " step",
  "2419": " sort",
  "2420": " myster",
  "2421": " last",
  "2422": " gently",
  "2423": " empty",
  "2424": " eag",
  "2425": " dancing",
  "2426": " cho",
  "2427": " carried",
  "2428": " St",
  "2429": " Bu",
  "2430": "ment",
  "2431": "ball",
  "2432": "airs",
  "2433": "Soon",
  "2434": " wolf",
  "2435": " wave",
  "2436": " tries",
  "2437": " nearby",
  "2438": " maybe",
  "2439": " hats",
  "2440": " gives",
  "2441": " feed",
  "2442": " calm",
  "2443": " bal",
  "2444": "yard",
  "2445": "pect",
  "2446": "ipp",
  "2447": "elp",
  "2448": "azz",
  "2449": "adow",
  "2450": " tent",
  "2451": " spe",
  "2452": " smooth",
  "2453": " joke",
  "2454": " gather",
  "2455": " crocodile",
  "2456": " change",
  "2457": " backyard",
  "2458": " Mary",
  "2459": " Jenny",
  "2460": " How",
  "2461": " Doggy",
  "2462": "ume",
  "2463": "udy",
  "2464": " tool",
  "2465": " stars",
  "2466": " straw",
  "2467": " spicy",
  "2468": " soap",
  "2469": " sandwich",
  "2470": " rad",
  "2471": " pretended",
  "2472": " prot",
  "2473": " guess",
  "2474": " fat",
  "2475": " dogs",
  "2476": " dizzy",
  "2477": " clever",
  "2478": " building",
  "2479": " ash",
  "2480": " Come",
  "2481": "ormous",
  "2482": "berry",
  "2483": " trouble",
  "2484": " sticks",
  "2485": " spring",
  "2486": " sleepy",
  "2487": " hero",
  "2488": " feather",
  "2489": " fle",
  "2490": " enormous",
  "2491": " barn",
  "2492": " bake",
  "2493": "ult",
  "2494": "ness",
  "2495": "iff",
  "2496": "den",
  "2497": "Help",
  "2498": " waiting",
  "2499": " screamed",
  "2500": " suit",
  "2501": " rich",
  "2502": " rat",
  "2503": " plants",
  "2504": " lucky",
  "2505": " dug",
  "2506": " cost",
  "2507": " answer",
  "2508": "rated",
  "2509": "ont",
  "2510": "oppy",
  "2511": "And",
  "2512": " weak",
  "2513": " snacks",
  "2514": " search",
  "2515": " saus",
  "2516": " quest",
  "2517": " hidden",
  "2518": " gold",
  "2519": " fear",
  "2520": " chew",
  "2521": " cri",
  "2522": " bridge",
  "2523": " Ella",
  "2524": " Br",
  "2525": "ute",
  "2526": "arge",
  "2527": "Stop",
  "2528": "My",
  "2529": "Come",
  "2530": " test",
  "2531": " study",
  "2532": " print",
  "2533": " picks",
  "2534": " peaceful",
  "2535": " matter",
  "2536": " knocked",
  "2537": " jug",
  "2538": " front",
  "2539": " escape",
  "2540": " decor",
  "2541": " chicken",
  "2542": " With",
  "2543": "unk",
  "2544": "shine",
  "2545": "orrow",
  "2546": "onest",
  "2547": "mer",
  "2548": "iting",
  "2549": "ieved",
  "2550": "box",
  "2551": " trick",
  "2552": " tomorrow",
  "2553": " steak",
  "2554": " spray",
  "2555": " smelled",
  "2556": " scarf",
  "2557": " rec",
  "2558": " places",
  "2559": " kick",
  "2560": " imag",
  "2561": " honest",
  "2562": " crown",
  "2563": " ent",
  "2564": "ustrated",
  "2565": "mb",
  "2566": "iv",
  "2567": "io",
  "2568": "host",
  "2569": "erpillar",
  "2570": "alk",
  "2571": "ained",
  "2572": "adder",
  "2573": " sell",
  "2574": " reg",
  "2575": " hay",
  "2576": " har",
  "2577": " collect",
  "2578": " cozy",
  "2579": " chased",
  "2580": " caterpillar",
  "2581": " Their",
  "2582": " Please",
  "2583": " Jim",
  "2584": " '",
  "2585": "umble",
  "2586": "uitar",
  "2587": "ming",
  "2588": "ino",
  "2589": "ightened",
  "2590": "Are",
  "2591": " tear",
  "2592": " swan",
  "2593": " square",
  "2594": " sol",
  "2595": " smiling",
  "2596": " seal",
  "2597": " large",
  "2598": " ladder",
  "2599": " guitar",
  "2600": " ghost",
  "2601": " frustrated",
  "2602": " frightened",
  "2603": " clock",
  "2604": " clear",
  "2605": " chase",
  "2606": " appeared",
  "2607": " My",
  "2608": " Emily",
  "2609": "ones",
  "2610": "old",
  "2611": "icked",
  "2612": "bbles",
  "2613": "alous",
  "2614": " yelled",
  "2615": " vegetables",
  "2616": " uncle",
  "2617": " stret",
  "2618": " pay",
  "2619": " ord",
  "2620": " nothing",
  "2621": " newsp",
  "2622": " measure",
  "2623": " knee",
  "2624": " jealous",
  "2625": " drew",
  "2626": " drum",
  "2627": " bean",
  "2628": " Remy",
  "2629": " Mama",
  "2630": " Daddy",
  "2631": "ungle",
  "2632": "oto",
  "2633": "irp",
  "2634": "gest",
  "2635": "ensive",
  "2636": "acht",
  "2637": " yourself",
  "2638": " yacht",
  "2639": " wearing",
  "2640": " van",
  "2641": " relieved",
  "2642": " pear",
  "2643": " noisy",
  "2644": " mod",
  "2645": " loves",
  "2646": " liz",
  "2647": " jungle",
  "2648": " explor",
  "2649": " expensive",
  "2650": " eager",
  "2651": " dest",
  "2652": " chest",
  "2653": " celebrate",
  "2654": " body",
  "2655": " Bunny",
  "2656": "ten",
  "2657": "opard",
  "2658": "eb",
  "2659": " wip",
  "2660": " swimming",
  "2661": " stir",
  "2662": " stamp",
  "2663": " scare",
  "2664": " sour",
  "2665": " protect",
  "2666": " police",
  "2667": " plate",
  "2668": " pepper",
  "2669": " leopard",
  "2670": " jellyfish",
  "2671": " jog",
  "2672": " furry",
  "2673": " fold",
  "2674": " feet",
  "2675": " drawing",
  "2676": " coin",
  "2677": " cats",
  "2678": " ashamed",
  "2679": " ants",
  "2680": " TV",
  "2681": " Cat",
  "2682": "ractive",
  "2683": "ormal",
  "2684": "nic",
  "2685": "ned",
  "2686": "irit",
  "2687": "dom",
  "2688": "bor",
  "2689": " wake",
  "2690": " trust",
  "2691": " thoughtful",
  "2692": " ru",
  "2693": " newspaper",
  "2694": " mountain",
  "2695": " hairy",
  "2696": " harm",
  "2697": " goes",
  "2698": " glue",
  "2699": " gigg",
  "2700": " gen",
  "2701": " embarrassed",
  "2702": " disco",
  "2703": " cage",
  "2704": " asking",
  "2705": " acorn",
  "2706": " Somet",
  "2707": " 3",
  "2708": "rue",
  "2709": "la",
  "2710": "imp",
  "2711": "fee",
  "2712": "ffee",
  "2713": "elery",
  "2714": "Tommy",
  "2715": " yog",
  "2716": " witch",
  "2717": " toug",
  "2718": " sold",
  "2719": " rug",
  "2720": " picnic",
  "2721": " pass",
  "2722": " normal",
  "2723": " lab",
  "2724": " flag",
  "2725": " dig",
  "2726": " celery",
  "2727": " attractive",
  "2728": " Why",
  "2729": "utom",
  "2730": "utomob",
  "2731": "utomobile",
  "2732": "ual",
  "2733": "let",
  "2734": "keep",
  "2735": "issors",
  "2736": "ique",
  "2737": "corn",
  "2738": "cient",
  "2739": " waff",
  "2740": " unique",
  "2741": " tough",
  "2742": " spill",
  "2743": " saf",
  "2744": " remind",
  "2745": " ring",
  "2746": " prince",
  "2747": " prun",
  "2748": " moving",
  "2749": " mighty",
  "2750": " lazy",
  "2751": " incred",
  "2752": " hang",
  "2753": " hoop",
  "2754": " gener",
  "2755": " fruits",
  "2756": " finger",
  "2757": " coffee",
  "2758": " cheer",
  "2759": " careless",
  "2760": " become",
  "2761": " ancient",
  "2762": " Go",
  "2763": " Benny",
  "2764": "ubb",
  "2765": "rilli",
  "2766": "rob",
  "2767": "ject",
  "2768": " write",
  "2769": " understood",
  "2770": " tid",
  "2771": " sword",
  "2772": " sunshine",
  "2773": " sunf",
  "2774": " stood",
  "2775": " scissors",
  "2776": " rh",
  "2777": " rare",
  "2778": " polite",
  "2779": " pit",
  "2780": " lizard",
  "2781": " incredible",
  "2782": " hur",
  "2783": " generous",
  "2784": " ending",
  "2785": " cleaned",
  "2786": " brilli",
  "2787": " arrow",
  "2788": " Rex",
  "2789": " Ollie",
  "2790": " If",
  "2791": " Even",
  "2792": " Bobby",
  "2793": "keeper",
  "2794": "illa",
  "2795": "gen",
  "2796": "fra",
  "2797": "aking",
  "2798": " true",
  "2799": " tasted",
  "2800": " success",
  "2801": " stri",
  "2802": " squash",
  "2803": " sausage",
  "2804": " pro",
  "2805": " pow",
  "2806": " match",
  "2807": " market",
  "2808": " kicked",
  "2809": " hunt",
  "2810": " brilliant",
  "2811": " automobile",
  "2812": "ugg",
  "2813": "tress",
  "2814": "lves",
  "2815": "fraid",
  "2816": "aughter",
  "2817": "angle",
  "2818": "How",
  "2819": " tidy",
  "2820": " tea",
  "2821": " stuff",
  "2822": " salad",
  "2823": " pray",
  "2824": " mattress",
  "2825": " knowing",
  "2826": " gun",
  "2827": " gate",
  "2828": " dead",
  "2829": " crayons",
  "2830": " covered",
  "2831": " cush",
  "2832": " blow",
  "2833": " bloom",
  "2834": " adventur",
  "2835": " afraid",
  "2836": " Pe",
  "2837": " Jerry",
  "2838": " Don",
  "2839": "vous",
  "2840": "ushroom",
  "2841": "robe",
  "2842": "roy",
  "2843": "ict",
  "2844": "abin",
  "2845": "Molly",
  "2846": "Here",
  "2847": " wouldn",
  "2848": " weird",
  "2849": " these",
  "2850": " sunflower",
  "2851": " shells",
  "2852": " neigh",
  "2853": " mic",
  "2854": " disg",
  "2855": " destroy",
  "2856": " crawl",
  "2857": " counted",
  "2858": " comb",
  "2859": " clay",
  "2860": " clap",
  "2861": " circle",
  "2862": " carrots",
  "2863": " cabin",
  "2864": " behave",
  "2865": " bathroom",
  "2866": " adventurous",
  "2867": " Luna",
  "2868": " Instead",
  "2869": "usting",
  "2870": "ulif",
  "2871": "udge",
  "2872": "ope",
  "2873": "land",
  "2874": "inal",
  "2875": "comfortable",
  "2876": "bers",
  "2877": " uncomfortable",
  "2878": " thie",
  "2879": " respect",
  "2880": " relax",
  "2881": " perform",
  "2882": " mole",
  "2883": " ignorant",
  "2884": " humble",
  "2885": " frame",
  "2886": " folder",
  "2887": " disgusting",
  "2888": " Jen",
  "2889": " ind",
  "2890": "usual",
  "2891": "rella",
  "2892": "pes",
  "2893": "net",
  "2894": "mbrella",
  "2895": "isp",
  "2896": "inary",
  "2897": "ident",
  "2898": "icult",
  "2899": "iable",
  "2900": "ficult",
  "2901": "era",
  "2902": "ages",
  "2903": "ale",
  "2904": "Mum",
  "2905": " wing",
  "2906": " using",
  "2907": " unusual",
  "2908": " umbrella",
  "2909": " shrimp",
  "2910": " reliable",
  "2911": " paws",
  "2912": " mysterious",
  "2913": " magnet",
  "2914": " mask",
  "2915": " hose",
  "2916": " glove",
  "2917": " fridge",
  "2918": " eng",
  "2919": " difficult",
  "2920": " daughter",
  "2921": " cross",
  "2922": " caulif",
  "2923": " cand",
  "2924": " boring",
  "2925": " balloons",
  "2926": " balance",
  "2927": " asleep",
  "2928": " adm",
  "2929": " Sometimes",
  "2930": " Be",
  "2931": "ule",
  "2932": "osaur",
  "2933": "oot",
  "2934": "iginal",
  "2935": "ighed",
  "2936": "eth",
  "2937": "Together",
  "2938": "Sarah",
  "2939": " yours",
  "2940": " whisp",
  "2941": " unl",
  "2942": " twist",
  "2943": " tape",
  "2944": " stove",
  "2945": " splashed",
  "2946": " sque",
  "2947": " powder",
  "2948": " ones",
  "2949": " oy",
  "2950": " ner",
  "2951": " moms",
  "2952": " judge",
  "2953": " horn",
  "2954": " famous",
  "2955": " fis",
  "2956": " distur",
  "2957": " discover",
  "2958": " dinosaur",
  "2959": " bees",
  "2960": " Dolly",
  "2961": "tt",
  "2962": "tti",
  "2963": "sent",
  "2964": "irsty",
  "2965": "hetti",
  "2966": "fted",
  "2967": "erries",
  "2968": "cil",
  "2969": "aghetti",
  "2970": "affe",
  "2971": "aw",
  "2972": "Inside",
  "2973": " wagon",
  "2974": " travel",
  "2975": " spoiled",
  "2976": " spirit",
  "2977": " spaghetti",
  "2978": " ship",
  "2979": " radio",
  "2980": " roof",
  "2981": " poured",
  "2982": " pencil",
  "2983": " ordinary",
  "2984": " original",
  "2985": " numbers",
  "2986": " nervous",
  "2987": " mov",
  "2988": " mule",
  "2989": " mach",
  "2990": " knight",
  "2991": " island",
  "2992": " hopping",
  "2993": " harmless",
  "2994": " guil",
  "2995": " frown",
  "2996": " eggs",
  "2997": " dough",
  "2998": " crack",
  "2999": " corner",
  "3000": " closet",
  "3001": " chalk",
  "3002": " breath",
  "3003": " banana",
  "3004": " berries",
  "3005": " ang",
  "3006": " Sammy",
  "3007": " Some",
  "3008": "owed",
  "3009": "orilla",
  "3010": "ina",
  "3011": "ependent",
  "3012": "eze",
  "3013": "dern",
  "3014": "Billy",
  "3015": " troubled",
  "3016": " triangle",
  "3017": " thief",
  "3018": " thick",
  "3019": " sugar",
  "3020": " stage",
  "3021": " searched",
  "3022": " sailor",
  "3023": " sink",
  "3024": " resc",
  "3025": " quit",
  "3026": " present",
  "3027": " pal",
  "3028": " modern",
  "3029": " log",
  "3030": " lead",
  "3031": " independent",
  "3032": " creative",
  "3033": " coal",
  "3034": " cauliflower",
  "3035": " cop",
  "3036": " barber",
  "3037": " bull",
  "3038": " bin",
  "3039": " While",
  "3040": " Brown",
  "3041": " icy",
  "3042": "read",
  "3043": "itter",
  "3044": "bble",
  "3045": "ator",
  "3046": "any",
  "3047": "Timmy",
  "3048": " univer",
  "3049": " taken",
  "3050": " spread",
  "3051": " sailed",
  "3052": " painted",
  "3053": " pri",
  "3054": " jolly",
  "3055": " invited",
  "3056": " hears",
  "3057": " gloomy",
  "3058": " gym",
  "3059": " gorilla",
  "3060": " fork",
  "3061": " engine",
  "3062": " dive",
  "3063": " comput",
  "3064": " answered",
  "3065": "xious",
  "3066": "xe",
  "3067": "ither",
  "3068": "iness",
  "3069": "gu",
  "3070": "ground",
  "3071": "erc",
  "3072": "dle",
  "3073": "colate",
  "3074": "atch",
  "3075": "arming",
  "3076": "ado",
  "3077": "aff",
  "3078": "Go",
  "3079": "Every",
  "3080": " whip",
  "3081": " strawberry",
  "3082": " standing",
  "3083": " spent",
  "3084": " shape",
  "3085": " scream",
  "3086": " sauce",
  "3087": " pant",
  "3088": " mop",
  "3089": " lose",
  "3090": " knife",
  "3091": " hive",
  "3092": " guilty",
  "3093": " flute",
  "3094": " cleaning",
  "3095": " chocolate",
  "3096": " charming",
  "3097": " cher",
  "3098": " board",
  "3099": " batter",
  "3100": " anxious",
  "3101": " axe",
  "3102": " True",
  "3103": " Sn",
  "3104": "ubborn",
  "3105": "selves",
  "3106": "ser",
  "3107": "rage",
  "3108": "opl",
  "3109": "omes",
  "3110": "herman",
  "3111": "eropl",
  "3112": "cident",
  "3113": "attern",
  "3114": "als",
  "3115": "aving",
  "3116": "Mama",
  "3117": " which",
  "3118": " washed",
  "3119": " waffle",
  "3120": " useful",
  "3121": " tied",
  "3122": " stubborn",
  "3123": " smaller",
  "3124": " seeds",
  "3125": " returned",
  "3126": " palace",
  "3127": " pattern",
  "3128": " object",
  "3129": " impr",
  "3130": " helps",
  "3131": " fisherman",
  "3132": " filthy",
  "3133": " fine",
  "3134": " decide",
  "3135": " dull",
  "3136": " costume",
  "3137": " cries",
  "3138": " cone",
  "3139": " boys",
  "3140": " burn",
  "3141": " angel",
  "3142": " aeropl",
  "3143": "zzy",
  "3144": "ulb",
  "3145": "most",
  "3146": "irpy",
  "3147": "inocer",
  "3148": "inoceros",
  "3149": "ilt",
  "3150": "ament",
  "3151": "Jane",
  "3152": " valu",
  "3153": " taught",
  "3154": " tun",
  "3155": " times",
  "3156": " tank",
  "3157": " slipped",
  "3158": " serious",
  "3159": " sighed",
  "3160": " rhinoceros",
  "3161": " raft",
  "3162": " pants",
  "3163": " pump",
  "3164": " napkin",
  "3165": " machine",
  "3166": " lifted",
  "3167": " learning",
  "3168": " laughs",
  "3169": " homes",
  "3170": " exerc",
  "3171": " create",
  "3172": " castles",
  "3173": " bored",
  "3174": " aeroplane",
  "3175": " aunt",
  "3176": " Poppy",
  "3177": " Many",
  "3178": "ragile",
  "3179": "orry",
  "3180": "oc",
  "3181": "nament",
  "3182": "isted",
  "3183": "inky",
  "3184": "iddle",
  "3185": "esday",
  "3186": "anged",
  "3187": "aged",
  "3188": " wishes",
  "3189": " valuable",
  "3190": " thankful",
  "3191": " spilled",
  "3192": " shoot",
  "3193": " shore",
  "3194": " scr",
  "3195": " poem",
  "3196": " pasta",
  "3197": " ornament",
  "3198": " makeup",
  "3199": " loudly",
  "3200": " lotion",
  "3201": " hunter",
  "3202": " grand",
  "3203": " goose",
  "3204": " gar",
  "3205": " forward",
  "3206": " fearful",
  "3207": " fool",
  "3208": " exploring",
  "3209": " drop",
  "3210": " cushion",
  "3211": " crawled",
  "3212": " counting",
  "3213": " comple",
  "3214": " choose",
  "3215": " almost",
  "3216": " accident",
  "3217": " No",
  "3218": " Buzz",
  "3219": "useum",
  "3220": "rin",
  "3221": "opter",
  "3222": "icopter",
  "3223": "ipper",
  "3224": "appy",
  "3225": "Give",
  "3226": "Fluffy",
  "3227": " wand",
  "3228": " wool",
  "3229": " ur",
  "3230": " thirsty",
  "3231": " tire",
  "3232": " stones",
  "3233": " spotted",
  "3234": " space",
  "3235": " solve",
  "3236": " showing",
  "3237": " scatter",
  "3238": " popcorn",
  "3239": " playful",
  "3240": " movie",
  "3241": " meadow",
  "3242": " mushroom",
  "3243": " museum",
  "3244": " locked",
  "3245": " jeep",
  "3246": " impress",
  "3247": " helicopter",
  "3248": " foolish",
  "3249": " fragile",
  "3250": " dove",
  "3251": " diary",
  "3252": " decorate",
  "3253": " compet",
  "3254": " comfortable",
  "3255": " changed",
  "3256": " built",
  "3257": " bottom",
  "3258": " bulb",
  "3259": " attic",
  "3260": " Spike",
  "3261": " Jazz",
  "3262": " Bird",
  "3263": " U",
  "3264": "yal",
  "3265": "weet",
  "3266": "rible",
  "3267": "pron",
  "3268": "port",
  "3269": "pack",
  "3270": "ionary",
  "3271": "ictionary",
  "3272": "If",
  "3273": " wife",
  "3274": " vide",
  "3275": " teeth",
  "3276": " ter",
  "3277": " swinging",
  "3278": " sle",
  "3279": " sil",
  "3280": " roar",
  "3281": " record",
  "3282": " persist",
  "3283": " middle",
  "3284": " mel",
  "3285": " map",
  "3286": " loyal",
  "3287": " licked",
  "3288": " low",
  "3289": " kissed",
  "3290": " joined",
  "3291": " happiness",
  "3292": " gasp",
  "3293": " forth",
  "3294": " finding",
  "3295": " delight",
  "3296": " dictionary",
  "3297": " computer",
  "3298": " compass",
  "3299": " case",
  "3300": " bubbles",
  "3301": " belonged",
  "3302": " apron",
  "3303": " Chirpy",
  "3304": " Andy",
  "3305": "umsy",
  "3306": "ray",
  "3307": "ext",
  "3308": "ention",
  "3309": "celet",
  "3310": "cut",
  "3311": " sung",
  "3312": " stronger",
  "3313": " shiver",
  "3314": " rubber",
  "3315": " raven",
  "3316": " popular",
  "3317": " painter",
  "3318": " package",
  "3319": " mixed",
  "3320": " march",
  "3321": " mug",
  "3322": " lively",
  "3323": " lawn",
  "3324": " label",
  "3325": " impressive",
  "3326": " harsh",
  "3327": " glowing",
  "3328": " giving",
  "3329": " garage",
  "3330": " fog",
  "3331": " fig",
  "3332": " eventually",
  "3333": " disturb",
  "3334": " depend",
  "3335": " compassion",
  "3336": " clumsy",
  "3337": " bracelet",
  "3338": " Today",
  "3339": " Bill",
  "3340": "ying",
  "3341": "opus",
  "3342": "nel",
  "3343": "lass",
  "3344": "lasses",
  "3345": "iew",
  "3346": "ctus",
  "3347": "ctopus",
  "3348": "apped",
  "3349": " yarn",
  "3350": " view",
  "3351": " terrible",
  "3352": " tele",
  "3353": " tick",
  "3354": " sunglasses",
  "3355": " stack",
  "3356": " speed",
  "3357": " spend",
  "3358": " snee",
  "3359": " skip",
  "3360": " regular",
  "3361": " raced",
  "3362": " octopus",
  "3363": " model",
  "3364": " marry",
  "3365": " managed",
  "3366": " leash",
  "3367": " knows",
  "3368": " half",
  "3369": " falls",
  "3370": " exciting",
  "3371": " excite",
  "3372": " deliver",
  "3373": " deaf",
  "3374": " cactus",
  "3375": " bald",
  "3376": " add",
  "3377": " Jess",
  "3378": " Ellie",
  "3379": " Al",
  "3380": "uth",
  "3381": "lcan",
  "3382": "light",
  "3383": "etle",
  "3384": " volcan",
  "3385": " tunnel",
  "3386": " truth",
  "3387": " tomato",
  "3388": " stat",
  "3389": " staff",
  "3390": " slept",
  "3391": " skin",
  "3392": " shark",
  "3393": " question",
  "3394": " prunes",
  "3395": " oyster",
  "3396": " nod",
  "3397": " mis",
  "3398": " mill",
  "3399": " hurts",
  "3400": " flash",
  "3401": " four",
  "3402": " exercise",
  "3403": " cooked",
  "3404": " cheap",
  "3405": " beetle",
  "3406": " ap",
  "3407": " Snow",
  "3408": " OK",
  "3409": "ygen",
  "3410": "xygen",
  "3411": "urkey",
  "3412": "rick",
  "3413": "rn",
  "3414": "ours",
  "3415": "istol",
  "3416": "ately",
  "3417": "Who",
  "3418": " weigh",
  "3419": " volcano",
  "3420": " towers",
  "3421": " torn",
  "3422": " tem",
  "3423": " tip",
  "3424": " task",
  "3425": " swe",
  "3426": " support",
  "3427": " stretch",
  "3428": " statue",
  "3429": " spear",
  "3430": " sleeping",
  "3431": " screw",
  "3432": " pumpkin",
  "3433": " photo",
  "3434": " persistent",
  "3435": " pistol",
  "3436": " organized",
  "3437": " ok",
  "3438": " meant",
  "3439": " lying",
  "3440": " junk",
  "3441": " improve",
  "3442": " handle",
  "3443": " goat",
  "3444": " float",
  "3445": " father",
  "3446": " env",
  "3447": " competit",
  "3448": " compassionate",
  "3449": " ceiling",
  "3450": " boxes",
  "3451": " brick",
  "3452": " ador",
  "3453": " acce",
  "3454": " Wigg",
  "3455": " Mum",
  "3456": "xible",
  "3457": "roph",
  "3458": "rophone",
  "3459": "llip",
  "3460": "llipop",
  "3461": "lend",
  "3462": "lace",
  "3463": "ippo",
  "3464": "ik",
  "3465": "erce",
  "3466": "angu",
  "3467": "Sorry",
  "3468": "Mummy",
  "3469": " yogurt",
  "3470": " word",
  "3471": " wheels",
  "3472": " walls",
  "3473": " waves",
  "3474": " wander",
  "3475": " vi",
  "3476": " unlock",
  "3477": " twig",
  "3478": " successful",
  "3479": " station",
  "3480": " stairs",
  "3481": " soar",
  "3482": " sniff",
  "3483": " sett",
  "3484": " rake",
  "3485": " passed",
  "3486": " nuts",
  "3487": " nods",
  "3488": " necklace",
  "3489": " microphone",
  "3490": " math",
  "3491": " louder",
  "3492": " lollipop",
  "3493": " lean",
  "3494": " lit",
  "3495": " langu",
  "3496": " hippo",
  "3497": " gum",
  "3498": " flexible",
  "3499": " figure",
  "3500": " fierce",
  "3501": " dependable",
  "3502": " compl",
  "3503": " clown",
  "3504": " bump",
  "3505": " bitter",
  "3506": " adorable",
  "3507": " Zoom",
  "3508": " People",
  "3509": " Mummy",
  "3510": "zed",
  "3511": "velope",
  "3512": "ubby",
  "3513": "pa",
  "3514": "ores",
  "3515": "body",
  "3516": "berries",
  "3517": "asing",
  "3518": "Where",
  "3519": " wheat",
  "3520": " wealthy",
  "3521": " ways",
  "3522": " walks",
  "3523": " video",
  "3524": " trains",
  "3525": " taller",
  "3526": " turkey",
  "3527": " sne",
  "3528": " shows",
  "3529": " shut",
  "3530": " shine",
  "3531": " ruined",
  "3532": " rode",
  "3533": " root",
  "3534": " rescue",
  "3535": " practiced",
  "3536": " nosy",
  "3537": " network",
  "3538": " neighbor",
  "3539": " needle",
  "3540": " missile",
  "3541": " mailbox",
  "3542": " language",
  "3543": " knob",
  "3544": " helpless",
  "3545": " heal",
  "3546": " harder",
  "3547": " guard",
  "3548": " gas",
  "3549": " exam",
  "3550": " envelope",
  "3551": " enc",
  "3552": " deer",
  "3553": " creature",
  "3554": " cooking",
  "3555": " complet",
  "3556": " chubby",
  "3557": " branches",
  "3558": " barrel",
  "3559": " bill",
  "3560": " avoc",
  "3561": " alert",
  "3562": " Ow",
  "3563": " Mrs",
  "3564": " Here",
  "3565": " Give",
  "3566": " Fro",
  "3567": "ymbo",
  "3568": "ymbol",
  "3569": "und",
  "3570": "ream",
  "3571": "lendar",
  "3572": "lph",
  "3573": "ilet",
  "3574": "igi",
  "3575": "ippy",
  "3576": "ebra",
  "3577": "cles",
  "3578": "arrel",
  "3579": "anut",
  "3580": "amera",
  "3581": "aky",
  "3582": "aid",
  "3583": "Jim",
  "3584": " zebra",
  "3585": " yet",
  "3586": " whispered",
  "3587": " tooth",
  "3588": " toilet",
  "3589": " thinking",
  "3590": " ten",
  "3591": " stared",
  "3592": " split",
  "3593": " skull",
  "3594": " short",
  "3595": " shade",
  "3596": " scoot",
  "3597": " symbol",
  "3598": " sight",
  "3599": " realised",
  "3600": " quarrel",
  "3601": " purse",
  "3602": " painting",
  "3603": " opens",
  "3604": " meat",
  "3605": " mot",
  "3606": " leaving",
  "3607": " haircut",
  "3608": " ham",
  "3609": " gifted",
  "3610": " gasped",
  "3611": " fluffy",
  "3612": " explained",
  "3613": " excitement",
  "3614": " ears",
  "3615": " dreams",
  "3616": " dolph",
  "3617": " competitive",
  "3618": " carp",
  "3619": " cabinet",
  "3620": " calendar",
  "3621": " camera",
  "3622": " Sandy",
  "3623": " Rose",
  "3624": " Ro",
  "3625": " Freddy",
  "3626": " Bet",
  "3627": "ubway",
  "3628": "uby",
  "3629": "time",
  "3630": "ote",
  "3631": "oin",
  "3632": "ines",
  "3633": "ilot",
  "3634": "ience",
  "3635": "htub",
  "3636": "ceed",
  "3637": "arl",
  "3638": "ailable",
  "3639": "Is",
  "3640": " whenever",
  "3641": " vase",
  "3642": " trash",
  "3643": " temple",
  "3644": " tease",
  "3645": " tag",
  "3646": " sunset",
  "3647": " shoe",
  "3648": " screen",
  "3649": " saying",
  "3650": " safely",
  "3651": " subway",
  "3652": " son",
  "3653": " rushed",
  "3654": " prov",
  "3655": " pus",
  "3656": " organize",
  "3657": " obser",
  "3658": " herb",
  "3659": " feathers",
  "3660": " eye",
  "3661": " envious",
  "3662": " enjoying",
  "3663": " deter",
  "3664": " cricket",
  "3665": " crib",
  "3666": " chores",
  "3667": " chain",
  "3668": " cob",
  "3669": " cell",
  "3670": " bury",
  "3671": " bathrobe",
  "3672": " bathtub",
  "3673": " available",
  "3674": " Your",
  "3675": " ed",
  "3676": "umb",
  "3677": "stairs",
  "3678": "ory",
  "3679": "loo",
  "3680": "ision",
  "3681": "iki",
  "3682": "iding",
  "3683": "iano",
  "3684": "head",
  "3685": "aspoon",
  "3686": "There",
  "3687": "Mr",
  "3688": "Me",
  "3689": "Little",
  "3690": "Bobo",
  "3691": " wrote",
  "3692": " unpack",
  "3693": " trap",
  "3694": " tray",
  "3695": " teaspoon",
  "3696": " switch",
  "3697": " stickers",
  "3698": " slides",
  "3699": " shopkeeper",
  "3700": " sheet",
  "3701": " repe",
  "3702": " rep",
  "3703": " pointing",
  "3704": " parrot",
  "3705": " notice",
  "3706": " needs",
  "3707": " nail",
  "3708": " means",
  "3709": " mild",
  "3710": " led",
  "3711": " knock",
  "3712": " kindness",
  "3713": " happening",
  "3714": " giraffe",
  "3715": " flashlight",
  "3716": " falling",
  "3717": " fountain",
  "3718": " either",
  "3719": " drawer",
  "3720": " disappeared",
  "3721": " determ",
  "3722": " design",
  "3723": " dare",
  "3724": " chess",
  "3725": " carpet",
  "3726": " cord",
  "3727": " borrow",
  "3728": " billboard",
  "3729": " Spark",
  "3730": "ye",
  "3731": "iches",
  "3732": "essert",
  "3733": "erable",
  "3734": "cean",
  "3735": " wiped",
  "3736": " week",
  "3737": " unite",
  "3738": " tricks",
  "3739": " toe",
  "3740": " succeed",
  "3741": " stable",
  "3742": " soldier",
  "3743": " shocked",
  "3744": " sandwiches",
  "3745": " ske",
  "3746": " rise",
  "3747": " playground",
  "3748": " pebble",
  "3749": " pale",
  "3750": " pilot",
  "3751": " ocean",
  "3752": " miserable",
  "3753": " melon",
  "3754": " may",
  "3755": " lend",
  "3756": " jet",
  "3757": " gem",
  "3758": " encou",
  "3759": " earth",
  "3760": " disappoin",
  "3761": " disappear",
  "3762": " delicate",
  "3763": " dancer",
  "3764": " dessert",
  "3765": " cable",
  "3766": " bushes",
  "3767": " bikes",
  "3768": " biggest",
  "3769": " Tweet",
  "3770": " Miss",
  "3771": " ow",
  "3772": "usie",
  "3773": "uring",
  "3774": "ourite",
  "3775": "otter",
  "3776": "leton",
  "3777": "low",
  "3778": "hip",
  "3779": "cream",
  "3780": "apon",
  "3781": "anda",
  "3782": "Their",
  "3783": "?\".",
  "3784": " weapon",
  "3785": " value",
  "3786": " track",
  "3787": " tummy",
  "3788": " swung",
  "3789": " stud",
  "3790": " spoke",
  "3791": " spun",
  "3792": " skeleton",
  "3793": " shovel",
  "3794": " poke",
  "3795": " piano",
  "3796": " often",
  "3797": " nicely",
  "3798": " musician",
  "3799": " muff",
  "3800": " itself",
  "3801": " hut",
  "3802": " friendship",
  "3803": " flea",
  "3804": " favourite",
  "3805": " fastest",
  "3806": " club",
  "3807": " city",
  "3808": " battery",
  "3809": " bags",
  "3810": " bent",
  "3811": " Sh",
  "3812": " Prin",
  "3813": " Kim",
  "3814": " otter",
  "3815": "wards",
  "3816": "utes",
  "3817": "ummer",
  "3818": "sity",
  "3819": "rmomet",
  "3820": "rmometer",
  "3821": "leased",
  "3822": "imney",
  "3823": "guin",
  "3824": "ero",
  "3825": "ement",
  "3826": "chan",
  "3827": "chair",
  "3828": "ckey",
  "3829": "arry",
  "3830": "ait",
  "3831": " viol",
  "3832": " trail",
  "3833": " thermometer",
  "3834": " tells",
  "3835": " tears",
  "3836": " team",
  "3837": " suggest",
  "3838": " sparkly",
  "3839": " skipped",
  "3840": " serve",
  "3841": " reminded",
  "3842": " ref",
  "3843": " rag",
  "3844": " penguin",
  "3845": " pir",
  "3846": " minutes",
  "3847": " mem",
  "3848": " mitten",
  "3849": " load",
  "3850": " jumps",
  "3851": " juicy",
  "3852": " hockey",
  "3853": " heat",
  "3854": " grown",
  "3855": " group",
  "3856": " giggled",
  "3857": " gear",
  "3858": " finds",
  "3859": " edge",
  "3860": " dolphin",
  "3861": " disappointed",
  "3862": " determined",
  "3863": " cube",
  "3864": " climbing",
  "3865": " cliff",
  "3866": " chimney",
  "3867": " blackboard",
  "3868": " Will",
  "3869": " Jimmy",
  "3870": " Gigi",
  "3871": " Buzzy",
  "3872": " Are",
  "3873": "zag",
  "3874": "usia",
  "3875": "ulance",
  "3876": "ressed",
  "3877": "ony",
  "3878": "igzag",
  "3879": "husia",
  "3880": "fa",
  "3881": "ents",
  "3882": "coa",
  "3883": "chanic",
  "3884": "cast",
  "3885": "bulance",
  "3886": "apers",
  "3887": "Wait",
  "3888": "Ouch",
  "3889": "'d",
  "3890": " violin",
  "3891": " tripped",
  "3892": " tub",
  "3893": " skirt",
  "3894": " searching",
  "3895": " sandcast",
  "3896": " reward",
  "3897": " refused",
  "3898": " questions",
  "3899": " quiz",
  "3900": " practice",
  "3901": " popped",
  "3902": " pee",
  "3903": " peanut",
  "3904": " peach",
  "3905": " pun",
  "3906": " order",
  "3907": " neat",
  "3908": " mechanic",
  "3909": " melt",
  "3910": " lip",
  "3911": " jam",
  "3912": " helper",
  "3913": " hate",
  "3914": " happier",
  "3915": " hanging",
  "3916": " grace",
  "3917": " evening",
  "3918": " enthusia",
  "3919": " dreaming",
  "3920": " drawings",
  "3921": " desk",
  "3922": " crazy",
  "3923": " cows",
  "3924": " cheerful",
  "3925": " cardboard",
  "3926": " bathe",
  "3927": " bananas",
  "3928": " avocado",
  "3929": " ambulance",
  "3930": " Or",
  "3931": " Kiki",
  "3932": "vision",
  "3933": "render",
  "3934": "par",
  "3935": "nger",
  "3936": "met",
  "3937": "ging",
  "3938": "dge",
  "3939": "bby",
  "3940": "ature",
  "3941": "ana",
  "3942": "aul",
  "3943": "Your",
  "3944": " yield",
  "3945": " wire",
  "3946": " wine",
  "3947": " television",
  "3948": " tide",
  "3949": " stream",
  "3950": " sty",
  "3951": " speak",
  "3952": " sport",
  "3953": " sofa",
  "3954": " sandcastle",
  "3955": " salt",
  "3956": " send",
  "3957": " rubbed",
  "3958": " rolling",
  "3959": " pressed",
  "3960": " picking",
  "3961": " onion",
  "3962": " once",
  "3963": " oxygen",
  "3964": " mistakes",
  "3965": " missing",
  "3966": " message",
  "3967": " medal",
  "3968": " lights",
  "3969": " libr",
  "3970": " lawy",
  "3971": " incre",
  "3972": " impressed",
  "3973": " helmet",
  "3974": " hours",
  "3975": " growl",
  "3976": " grill",
  "3977": " gaz",
  "3978": " firework",
  "3979": " file",
  "3980": " early",
  "3981": " distant",
  "3982": " complete",
  "3983": " complain",
  "3984": " cocoa",
  "3985": " candle",
  "3986": " camp",
  "3987": " boot",
  "3988": " bedroom",
  "3989": " bicy",
  "3990": " armchair",
  "3991": " above",
  "3992": " aw",
  "3993": " Zoomy",
  "3994": " Zip",
  "3995": " Sof",
  "3996": " Susie",
  "3997": " Pipp",
  "3998": " Peter",
  "3999": "vator",
  "4000": "urtain",
  "4001": "undry",
  "4002": "ulu",
  "4003": "ses",
  "4004": "ric",
  "4005": "ouses",
  "4006": "ophie",
  "4007": "ination",
  "4008": "hest",
  "4009": "coli",
  "4010": "ccoli",
  "4011": "aked",
  "4012": "Re",
  "4013": "Ow",
  "4014": "Gra",
  "4015": " university",
  "4016": " ticket",
  "4017": " themselves",
  "4018": " those",
  "4019": " telling",
  "4020": " steel",
  "4021": " stom",
  "4022": " spinning",
  "4023": " spade",
  "4024": " shrink",
  "4025": " scooter",
  "4026": " saving",
  "4027": " repeat",
  "4028": " repair",
  "4029": " problems",
  "4030": " point",
  "4031": " post",
  "4032": " pinch",
  "4033": " pastry",
  "4034": " panda",
  "4035": " oil",
  "4036": " meal",
  "4037": " maze",
  "4038": " men",
  "4039": " library",
  "4040": " lie",
  "4041": " laundry",
  "4042": " lid",
  "4043": " kne",
  "4044": " itch",
  "4045": " hotel",
  "4046": " houses",
  "4047": " golf",
  "4048": " gets",
  "4049": " film",
  "4050": " fought",
  "4051": " elevator",
  "4052": " driving",
  "4053": " dishes",
  "4054": " courage",
  "4055": " content",
  "4056": " curtain",
  "4057": " attach",
  "4058": " art",
  "4059": " admire",
  "4060": " Wiggly",
  "4061": " Rob",
  "4062": " Is",
  "4063": " Y",
  "4064": " V",
  "4065": "ured",
  "4066": "ugged",
  "4067": "under",
  "4068": "uesday",
  "4069": "stic",
  "4070": "rank",
  "4071": "iron",
  "4072": "igent",
  "4073": "fast",
  "4074": "ete",
  "4075": "elligent",
  "4076": "edy",
  "4077": "ecause",
  "4078": "aurant",
  "4079": "alley",
  "4080": "Mimi",
  "4081": "Em",
  "4082": "Bye",
  "4083": "Al",
  "4084": " windows",
  "4085": " winter",
  "4086": " whale",
  "4087": " weight",
  "4088": " thunder",
  "4089": " surrender",
  "4090": " squirrels",
  "4091": " sounded",
  "4092": " shaking",
  "4093": " seem",
  "4094": " scale",
  "4095": " restless",
  "4096": " restaurant",
  "4097": " reading",
  "4098": " rece",
  "4099": " rot",
  "4100": " riding",
  "4101": " price",
  "4102": " poked",
  "4103": " older",
  "4104": " oak",
  "4105": " nur",
  "4106": " lions",
  "4107": " lawyer",
  "4108": " invite",
  "4109": " intelligent",
  "4110": " hurry",
  "4111": " holes",
  "4112": " heads",
  "4113": " hen",
  "4114": " handed",
  "4115": " grapes",
  "4116": " gathered",
  "4117": " gain",
  "4118": " forgave",
  "4119": " enthusiastic",
  "4120": " doors",
  "4121": " comfort",
  "4122": " cherries",
  "4123": " calling",
  "4124": " breakfast",
  "4125": " bounced",
  "4126": " bicycle",
  "4127": " bandage",
  "4128": " Tuesday",
  "4129": "web",
  "4130": "stiv",
  "4131": "stival",
  "4132": "omed",
  "4133": "oved",
  "4134": "lies",
  "4135": "ipping",
  "4136": "cage",
  "4137": "atient",
  "4138": "aring",
  "4139": "agre",
  "4140": "acket",
  "4141": "ache",
  "4142": "Jimmy",
  "4143": "Jill",
  "4144": " wrapped",
  "4145": " warn",
  "4146": " valley",
  "4147": " tools",
  "4148": " spoil",
  "4149": " snail",
  "4150": " slip",
  "4151": " silver",
  "4152": " shadow",
  "4153": " roared",
  "4154": " remove",
  "4155": " puddles",
  "4156": " prep",
  "4157": " pole",
  "4158": " parade",
  "4159": " pair",
  "4160": " papers",
  "4161": " page",
  "4162": " nurse",
  "4163": " nature",
  "4164": " nation",
  "4165": " letters",
  "4166": " impatient",
  "4167": " imagine",
  "4168": " hedge",
  "4169": " grabs",
  "4170": " festival",
  "4171": " discovered",
  "4172": " disagre",
  "4173": " dra",
  "4174": " cobweb",
  "4175": " coins",
  "4176": " check",
  "4177": " cere",
  "4178": " carrying",
  "4179": " broccoli",
  "4180": " breaks",
  "4181": " birdcage",
  "4182": " arg",
  "4183": " allowed",
  "4184": " against",
  "4185": " Zoe",
  "4186": " Polly",
  "4187": " Mar",
  "4188": " Finny",
  "4189": " Everywhere",
  "4190": " Eventually",
  "4191": "uper",
  "4192": "rod",
  "4193": "ndor",
  "4194": "nal",
  "4195": "ison",
  "4196": "icle",
  "4197": "ggy",
  "4198": "ating",
  "4199": "ates",
  "4200": "anges",
  "4201": "Woof",
  "4202": "Joe",
  "4203": "Daddy",
  "4204": " zipper",
  "4205": " yaw",
  "4206": " vendor",
  "4207": " vine",
  "4208": " throws",
  "4209": " sweater",
  "4210": " style",
  "4211": " sticky",
  "4212": " sorting",
  "4213": " separ",
  "4214": " sandbox",
  "4215": " super",
  "4216": " size",
  "4217": " poems",
  "4218": " perfume",
  "4219": " port",
  "4220": " pine",
  "4221": " motor",
  "4222": " kinds",
  "4223": " journal",
  "4224": " jail",
  "4225": " jacket",
  "4226": " ins",
  "4227": " hurric",
  "4228": " harbor",
  "4229": " hammer",
  "4230": " hanger",
  "4231": " frowned",
  "4232": " frogs",
  "4233": " five",
  "4234": " explain",
  "4235": " dreamed",
  "4236": " dem",
  "4237": " colour",
  "4238": " cheek",
  "4239": " chose",
  "4240": " caring",
  "4241": " cane",
  "4242": " alarm",
  "4243": " Ruby",
  "4244": " Owl",
  "4245": " Lulu",
  "4246": "year",
  "4247": "verse",
  "4248": "umpet",
  "4249": "umbled",
  "4250": "ready",
  "4251": "olog",
  "4252": "night",
  "4253": "laud",
  "4254": "lp",
  "4255": "loe",
  "4256": "helf",
  "4257": "heart",
  "4258": "ffic",
  "4259": "chor",
  "4260": "astic",
  "4261": "arlie",
  "4262": "Did",
  "4263": ",”",
  "4264": "'ve",
  "4265": " weep",
  "4266": " wallet",
  "4267": " trunk",
  "4268": " trumpet",
  "4269": " toast",
  "4270": " stretched",
  "4271": " stomach",
  "4272": " stirred",
  "4273": " shakes",
  "4274": " settle",
  "4275": " summer",
  "4276": " sudden",
  "4277": " remain",
  "4278": " rail",
  "4279": " prayed",
  "4280": " perm",
  "4281": " parent",
  "4282": " metal",
  "4283": " marched",
  "4284": " mailman",
  "4285": " mention",
  "4286": " listening",
  "4287": " kingdom",
  "4288": " introd",
  "4289": " inse",
  "4290": " ink",
  "4291": " ignored",
  "4292": " hurricane",
  "4293": " holds",
  "4294": " graceful",
  "4295": " grape",
  "4296": " fireman",
  "4297": " distance",
  "4298": " cooler",
  "4299": " comf",
  "4300": " chickens",
  "4301": " checked",
  "4302": " cereal",
  "4303": " cur",
  "4304": " bookshelf",
  "4305": " blueberry",
  "4306": " basketball",
  "4307": " base",
  "4308": " apolog",
  "4309": " anyway",
  "4310": " anchor",
  "4311": " already",
  "4312": " alive",
  "4313": " airport",
  "4314": " accidentally",
  "4315": " accept",
  "4316": " ahead",
  "4317": " Sque",
  "4318": " Sm",
  "4319": " Pippin",
  "4320": " Pandy",
  "4321": " Help",
  "4322": " Betty",
  "4323": " iron",
  "4324": "sters",
  "4325": "lter",
  "4326": "gie",
  "4327": "bbon",
  "4328": "ampoo",
  "4329": "aggie",
  "4330": "aches",
  "4331": "Next",
  "4332": "Lisa",
  "4333": "Daisy",
  "4334": "Because",
  "4335": "==",
  "4336": " yoga",
  "4337": " wipe",
  "4338": " wags",
  "4339": " veh",
  "4340": " twisted",
  "4341": " tour",
  "4342": " sweetie",
  "4343": " sweetheart",
  "4344": " swamp",
  "4345": " strike",
  "4346": " spots",
  "4347": " sneeze",
  "4348": " snap",
  "4349": " smoke",
  "4350": " shampoo",
  "4351": " sent",
  "4352": " ribbon",
  "4353": " restore",
  "4354": " resist",
  "4355": " regret",
  "4356": " pushes",
  "4357": " provide",
  "4358": " proudly",
  "4359": " peeked",
  "4360": " packed",
  "4361": " pitch",
  "4362": " office",
  "4363": " offered",
  "4364": " nobody",
  "4365": " mystery",
  "4366": " muffin",
  "4367": " modest",
  "4368": " memory",
  "4369": " mall",
  "4370": " lick",
  "4371": " leak",
  "4372": " lime",
  "4373": " keeping",
  "4374": " jewelry",
  "4375": " ignore",
  "4376": " freez",
  "4377": " fro",
  "4378": " fixing",
  "4379": " drain",
  "4380": " destroyed",
  "4381": " demand",
  "4382": " delighted",
  "4383": " cub",
  "4384": " crossed",
  "4385": " country",
  "4386": " classroom",
  "4387": " circles",
  "4388": " comet",
  "4389": " buttons",
  "4390": " buzz",
  "4391": " broom",
  "4392": " belongs",
  "4393": " believed",
  "4394": " Lenny",
  "4395": " Johnny",
  "4396": " End",
  "4397": "vice",
  "4398": "utor",
  "4399": "urch",
  "4400": "ucet",
  "4401": "stal",
  "4402": "shion",
  "4403": "squ",
  "4404": "squit",
  "4405": "squito",
  "4406": "orch",
  "4407": "ophy",
  "4408": "na",
  "4409": "ittens",
  "4410": "imed",
  "4411": "iest",
  "4412": "eration",
  "4413": "ense",
  "4414": "ecture",
  "4415": "case",
  "4416": "ason",
  "4417": "Yay",
  "4418": "Well",
  "4419": "Not",
  "4420": "Mary",
  "4421": "Grandma",
  "4422": "!\".",
  "4423": " zero",
  "4424": " vroom",
  "4425": " upstairs",
  "4426": " universe",
  "4427": " trophy",
  "4428": " theater",
  "4429": " thanks",
  "4430": " tutor",
  "4431": " strip",
  "4432": " strawberries",
  "4433": " strugg",
  "4434": " steps",
  "4435": " somewhere",
  "4436": " sniffed",
  "4437": " sliding",
  "4438": " shouts",
  "4439": " shelter",
  "4440": " separate",
  "4441": " rush",
  "4442": " prevent",
  "4443": " polish",
  "4444": " poison",
  "4445": " plastic",
  "4446": " pirate",
  "4447": " petals",
  "4448": " porch",
  "4449": " pony",
  "4450": " pages",
  "4451": " operation",
  "4452": " observe",
  "4453": " mosquito",
  "4454": " mass",
  "4455": " lecture",
  "4456": " lamp",
  "4457": " kneel",
  "4458": " insect",
  "4459": " incl",
  "4460": " image",
  "4461": " growing",
  "4462": " gro",
  "4463": " freezer",
  "4464": " fingers",
  "4465": " famil",
  "4466": " faucet",
  "4467": " fashion",
  "4468": " doesn",
  "4469": " crystal",
  "4470": " church",
  "4471": " cakes",
  "4472": " butterflies",
  "4473": " bumped",
  "4474": " buried",
  "4475": " brothers",
  "4476": " below",
  "4477": " beg",
  "4478": " barking",
  "4479": " balan",
  "4480": " bet",
  "4481": " allow",
  "4482": " advice",
  "4483": " Where",
  "4484": " Snowy",
  "4485": " Smith",
  "4486": " Paul",
  "4487": " Nana",
  "4488": " Joey",
  "4489": " Froggy",
  "4490": " Frank",
  "4491": "veal",
  "4492": "sterday",
  "4493": "play",
  "4494": "mble",
  "4495": "live",
  "4496": "ivi",
  "4497": "isdom",
  "4498": "igloo",
  "4499": "iform",
  "4500": "esterday",
  "4501": "drobe",
  "4502": "arian",
  "4503": "apa",
  "4504": "anger",
  "4505": "aced",
  "4506": "See",
  "4507": "Ready",
  "4508": "Ch",
  "4509": "..",
  "4510": ".'",
  "4511": " zookeeper",
  "4512": " yucky",
  "4513": " worms",
  "4514": " web",
  "4515": " washing",
  "4516": " wardrobe",
  "4517": " vehicle",
  "4518": " urge",
  "4519": " uniform",
  "4520": " twir",
  "4521": " tremble",
  "4522": " tong",
  "4523": " surprises",
  "4524": " suggested",
  "4525": " stro",
  "4526": " spell",
  "4527": " sorted",
  "4528": " smells",
  "4529": " suff",
  "4530": " reveal",
  "4531": " player",
  "4532": " peek",
  "4533": " pebbles",
  "4534": " paused",
  "4535": " pleased",
  "4536": " menu",
  "4537": " meowed",
  "4538": " lily",
  "4539": " jokes",
  "4540": " introduce",
  "4541": " highest",
  "4542": " greedy",
  "4543": " goal",
  "4544": " giggle",
  "4545": " football",
  "4546": " ext",
  "4547": " ended",
  "4548": " emer",
  "4549": " eagerly",
  "4550": " drops",
  "4551": " display",
  "4552": " dust",
  "4553": " cupboard",
  "4554": " claw",
  "4555": " choice",
  "4556": " chasing",
  "4557": " cared",
  "4558": " bookcase",
  "4559": " boats",
  "4560": " beep",
  "4561": " baking",
  "4562": " bak",
  "4563": " acorns",
  "4564": " Toto",
  "4565": " Pete",
  "4566": " Pat",
  "4567": " Look",
  "4568": " Fl",
  "4569": " Chloe",
  "4570": " Big",
  "4571": " igloo",
  "4572": "yth",
  "4573": "uddles",
  "4574": "ucture",
  "4575": "ucked",
  "4576": "riage",
  "4577": "orted",
  "4578": "lv",
  "4579": "lid",
  "4580": "inarian",
  "4581": "ides",
  "4582": "eterinarian",
  "4583": "essie",
  "4584": "emember",
  "4585": "ected",
  "4586": "come",
  "4587": "ations",
  "4588": "aroo",
  "4589": "angaroo",
  "4590": "anny",
  "4591": "amber",
  "4592": "apping",
  "4593": "Jenny",
  "4594": "Ha",
  "4595": " west",
  "4596": " warning",
  "4597": " warned",
  "4598": " wandered",
  "4599": " wigg",
  "4600": " veterinarian",
  "4601": " urged",
  "4602": " traffic",
  "4603": " thumb",
  "4604": " studied",
  "4605": " structure",
  "4606": " stranger",
  "4607": " sticker",
  "4608": " squee",
  "4609": " softly",
  "4610": " shrugged",
  "4611": " shower",
  "4612": " shivering",
  "4613": " shield",
  "4614": " season",
  "4615": " score",
  "4616": " scoop",
  "4617": " sadly",
  "4618": " ringing",
  "4619": " reverse",
  "4620": " reaches",
  "4621": " puzzles",
  "4622": " putting",
  "4623": " pies",
  "4624": " opin",
  "4625": " mixer",
  "4626": " minute",
  "4627": " meas",
  "4628": " leaned",
  "4629": " luck",
  "4630": " kangaroo",
  "4631": " jazz",
  "4632": " increase",
  "4633": " imagined",
  "4634": " hoping",
  "4635": " freeze",
  "4636": " colourful",
  "4637": " coats",
  "4638": " cherry",
  "4639": " chamber",
  "4640": " cards",
  "4641": " burned",
  "4642": " buckle",
  "4643": " brightly",
  "4644": " breeze",
  "4645": " breat",
  "4646": " applaud",
  "4647": " Sofia",
  "4648": " Sophie",
  "4649": " Slow",
  "4650": " Papa",
  "4651": " Jo",
  "4652": " Fo",
  "4653": " Brownie",
  "4654": " Abby",
  "4655": "20e280",
  "4656": "ythm",
  "4657": "we",
  "4658": "spit",
  "4659": "spital",
  "4660": "place",
  "4661": "ola",
  "4662": "ogn",
  "4663": "nesday",
  "4664": "medi",
  "4665": "mediately",
  "4666": "mare",
  "4667": "liday",
  "4668": "ls",
  "4669": "itation",
  "4670": "ippery",
  "4671": "inking",
  "4672": "icer",
  "4673": "hero",
  "4674": "ednesday",
  "4675": "eer",
  "4676": "azor",
  "4677": "asis",
  "4678": "Mark",
  "4679": "Ella",
  "4680": "Bobby",
  "4681": " trusted",
  "4682": " tornado",
  "4683": " tongue",
  "4684": " supply",
  "4685": " superhero",
  "4686": " starts",
  "4687": " stumbled",
  "4688": " squeeze",
  "4689": " slippery",
  "4690": " skill",
  "4691": " sits",
  "4692": " served",
  "4693": " scratch",
  "4694": " respectful",
  "4695": " recogn",
  "4696": " rained",
  "4697": " rabbits",
  "4698": " row",
  "4699": " razor",
  "4700": " poppy",
  "4701": " penny",
  "4702": " oranges",
  "4703": " olive",
  "4704": " oasis",
  "4705": " nightmare",
  "4706": " neighb",
  "4707": " massage",
  "4708": " marks",
  "4709": " insisted",
  "4710": " inf",
  "4711": " hospital",
  "4712": " holiday",
  "4713": " hook",
  "4714": " guessed",
  "4715": " fresh",
  "4716": " forgotten",
  "4717": " floated",
  "4718": " flour",
  "4719": " feelings",
  "4720": " fallen",
  "4721": " extra",
  "4722": " excitedly",
  "4723": " encourage",
  "4724": " deeper",
  "4725": " cutting",
  "4726": " cups",
  "4727": " climbs",
  "4728": " claws",
  "4729": " cape",
  "4730": " boots",
  "4731": " babies",
  "4732": " attached",
  "4733": " agree",
  "4734": " Wisdom",
  "4735": " Vivi",
  "4736": " Under",
  "4737": " Squeaky",
  "4738": " Su",
  "4739": " Rock",
  "4740": " Pinky",
  "4741": " Not",
  "4742": " Next",
  "4743": " Milly",
  "4744": " Jake",
  "4745": " Dave",
  "4746": " Cuddles",
  "4747": " x",
  "4748": "tain",
  "4749": "scope",
  "4750": "redient",
  "4751": "redients",
  "4752": "ops",
  "4753": "nce",
  "4754": "izes",
  "4755": "ites",
  "4756": "irring",
  "4757": "iraffe",
  "4758": "ingredients",
  "4759": "gency",
  "4760": "eal",
  "4761": "ctory",
  "4762": "axi",
  "4763": "atie",
  "4764": "Leo",
  "4765": "Before",
  "4766": "Bella",
  "4767": " wisdom",
  "4768": " tightly",
  "4769": " taxi",
  "4770": " stirring",
  "4771": " squeezed",
  "4772": " sisters",
  "4773": " shouldn",
  "4774": " selling",
  "4775": " seats",
  "4776": " scold",
  "4777": " six",
  "4778": " receive",
  "4779": " raised",
  "4780": " raise",
  "4781": " printed",
  "4782": " prize",
  "4783": " pretending",
  "4784": " prepare",
  "4785": " potatoes",
  "4786": " phot",
  "4787": " permit",
  "4788": " paid",
  "4789": " ourselves",
  "4790": " mustache",
  "4791": " moves",
  "4792": " mint",
  "4793": " mummy",
  "4794": " licks",
  "4795": " lands",
  "4796": " imagination",
  "4797": " immediately",
  "4798": " hurting",
  "4799": " hung",
  "4800": " hills",
  "4801": " hearts",
  "4802": " grocer",
  "4803": " grandpa",
  "4804": " given",
  "4805": " follows",
  "4806": " flood",
  "4807": " flame",
  "4808": " fart",
  "4809": " families",
  "4810": " factory",
  "4811": " expect",
  "4812": " ener",
  "4813": " easily",
  "4814": " dresses",
  "4815": " dressed",
  "4816": " delay",
  "4817": " dared",
  "4818": " counter",
  "4819": " collar",
  "4820": " chirp",
  "4821": " chance",
  "4822": " captain",
  "4823": " cudd",
  "4824": " blood",
  "4825": " beans",
  "4826": " baseball",
  "4827": " bother",
  "4828": " attention",
  "4829": " amazement",
  "4830": " Whenever",
  "4831": " Would",
  "4832": " Wednesday",
  "4833": " Rover",
  "4834": " Rollie",
  "4835": " Mittens",
  "4836": " Me",
  "4837": " Lee",
  "4838": " Happy",
  "4839": " Giraffe",
  "4840": " Finn",
  "4841": " ingredients",
  "4842": " \n",
  "4843": "zen",
  "4844": "speci",
  "4845": "specially",
  "4846": "noon",
  "4847": "laimed",
  "4848": "indeer",
  "4849": "ince",
  "4850": "ica",
  "4851": "ien",
  "4852": "do",
  "4853": "arnt",
  "4854": "ari",
  "4855": "agull",
  "4856": "Yuck",
  "4857": "Sh",
  "4858": " –",
  "4859": " writing",
  "4860": " worse",
  "4861": " winning",
  "4862": " understanding",
  "4863": " trade",
  "4864": " tonight",
  "4865": " thread",
  "4866": " teaching",
  "4867": " tug",
  "4868": " streng",
  "4869": " stops",
  "4870": " sting",
  "4871": " splashing",
  "4872": " solved",
  "4873": " socks",
  "4874": " soak",
  "4875": " sneezed",
  "4876": " seagull",
  "4877": " scattered",
  "4878": " reindeer",
  "4879": " radish",
  "4880": " quietly",
  "4881": " prune",
  "4882": " press",
  "4883": " playtime",
  "4884": " placed",
  "4885": " panic",
  "4886": " ped",
  "4887": " opinion",
  "4888": " meeting",
  "4889": " marriage",
  "4890": " learnt",
  "4891": " laid",
  "4892": " lung",
  "4893": " knot",
  "4894": " infant",
  "4895": " inst",
  "4896": " hopes",
  "4897": " guy",
  "4898": " gazed",
  "4899": " frozen",
  "4900": " flies",
  "4901": " fireplace",
  "4902": " explored",
  "4903": " exper",
  "4904": " exclaimed",
  "4905": " enter",
  "4906": " emergency",
  "4907": " especially",
  "4908": " dear",
  "4909": " dried",
  "4910": " daisy",
  "4911": " conf",
  "4912": " collection",
  "4913": " chairs",
  "4914": " cartoon",
  "4915": " calls",
  "4916": " breaking",
  "4917": " blowing",
  "4918": " beat",
  "4919": " barks",
  "4920": " apart",
  "4921": " afternoon",
  "4922": " admired",
  "4923": " added",
  "4924": " Tippy",
  "4925": " Teddy",
  "4926": " Lola",
  "4927": " Joy",
  "4928": " James",
  "4929": " Have",
  "4930": " Elly",
  "4931": " Dino",
  "4932": " Dare",
  "4933": " Charlie",
  "4934": " Cl",
  "4935": " Bow",
  "4936": "urther",
  "4937": "urpr",
  "4938": "umes",
  "4939": "uel",
  "4940": "ube",
  "4941": "roscope",
  "4942": "reen",
  "4943": "pted",
  "4944": "men",
  "4945": "lephant",
  "4946": "izing",
  "4947": "ities",
  "4948": "icing",
  "4949": "iving",
  "4950": "htray",
  "4951": "hood",
  "4952": "happy",
  "4953": "ges",
  "4954": "exture",
  "4955": "elcome",
  "4956": "eath",
  "4957": "aser",
  "4958": "anie",
  "4959": "aded",
  "4960": "Would",
  "4961": "Will",
  "4962": "Fred",
  "4963": "Emma",
  "4964": " zigzag",
  "4965": " wonders",
  "4966": " watered",
  "4967": " vanished",
  "4968": " tracks",
  "4969": " toes",
  "4970": " tucked",
  "4971": " tube",
  "4972": " texture",
  "4973": " suffer",
  "4974": " studying",
  "4975": " stealing",
  "4976": " stitch",
  "4977": " skipping",
  "4978": " shone",
  "4979": " replace",
  "4980": " ranch",
  "4981": " rul",
  "4982": " pulls",
  "4983": " photos",
  "4984": " passport",
  "4985": " pans",
  "4986": " offer",
  "4987": " myself",
  "4988": " monkeys",
  "4989": " miner",
  "4990": " microscope",
  "4991": " manage",
  "4992": " lives",
  "4993": " lemonade",
  "4994": " limes",
  "4995": " kindly",
  "4996": " grant",
  "4997": " flapped",
  "4998": " experience",
  "4999": " examine",
  "5000": " embarrass",
  "5001": " drinks",
  "5002": " disagreed",
  "5003": " crawling",
  "5004": " costumes",
  "5005": " copper",
  "5006": " brings",
  "5007": " blueberries",
  "5008": " beauty",
  "5009": " baked",
  "5010": " ashtray",
  "5011": " accepted",
  "5012": " Stitch",
  "5013": " May",
  "5014": " Maggie",
  "5015": " Jessica",
  "5016": " Ho",
  "5017": " God",
  "5018": " Good",
  "5019": " Frog",
  "5020": " Co",
  "5021": " Blink",
  "5022": " Birdy",
  "5023": " Before",
  "5024": " Bally",
  "5025": "ween",
  "5026": "walk",
  "5027": "urprise",
  "5028": "unately",
  "5029": "uss",
  "5030": "thank",
  "5031": "sed",
  "5032": "raised",
  "5033": "quest",
  "5034": "ouncy",
  "5035": "oby",
  "5036": "laire",
  "5037": "iolet",
  "5038": "icorn",
  "5039": "hter",
  "5040": "etch",
  "5041": "dam",
  "5042": "cuss",
  "5043": "book",
  "5044": "boo",
  "5045": "atched",
  "5046": "Everyone",
  "5047": "Ann",
  "5048": "All",
  "5049": " weather",
  "5050": " veil",
  "5051": " unicorn",
  "5052": " unhappy",
  "5053": " tomatoes",
  "5054": " tore",
  "5055": " teasing",
  "5056": " surf",
  "5057": " strength",
  "5058": " steam",
  "5059": " stair",
  "5060": " sidewalk",
  "5061": " sew",
  "5062": " since",
  "5063": " rules",
  "5064": " removed",
  "5065": " racing",
  "5066": " punished",
  "5067": " punish",
  "5068": " prett",
  "5069": " planted",
  "5070": " patch",
  "5071": " praised",
  "5072": " notebook",
  "5073": " novel",
  "5074": " names",
  "5075": " mineral",
  "5076": " master",
  "5077": " laughter",
  "5078": " include",
  "5079": " hers",
  "5080": " grocery",
  "5081": " gloves",
  "5082": " fort",
  "5083": " following",
  "5084": " further",
  "5085": " energy",
  "5086": " elephants",
  "5087": " eaten",
  "5088": " donkey",
  "5089": " discuss",
  "5090": " curled",
  "5091": " crane",
  "5092": " comfy",
  "5093": " collecting",
  "5094": " celebration",
  "5095": " buckets",
  "5096": " between",
  "5097": " belt",
  "5098": " bears",
  "5099": " appro",
  "5100": " Toby",
  "5101": " Snowman",
  "5102": " Rocky",
  "5103": " Remember",
  "5104": " Little",
  "5105": " Ke",
  "5106": " Hop",
  "5107": " Grand",
  "5108": " Each",
  "5109": " Bug",
  "5110": " Bouncy",
  "5111": " Binky",
  "5112": " Bessie",
  "5113": " er",
  "5114": " Once",
  "5115": "uggled",
  "5116": "uggage",
  "5117": "shed",
  "5118": "rect",
  "5119": "raged",
  "5120": "ouch",
  "5121": "mend",
  "5122": "lsa",
  "5123": "looking",
  "5124": "ising",
  "5125": "ipe",
  "5126": "inked",
  "5127": "ids",
  "5128": "ercy",
  "5129": "enge",
  "5130": "commend",
  "5131": "cious",
  "5132": "bert",
  "5133": "azine",
  "5134": "allenge",
  "5135": "aby",
  "5136": "abella",
  "5137": "Welcome",
  "5138": "Today",
  "5139": "These",
  "5140": "Thanks",
  "5141": "Surprise",
  "5142": "Momo",
  "5143": "Bird",
  "5144": "Alice",
  "5145": "\",",
  "5146": "!\",",
  "5147": " zoomed",
  "5148": " yawned",
  "5149": " worth",
  "5150": " wiggle",
  "5151": " whistled",
  "5152": " whisper",
  "5153": " watches",
  "5154": " waits",
  "5155": " unlocked",
  "5156": " treasures",
  "5157": " throwing",
  "5158": " sticking",
  "5159": " starting",
  "5160": " sneaky",
  "5161": " snuggled",
  "5162": " snapped",
  "5163": " silence",
  "5164": " shoulder",
  "5165": " shined",
  "5166": " settled",
  "5167": " scolded",
  "5168": " sir",
  "5169": " resp",
  "5170": " request",
  "5171": " recommend",
  "5172": " quite",
  "5173": " pigs",
  "5174": " peanuts",
  "5175": " patterns",
  "5176": " opera",
  "5177": " oh",
  "5178": " meow",
  "5179": " matches",
  "5180": " married",
  "5181": " magazine",
  "5182": " mister",
  "5183": " lightning",
  "5184": " letting",
  "5185": " luggage",
  "5186": " keeper",
  "5187": " jogged",
  "5188": " invitation",
  "5189": " instr",
  "5190": " inch",
  "5191": " hadn",
  "5192": " hall",
  "5193": " grin",
  "5194": " folded",
  "5195": " flat",
  "5196": " fireworks",
  "5197": " feeding",
  "5198": " fed",
  "5199": " creatures",
  "5200": " challenge",
  "5201": " candles",
  "5202": " bubble",
  "5203": " bravely",
  "5204": " brain",
  "5205": " blinked",
  "5206": " beneath",
  "5207": " bend",
  "5208": " bakery",
  "5209": " badly",
  "5210": " argue",
  "5211": " approached",
  "5212": " apologized",
  "5213": " activ",
  "5214": " Zigzag",
  "5215": " Un",
  "5216": " Sparky",
  "5217": " Sharing",
  "5218": " Sun",
  "5219": " Mo",
  "5220": " Katie",
  "5221": " Hopper",
  "5222": " Hoot",
  "5223": " Grandpa",
  "5224": " Grace",
  "5225": " Elephant",
  "5226": " Chick",
  "5227": " Acorn",
  "5228": "ups",
  "5229": "uct",
  "5230": "ssible",
  "5231": "reck",
  "5232": "phone",
  "5233": "omeday",
  "5234": "ky",
  "5235": "kins",
  "5236": "ium",
  "5237": "iers",
  "5238": "go",
  "5239": "fortunately",
  "5240": "ety",
  "5241": "cycle",
  "5242": "cond",
  "5243": "cense",
  "5244": "ayak",
  "5245": "avid",
  "5246": "aped",
  "5247": "adium",
  "5248": "With",
  "5249": "Watch",
  "5250": "True",
  "5251": "Ok",
  "5252": "May",
  "5253": "Eventually",
  "5254": "Buddy",
  "5255": " worker",
  "5256": " waffles",
  "5257": " waving",
  "5258": " wreck",
  "5259": " visited",
  "5260": " vest",
  "5261": " underground",
  "5262": " twink",
  "5263": " trave",
  "5264": " theirs",
  "5265": " telephone",
  "5266": " tastes",
  "5267": " stadium",
  "5268": " sprink",
  "5269": " spending",
  "5270": " spit",
  "5271": " soldiers",
  "5272": " sneak",
  "5273": " slap",
  "5274": " shopping",
  "5275": " seeing",
  "5276": " second",
  "5277": " sausages",
  "5278": " safety",
  "5279": " someday",
  "5280": " sizes",
  "5281": " sip",
  "5282": " ruler",
  "5283": " rooms",
  "5284": " ropes",
  "5285": " rescued",
  "5286": " result",
  "5287": " remained",
  "5288": " relaxed",
  "5289": " quack",
  "5290": " pushing",
  "5291": " planes",
  "5292": " oat",
  "5293": " napping",
  "5294": " motorcycle",
  "5295": " moments",
  "5296": " mama",
  "5297": " lips",
  "5298": " license",
  "5299": " leather",
  "5300": " lined",
  "5301": " kayak",
  "5302": " item",
  "5303": " happens",
  "5304": " growled",
  "5305": " girls",
  "5306": " gathering",
  "5307": " entered",
  "5308": " encouraged",
  "5309": " eagle",
  "5310": " downstairs",
  "5311": " during",
  "5312": " contest",
  "5313": " clapping",
  "5314": " celebrated",
  "5315": " brighter",
  "5316": " breathe",
  "5317": " brushed",
  "5318": " biting",
  "5319": " bites",
  "5320": " balanced",
  "5321": " ashes",
  "5322": " anywhere",
  "5323": " ann",
  "5324": " allig",
  "5325": " agreement",
  "5326": " Who",
  "5327": " See",
  "5328": " Ray",
  "5329": " Percy",
  "5330": " Maria",
  "5331": " Kate",
  "5332": " Jacky",
  "5333": " Fox",
  "5334": " Cra",
  "5335": " Betsy",
  "5336": " Alice",
  "5337": "zi",
  "5338": "usty",
  "5339": "umber",
  "5340": "uest",
  "5341": "sing",
  "5342": "rian",
  "5343": "rec",
  "5344": "reci",
  "5345": "rs",
  "5346": "rr",
  "5347": "quake",
  "5348": "oys",
  "5349": "orses",
  "5350": "lue",
  "5351": "jo",
  "5352": "ishy",
  "5353": "ishing",
  "5354": "imple",
  "5355": "iggy",
  "5356": "ezi",
  "5357": "eve",
  "5358": "eave",
  "5359": "choo",
  "5360": "angers",
  "5361": "anna",
  "5362": "acked",
  "5363": "Stay",
  "5364": "Sp",
  "5365": "Moral",
  "5366": "Emily",
  "5367": "Dog",
  "5368": "Bu",
  "5369": " zipped",
  "5370": " workers",
  "5371": " wondering",
  "5372": " whistles",
  "5373": " wob",
  "5374": " villag",
  "5375": " vanish",
  "5376": " twin",
  "5377": " tubes",
  "5378": " trips",
  "5379": " stripes",
  "5380": " stretching",
  "5381": " strangers",
  "5382": " sprayed",
  "5383": " spike",
  "5384": " soared",
  "5385": " sneaked",
  "5386": " sights",
  "5387": " setting",
  "5388": " screaming",
  "5389": " simple",
  "5390": " sigh",
  "5391": " roads",
  "5392": " rhythm",
  "5393": " rang",
  "5394": " provided",
  "5395": " project",
  "5396": " presents",
  "5397": " precious",
  "5398": " pride",
  "5399": " poking",
  "5400": " planned",
  "5401": " piles",
  "5402": " pencils",
  "5403": " pedals",
  "5404": " parts",
  "5405": " pipe",
  "5406": " oysters",
  "5407": " organizing",
  "5408": " ordered",
  "5409": " onwards",
  "5410": " olives",
  "5411": " nowhere",
  "5412": " news",
  "5413": " neighbour",
  "5414": " mouths",
  "5415": " measured",
  "5416": " muddy",
  "5417": " mice",
  "5418": " merry",
  "5419": " loop",
  "5420": " loses",
  "5421": " laser",
  "5422": " lines",
  "5423": " kneeled",
  "5424": " knelt",
  "5425": " kisses",
  "5426": " kicking",
  "5427": " ideas",
  "5428": " happiest",
  "5429": " handful",
  "5430": " horses",
  "5431": " grinned",
  "5432": " glasses",
  "5433": " gifts",
  "5434": " guest",
  "5435": " gained",
  "5436": " forgets",
  "5437": " floating",
  "5438": " flap",
  "5439": " fetch",
  "5440": " exit",
  "5441": " earthquake",
  "5442": " drinking",
  "5443": " decides",
  "5444": " cushions",
  "5445": " copy",
  "5446": " candies",
  "5447": " buzzing",
  "5448": " bricks",
  "5449": " bouncy",
  "5450": " bouncing",
  "5451": " bloomed",
  "5452": " bang",
  "5453": " appreci",
  "5454": " appear",
  "5455": " alligator",
  "5456": " Yesterday",
  "5457": " Wiggles",
  "5458": " Tara",
  "5459": " Stop",
  "5460": " Spin",
  "5461": " Sky",
  "5462": " Red",
  "5463": " Pizza",
  "5464": " Meg",
  "5465": " Mushroom",
  "5466": " Josh",
  "5467": " Janie",
  "5468": " For",
  "5469": " Elsa",
  "5470": " Clara",
  "5471": " Cow",
  "5472": " Both",
  "5473": " Barry",
  "5474": "usb",
  "5475": "usband",
  "5476": "unchy",
  "5477": "ulp",
  "5478": "udience",
  "5479": "raight",
  "5480": "ris",
  "5481": "ring",
  "5482": "riger",
  "5483": "rigerator",
  "5484": "quip",
  "5485": "quipment",
  "5486": "plash",
  "5487": "ories",
  "5488": "ored",
  "5489": "lvet",
  "5490": "itches",
  "5491": "hee",
  "5492": "hind",
  "5493": "ha",
  "5494": "erious",
  "5495": "ena",
  "5496": "eds",
  "5497": "bey",
  "5498": "aws",
  "5499": "atty",
  "5500": "Yum",
  "5501": "Whiskers",
  "5502": "Time",
  "5503": "Ruby",
  "5504": "Rob",
  "5505": "Remy",
  "5506": "Qu",
  "5507": "Johnny",
  "5508": "Happy",
  "5509": "Ex",
  "5510": "Dave",
  "5511": "Blue",
  "5512": "====",
  "5513": "'.",
  "5514": " works",
  "5515": " wooden",
  "5516": " weeping",
  "5517": " wagging",
  "5518": " velvet",
  "5519": " vines",
  "5520": " trapped",
  "5521": " traded",
  "5522": " threat",
  "5523": " thrill",
  "5524": " students",
  "5525": " strings",
  "5526": " straight",
  "5527": " stain",
  "5528": " splashes",
  "5529": " sparkled",
  "5530": " sorts",
  "5531": " soc",
  "5532": " slapped",
  "5533": " skills",
  "5534": " sailing",
  "5535": " rip",
  "5536": " revealed",
  "5537": " refrigerator",
  "5538": " recording",
  "5539": " recorded",
  "5540": " recognize",
  "5541": " released",
  "5542": " pulling",
  "5543": " pup",
  "5544": " prettier",
  "5545": " pops",
  "5546": " points",
  "5547": " plays",
  "5548": " planet",
  "5549": " perfectly",
  "5550": " pearl",
  "5551": " peas",
  "5552": " ours",
  "5553": " observed",
  "5554": " oats",
  "5555": " obey",
  "5556": " none",
  "5557": " nicer",
  "5558": " muscles",
  "5559": " motion",
  "5560": " mixing",
  "5561": " mission",
  "5562": " melting",
  "5563": " magnets",
  "5564": " logs",
  "5565": " lied",
  "5566": " lets",
  "5567": " laying",
  "5568": " keeps",
  "5569": " kites",
  "5570": " jogging",
  "5571": " hits",
  "5572": " hes",
  "5573": " hardly",
  "5574": " husband",
  "5575": " hon",
  "5576": " guys",
  "5577": " gotten",
  "5578": " golden",
  "5579": " glitter",
  "5580": " farther",
  "5581": " equipment",
  "5582": " eight",
  "5583": " eff",
  "5584": " east",
  "5585": " doggy",
  "5586": " disturbed",
  "5587": " difference",
  "5588": " demanded",
  "5589": " decorations",
  "5590": " crashed",
  "5591": " crash",
  "5592": " crunchy",
  "5593": " collected",
  "5594": " chewed",
  "5595": " chef",
  "5596": " catches",
  "5597": " bye",
  "5598": " brid",
  "5599": " blankets",
  "5600": " blouse",
  "5601": " begin",
  "5602": " beds",
  "5603": " boo",
  "5604": " bones",
  "5605": " argued",
  "5606": " answers",
  "5607": " ago",
  "5608": " actually",
  "5609": " audience",
  "5610": " Tina",
  "5611": " Tato",
  "5612": " Suzy",
  "5613": " Stay",
  "5614": " Spinny",
  "5615": " Prince",
  "5616": " Navy",
  "5617": " Mouse",
  "5618": " Lou",
  "5619": " Lizzy",
  "5620": " Later",
  "5621": " Jessie",
  "5622": " Henny",
  "5623": " Everything",
  "5624": " Coco",
  "5625": " Car",
  "5626": " Birdie",
  "5627": "”.",
  "5628": "zie",
  "5629": "ylv",
  "5630": "ylvia",
  "5631": "vest",
  "5632": "vestig",
  "5633": "vestigate",
  "5634": "va",
  "5635": "ubbles",
  "5636": "uke",
  "5637": "tuce",
  "5638": "scaped",
  "5639": "rise",
  "5640": "right",
  "5641": "ounds",
  "5642": "osed",
  "5643": "orge",
  "5644": "mbling",
  "5645": "llen",
  "5646": "liver",
  "5647": "izard",
  "5648": "itched",
  "5649": "ips",
  "5650": "int",
  "5651": "ining",
  "5652": "ighty",
  "5653": "idey",
  "5654": "ived",
  "5655": "ib",
  "5656": "iam",
  "5657": "hello",
  "5658": "father",
  "5659": "edd",
  "5660": "edding",
  "5661": "compl",
  "5662": "chie",
  "5663": "cus",
  "5664": "aterpillar",
  "5665": "antly",
  "5666": "anga",
  "5667": "anes",
  "5668": "aved",
  "5669": "ales",
  "5670": "Un",
  "5671": "Sandy",
  "5672": "Peter",
  "5673": "Jazz",
  "5674": "Fo",
  "5675": "Boo",
  "5676": "Achoo",
  "5677": " zooming",
  "5678": " whistling",
  "5679": " welcomed",
  "5680": " woof",
  "5681": " wizard",
  "5682": " wedding",
  "5683": " voices",
  "5684": " united",
  "5685": " twigs",
  "5686": " trembling",
  "5687": " thrilled",
  "5688": " teased",
  "5689": " tap",
  "5690": " swims",
  "5691": " supposed",
  "5692": " sunrise",
  "5693": " succeeded",
  "5694": " struggling",
  "5695": " sparkle",
  "5696": " soccer",
  "5697": " soil",
  "5698": " snowball",
  "5699": " slice",
  "5700": " situ",
  "5701": " shovels",
  "5702": " shoulders",
  "5703": " shadows",
  "5704": " screams",
  "5705": " scratched",
  "5706": " scattering",
  "5707": " safari",
  "5708": " sense",
  "5709": " rotting",
  "5710": " roaring",
  "5711": " resting",
  "5712": " received",
  "5713": " raining",
  "5714": " quacked",
  "5715": " purred",
  "5716": " printer",
  "5717": " pirates",
  "5718": " pinched",
  "5719": " petted",
  "5720": " pears",
  "5721": " paying",
  "5722": " pastel",
  "5723": " paints",
  "5724": " palm",
  "5725": " outdo",
  "5726": " ornaments",
  "5727": " nails",
  "5728": " muffins",
  "5729": " misses",
  "5730": " mentioned",
  "5731": " melted",
  "5732": " matched",
  "5733": " marble",
  "5734": " mane",
  "5735": " lettuce",
  "5736": " landscape",
  "5737": " lumber",
  "5738": " knocks",
  "5739": " jewels",
  "5740": " inviting",
  "5741": " increased",
  "5742": " investigate",
  "5743": " importance",
  "5744": " hum",
  "5745": " hi",
  "5746": " grandfather",
  "5747": " gust",
  "5748": " folding",
  "5749": " firemen",
  "5750": " fields",
  "5751": " eraser",
  "5752": " effort",
  "5753": " eats",
  "5754": " easier",
  "5755": " escaped",
  "5756": " draws",
  "5757": " dragged",
  "5758": " discovery",
  "5759": " disagree",
  "5760": " direct",
  "5761": " deal",
  "5762": " died",
  "5763": " creation",
  "5764": " created",
  "5765": " crabs",
  "5766": " corners",
  "5767": " comforted",
  "5768": " closely",
  "5769": " chirped",
  "5770": " cheeks",
  "5771": " cough",
  "5772": " bridges",
  "5773": " brus",
  "5774": " blooming",
  "5775": " behaving",
  "5776": " behaved",
  "5777": " beside",
  "5778": " beard",
  "5779": " balancing",
  "5780": " backpack",
  "5781": " bur",
  "5782": " berry",
  "5783": " awe",
  "5784": " aside",
  "5785": " alien",
  "5786": " admir",
  "5787": " activities",
  "5788": " accompl",
  "5789": " Zero",
  "5790": " Watch",
  "5791": " Violet",
  "5792": " Tweety",
  "5793": " These",
  "5794": " Softy",
  "5795": " Shiny",
  "5796": " Sw",
  "5797": " Pippy",
  "5798": " Our",
  "5799": " Oliver",
  "5800": " Nice",
  "5801": " Marie",
  "5802": " Moppy",
  "5803": " Mina",
  "5804": " Mighty",
  "5805": " Mandy",
  "5806": " Love",
  "5807": " Lilly",
  "5808": " Jackie",
  "5809": " However",
  "5810": " Hatty",
  "5811": " Get",
  "5812": " David",
  "5813": " Dan",
  "5814": " Brush",
  "5815": " Being",
  "5816": " Bubbles",
  "5817": " X",
  "5818": "was",
  "5819": "washer",
  "5820": "vroom",
  "5821": "untie",
  "5822": "une",
  "5823": "uments",
  "5824": "reat",
  "5825": "ranny",
  "5826": "oper",
  "5827": "oming",
  "5828": "occo",
  "5829": "no",
  "5830": "nap",
  "5831": "mother",
  "5832": "mm",
  "5833": "lowers",
  "5834": "leed",
  "5835": "issue",
  "5836": "irm",
  "5837": "igging",
  "5838": "ido",
  "5839": "icular",
  "5840": "iar",
  "5841": "ern",
  "5842": "enry",
  "5843": "elle",
  "5844": "eorge",
  "5845": "eff",
  "5846": "cie",
  "5847": "avi",
  "5848": "armony",
  "5849": "arely",
  "5850": "anta",
  "5851": "anted",
  "5852": "amb",
  "5853": "acob",
  "5854": "Sammy",
  "5855": "Sophie",
  "5856": "Ro",
  "5857": "Rex",
  "5858": "Our",
  "5859": "Joey",
  "5860": "Exc",
  "5861": "Benny",
  "5862": "?'",
  "5863": "...\"",
  "5864": "!'",
  "5865": " yawn",
  "5866": " yesterday",
  "5867": " wins",
  "5868": " weeks",
  "5869": " wink",
  "5870": " villagers",
  "5871": " valued",
  "5872": " uns",
  "5873": " twirled",
  "5874": " trucks",
  "5875": " tractor",
  "5876": " tuna",
  "5877": " tissue",
  "5878": " sweeties",
  "5879": " sweat",
  "5880": " stuffed",
  "5881": " stroll",
  "5882": " steep",
  "5883": " stamps",
  "5884": " stung",
  "5885": " stern",
  "5886": " sprinkles",
  "5887": " spoons",
  "5888": " spikes",
  "5889": " sore",
  "5890": " softer",
  "5891": " single",
  "5892": " sighs",
  "5893": " shouting",
  "5894": " shed",
  "5895": " shot",
  "5896": " seems",
  "5897": " seven",
  "5898": " scrub",
  "5899": " scooters",
  "5900": " scooped",
  "5901": " scur",
  "5902": " sav",
  "5903": " sings",
  "5904": " rice",
  "5905": " respon",
  "5906": " recognized",
  "5907": " reads",
  "5908": " reaching",
  "5909": " ranger",
  "5910": " rusty",
  "5911": " prints",
  "5912": " prepared",
  "5913": " proper",
  "5914": " pouring",
  "5915": " possible",
  "5916": " parties",
  "5917": " particular",
  "5918": " ple",
  "5919": " outdoors",
  "5920": " officer",
  "5921": " objects",
  "5922": " neighborhood",
  "5923": " nine",
  "5924": " navy",
  "5925": " monsters",
  "5926": " memories",
  "5927": " measuring",
  "5928": " loving",
  "5929": " learns",
  "5930": " leaning",
  "5931": " knights",
  "5932": " kicks",
  "5933": " isn",
  "5934": " hissed",
  "5935": " heroes",
  "5936": " helpers",
  "5937": " heel",
  "5938": " growling",
  "5939": " grey",
  "5940": " grandmother",
  "5941": " granted",
  "5942": " giggling",
  "5943": " forgiving",
  "5944": " flav",
  "5945": " faced",
  "5946": " expected",
  "5947": " dishwasher",
  "5948": " darker",
  "5949": " digging",
  "5950": " den",
  "5951": " cuts",
  "5952": " cubes",
  "5953": " creating",
  "5954": " creek",
  "5955": " contain",
  "5956": " completely",
  "5957": " colours",
  "5958": " claps",
  "5959": " chewing",
  "5960": " choo",
  "5961": " buzzed",
  "5962": " blocking",
  "5963": " blown",
  "5964": " behavi",
  "5965": " begged",
  "5966": " batteries",
  "5967": " backward",
  "5968": " bleed",
  "5969": " barely",
  "5970": " automobiles",
  "5971": " annoy",
  "5972": " actions",
  "5973": " accomplish",
  "5974": " acted",
  "5975": " Woof",
  "5976": " Sunshine",
  "5977": " Suzie",
  "5978": " Spirit",
  "5979": " Something",
  "5980": " Slowly",
  "5981": " Sunny",
  "5982": " Splash",
  "5983": " Santa",
  "5984": " Print",
  "5985": " Luke",
  "5986": " Kids",
  "5987": " Kanga",
  "5988": " Jojo",
  "5989": " Jumpy",
  "5990": " Its",
  "5991": " Hoppy",
  "5992": " Green",
  "5993": " Gray",
  "5994": " Granny",
  "5995": " Frankie",
  "5996": " Flick",
  "5997": " Friend",
  "5998": " Everyday",
  "5999": " Dezi",
  "6000": " Danny",
  "6001": " Claire",
  "6002": " Caterpillar",
  "6003": " Carl",
  "6004": " By",
  "6005": " Bop",
  "6006": " Baby",
  "6007": " Anne",
  "6008": " Always",
  "6009": " Arm",
  "6010": " Ant",
  "6011": " Adam",
  "6012": " \n ",
  "6013": "zing",
  "6014": "uture",
  "6015": "utter",
  "6016": "urnit",
  "6017": "urniture",
  "6018": "uded",
  "6019": "stri",
  "6020": "strich",
  "6021": "rol",
  "6022": "rup",
  "6023": "rops",
  "6024": "ppers",
  "6025": "osity",
  "6026": "orence",
  "6027": "orman",
  "6028": "ormance",
  "6029": "ookie",
  "6030": "ometimes",
  "6031": "ogo",
  "6032": "ollen",
  "6033": "oid",
  "6034": "njoy",
  "6035": "mies",
  "6036": "lex",
  "6037": "lect",
  "6038": "ler",
  "6039": "isten",
  "6040": "indrops",
  "6041": "inda",
  "6042": "imy",
  "6043": "ifi",
  "6044": "ienna",
  "6045": "hythm",
  "6046": "guing",
  "6047": "guard",
  "6048": "found",
  "6049": "enty",
  "6050": "elix",
  "6051": "even",
  "6052": "ef",
  "6053": "awn",
  "6054": "ases",
  "6055": "ados",
  "6056": "adly",
  "6057": "acy",
  "6058": "acation",
  "6059": "abel",
  "6060": "act",
  "6061": "Whee",
  "6062": "Vroom",
  "6063": "Tweet",
  "6064": "Take",
  "6065": "Sometimes",
  "6066": "Quick",
  "6067": "Pinky",
  "6068": "Out",
  "6069": "Oops",
  "6070": "Maggie",
  "6071": "Lizzy",
  "6072": "Jerry",
  "6073": "Hold",
  "6074": "Have",
  "6075": "Goodbye",
  "6076": "Great",
  "6077": "Follow",
  "6078": "Excuse",
  "6079": "During",
  "6080": "Ducky",
  "6081": "Charlie",
  "6082": "Buzz",
  "6083": "Bear",
  "6084": " yelling",
  "6085": " worrying",
  "6086": " wishing",
  "6087": " winner",
  "6088": " wherever",
  "6089": " wears",
  "6090": " warmth",
  "6091": " warmer",
  "6092": " waist",
  "6093": " vanilla",
  "6094": " vet",
  "6095": " vent",
  "6096": " vacation",
  "6097": " unsure",
  "6098": " twists",
  "6099": " tricked",
  "6100": " travell",
  "6101": " touching",
  "6102": " thud",
  "6103": " teaches",
  "6104": " talents",
  "6105": " talent",
  "6106": " tables",
  "6107": " ty",
  "6108": " sweets",
  "6109": " sweaty",
  "6110": " swollen",
  "6111": " surround",
  "6112": " stroked",
  "6113": " stole",
  "6114": " startled",
  "6115": " somebody",
  "6116": " soaked",
  "6117": " slowed",
  "6118": " slug",
  "6119": " slither",
  "6120": " slimy",
  "6121": " shown",
  "6122": " screws",
  "6123": " scaring",
  "6124": " scales",
  "6125": " sailors",
  "6126": " sy",
  "6127": " rockets",
  "6128": " rocking",
  "6129": " ripped",
  "6130": " restored",
  "6131": " refuse",
  "6132": " realize",
  "6133": " reef",
  "6134": " raindrops",
  "6135": " rumble",
  "6136": " risk",
  "6137": " rings",
  "6138": " protecting",
  "6139": " practicing",
  "6140": " pots",
  "6141": " posts",
  "6142": " plenty",
  "6143": " performer",
  "6144": " performance",
  "6145": " perched",
  "6146": " peel",
  "6147": " patiently",
  "6148": " patience",
  "6149": " pad",
  "6150": " owned",
  "6151": " opening",
  "6152": " ostrich",
  "6153": " newfound",
  "6154": " neighbourhood",
  "6155": " muscle",
  "6156": " movies",
  "6157": " mountains",
  "6158": " masks",
  "6159": " marked",
  "6160": " mailed",
  "6161": " mood",
  "6162": " lifeguard",
  "6163": " lemons",
  "6164": " lap",
  "6165": " lamb",
  "6166": " known",
  "6167": " joins",
  "6168": " joking",
  "6169": " items",
  "6170": " itchy",
  "6171": " improved",
  "6172": " hurried",
  "6173": " headed",
  "6174": " haw",
  "6175": " hitting",
  "6176": " guests",
  "6177": " ghosts",
  "6178": " gardener",
  "6179": " flags",
  "6180": " fits",
  "6181": " farthest",
  "6182": " future",
  "6183": " furniture",
  "6184": " firm",
  "6185": " event",
  "6186": " drives",
  "6187": " dragons",
  "6188": " directions",
  "6189": " destination",
  "6190": " desert",
  "6191": " deser",
  "6192": " delivered",
  "6193": " decorated",
  "6194": " cuddled",
  "6195": " crowns",
  "6196": " crept",
  "6197": " continue",
  "6198": " control",
  "6199": " complaining",
  "6200": " complained",
  "6201": " combed",
  "6202": " clowns",
  "6203": " click",
  "6204": " chirping",
  "6205": " chop",
  "6206": " celebrating",
  "6207": " camping",
  "6208": " cor",
  "6209": " cash",
  "6210": " buildings",
  "6211": " bud",
  "6212": " brushes",
  "6213": " brand",
  "6214": " blows",
  "6215": " bleeding",
  "6216": " beginning",
  "6217": " bedtime",
  "6218": " beamed",
  "6219": " baker",
  "6220": " backed",
  "6221": " avocados",
  "6222": " avoid",
  "6223": " arguing",
  "6224": " appreciate",
  "6225": " applauded",
  "6226": " alley",
  "6227": " alright",
  "6228": " airpl",
  "6229": " admiring",
  "6230": " Want",
  "6231": " Unfortunately",
  "6232": " Switch",
  "6233": " Spidey",
  "6234": " Robot",
  "6235": " Rabbit",
  "6236": " Printy",
  "6237": " Pip",
  "6238": " Paws",
  "6239": " Pam",
  "6240": " Oxygen",
  "6241": " Ox",
  "6242": " Out",
  "6243": " Missile",
  "6244": " Leave",
  "6245": " Keep",
  "6246": " Jolly",
  "6247": " Jeff",
  "6248": " Isabella",
  "6249": " Izzy",
  "6250": " Herb",
  "6251": " Hippy",
  "6252": " Henry",
  "6253": " Harry",
  "6254": " Gracie",
  "6255": " Gogo",
  "6256": " George",
  "6257": " Follow",
  "6258": " Florence",
  "6259": " Fifi",
  "6260": " Fido",
  "6261": " Felix",
  "6262": " Enjoy",
  "6263": " Dodo",
  "6264": " Crabby",
  "6265": " Chris",
  "6266": " Cable",
  "6267": " Brian",
  "6268": " Bones",
  "6269": " Birthday",
  "6270": " Albert",
  "6271": " An",
  "6272": " Yes",
  "6273": " 1",
  "6274": "xu",
  "6275": "xury",
  "6276": "wh",
  "6277": "unday",
  "6278": "ucks",
  "6279": "uxury",
  "6280": "thur",
  "6281": "tory",
  "6282": "sequ",
  "6283": "sequence",
  "6284": "sequences",
  "6285": "seek",
  "6286": "screen",
  "6287": "scin",
  "6288": "scinated",
  "6289": "river",
  "6290": "rip",
  "6291": "rett",
  "6292": "reeze",
  "6293": "ree",
  "6294": "rap",
  "6295": "rthur",
  "6296": "quid",
  "6297": "peedy",
  "6298": "please",
  "6299": "oula",
  "6300": "otton",
  "6301": "orter",
  "6302": "oldy",
  "6303": "oke",
  "6304": "ody",
  "6305": "ledge",
  "6306": "lection",
  "6307": "lict",
  "6308": "kend",
  "6309": "its",
  "6310": "ishes",
  "6311": "iles",
  "6312": "iggie",
  "6313": "igail",
  "6314": "iece",
  "6315": "iders",
  "6316": "icha",
  "6317": "ichael",
  "6318": "ices",
  "6319": "iven",
  "6320": "hh",
  "6321": "esome",
  "6322": "entist",
  "6323": "enter",
  "6324": "ellyfish",
  "6325": "ealing",
  "6326": "ekend",
  "6327": "ddler",
  "6328": "ddie",
  "6329": "driver",
  "6330": "cter",
  "6331": "bbled",
  "6332": "bing",
  "6333": "bigail",
  "6334": "bie",
  "6335": "ashed",
  "6336": "araway",
  "6337": "aracter",
  "6338": "arter",
  "6339": "arrin",
  "6340": "anging",
  "6341": "aker",
  "6342": "affes",
  "6343": "actly",
  "6344": "achel",
  "6345": "Zoomy",
  "6346": "Uh",
  "6347": "Really",
  "6348": "Prin",
  "6349": "Pete",
  "6350": "Meow",
  "6351": "Milly",
  "6352": "Lina",
  "6353": "Lena",
  "6354": "Jake",
  "6355": "Isabella",
  "6356": "Freddy",
  "6357": "Doggy",
  "6358": "Claire",
  "6359": "Cl",
  "6360": "Big",
  "6361": "Bet",
  "6362": "Bad",
  "6363": "Albert",
  "6364": "Adam",
  "6365": "...",
  "6366": ".'\"",
  "6367": " wobb",
  "6368": " wires",
  "6369": " wipes",
  "6370": " whatever",
  "6371": " wept",
  "6372": " weighed",
  "6373": " weekend",
  "6374": " watering",
  "6375": " warnings",
  "6376": " wakes",
  "6377": " wow",
  "6378": " wounds",
  "6379": " videos",
  "6380": " vict",
  "6381": " usual",
  "6382": " twirling",
  "6383": " twirl",
  "6384": " twinkling",
  "6385": " turning",
  "6386": " tricky",
  "6387": " towels",
  "6388": " toss",
  "6389": " toddler",
  "6390": " tickle",
  "6391": " tallest",
  "6392": " talks",
  "6393": " tails",
  "6394": " syrup",
  "6395": " sweep",
  "6396": " swoop",
  "6397": " switched",
  "6398": " supported",
  "6399": " sunscreen",
  "6400": " struggled",
  "6401": " struggle",
  "6402": " stopping",
  "6403": " staying",
  "6404": " stew",
  "6405": " spreading",
  "6406": " spins",
  "6407": " spices",
  "6408": " smiley",
  "6409": " smallest",
  "6410": " smarter",
  "6411": " slips",
  "6412": " singer",
  "6413": " signs",
  "6414": " shelves",
  "6415": " shorter",
  "6416": " seasons",
  "6417": " scrubbed",
  "6418": " screwdriver",
  "6419": " savanna",
  "6420": " sadness",
  "6421": " sway",
  "6422": " roots",
  "6423": " roses",
  "6424": " rewarded",
  "6425": " requested",
  "6426": " repeated",
  "6427": " reflection",
  "6428": " release",
  "6429": " rather",
  "6430": " quarreling",
  "6431": " pumpkins",
  "6432": " protected",
  "6433": " promises",
  "6434": " pretends",
  "6435": " practised",
  "6436": " policeman",
  "6437": " pointy",
  "6438": " pills",
  "6439": " peeking",
  "6440": " peppers",
  "6441": " parked",
  "6442": " pec",
  "6443": " owls",
  "6444": " noses",
  "6445": " messes",
  "6446": " matching",
  "6447": " miles",
  "6448": " loaded",
  "6449": " liquid",
  "6450": " leading",
  "6451": " luxury",
  "6452": " knowledge",
  "6453": " knees",
  "6454": " jackets",
  "6455": " instruments",
  "6456": " insist",
  "6457": " included",
  "6458": " human",
  "6459": " horns",
  "6460": " history",
  "6461": " hides",
  "6462": " hawk",
  "6463": " hallway",
  "6464": " guesses",
  "6465": " greet",
  "6466": " grassy",
  "6467": " gracefully",
  "6468": " goodnight",
  "6469": " goals",
  "6470": " giraffes",
  "6471": " gaze",
  "6472": " frowning",
  "6473": " froze",
  "6474": " forgiven",
  "6475": " forehead",
  "6476": " foods",
  "6477": " focus",
  "6478": " flutter",
  "6479": " flown",
  "6480": " filling",
  "6481": " fairies",
  "6482": " fascinated",
  "6483": " fuel",
  "6484": " faraway",
  "6485": " exactly",
  "6486": " dipped",
  "6487": " decorating",
  "6488": " dads",
  "6489": " dot",
  "6490": " die",
  "6491": " dentist",
  "6492": " curtains",
  "6493": " cracker",
  "6494": " crow",
  "6495": " counts",
  "6496": " conflict",
  "6497": " confident",
  "6498": " consequences",
  "6499": " conn",
  "6500": " cones",
  "6501": " concer",
  "6502": " computers",
  "6503": " completed",
  "6504": " closes",
  "6505": " chefs",
  "6506": " chases",
  "6507": " character",
  "6508": " changing",
  "6509": " changes",
  "6510": " catching",
  "6511": " cashier",
  "6512": " bringing",
  "6513": " bru",
  "6514": " behaviour",
  "6515": " bitten",
  "6516": " awesome",
  "6517": " awake",
  "6518": " airplanes",
  "6519": " agrees",
  "6520": " acts",
  "6521": " Ziggy",
  "6522": " Zane",
  "6523": " Yet",
  "6524": " Yawn",
  "6525": " Without",
  "6526": " Water",
  "6527": " Wally",
  "6528": " Those",
  "6529": " Tuna",
  "6530": " Steve",
  "6531": " Stacy",
  "6532": " Someone",
  "6533": " Sunday",
  "6534": " Speedy",
  "6535": " Sorry",
  "6536": " Sienna",
  "6537": " Robby",
  "6538": " Rocco",
  "6539": " Rhythm",
  "6540": " Pepper",
  "6541": " Peanut",
  "6542": " Pu",
  "6543": " Penny",
  "6544": " Oat",
  "6545": " Nate",
  "6546": " Mon",
  "6547": " Linda",
  "6548": " Lina",
  "6549": " Laser",
  "6550": " Keith",
  "6551": " Jellyfish",
  "6552": " Jacob",
  "6553": " Hana",
  "6554": " Gina",
  "6555": " Friends",
  "6556": " Fishy",
  "6557": " Dr",
  "6558": " Dina",
  "6559": " Cowy",
  "6560": " Cookie",
  "6561": " Buggy",
  "6562": " Behind",
  "6563": " Bye",
  "6564": " Boo",
  "6565": " Bolly",
  "6566": " Bo",
  "6567": " Biggie",
  "6568": " Ava",
  "6569": " Alex",
  "6570": " ouch",
  "6571": " Quick",
  "6572": " 5",
  "6573": "  ",
  "6574": "utch",
  "6575": "umbling",
  "6576": "ulie",
  "6577": "ulf",
  "6578": "uggles",
  "6579": "uffles",
  "6580": "uctantly",
  "6581": "ucksack",
  "6582": "uckled",
  "6583": "uly",
  "6584": "uess",
  "6585": "ths",
  "6586": "though",
  "6587": "shop",
  "6588": "snap",
  "6589": "sm",
  "6590": "rat",
  "6591": "ratul",
  "6592": "rance",
  "6593": "pring",
  "6594": "pose",
  "6595": "pite",
  "6596": "pit",
  "6597": "per",
  "6598": "osting",
  "6599": "osen",
  "6600": "oring",
  "6601": "ora",
  "6602": "ongratul",
  "6603": "omas",
  "6604": "ohny",
  "6605": "obody",
  "6606": "nk",
  "6607": "ners",
  "6608": "mates",
  "6609": "lya",
  "6610": "leaf",
  "6611": "long",
  "6612": "lier",
  "6613": "izzie",
  "6614": "ition",
  "6615": "isions",
  "6616": "iri",
  "6617": "iney",
  "6618": "icles",
  "6619": "iao",
  "6620": "house",
  "6621": "giving",
  "6622": "form",
  "6623": "fia",
  "6624": "espite",
  "6625": "ently",
  "6626": "elion",
  "6627": "dies",
  "6628": "ded",
  "6629": "cl",
  "6630": "byes",
  "6631": "boom",
  "6632": "ays",
  "6633": "atelyn",
  "6634": "atre",
  "6635": "atches",
  "6636": "asty",
  "6637": "annah",
  "6638": "andelion",
  "6639": "ammed",
  "6640": "almed",
  "6641": "alerious",
  "6642": "aled",
  "6643": "ading",
  "6644": "ah",
  "6645": "Zara",
  "6646": "Yummy",
  "6647": "Violet",
  "6648": "Very",
  "6649": "Uncle",
  "6650": "Teddy",
  "6651": "Steve",
  "6652": "Sofia",
  "6653": "Silly",
  "6654": "Remember",
  "6655": "Paul",
  "6656": "Pat",
  "6657": "Mmm",
  "6658": "Mar",
  "6659": "Luna",
  "6660": "James",
  "6661": "Guess",
  "6662": "Gigi",
  "6663": "Finny",
  "6664": "Frank",
  "6665": "Ew",
  "6666": "Deal",
  "6667": "Baby",
  "6668": "Andy",
  "6669": "Afterwards",
  "6670": "AT",
  "6671": " zips",
  "6672": " youth",
  "6673": " yells",
  "6674": " workshop",
  "6675": " windy",
  "6676": " wiggled",
  "6677": " weren",
  "6678": " weighs",
  "6679": " wasted",
  "6680": " victory",
  "6681": " vibr",
  "6682": " ventured",
  "6683": " type",
  "6684": " tune",
  "6685": " travelling",
  "6686": " traveled",
  "6687": " truly",
  "6688": " toad",
  "6689": " tighter",
  "6690": " tickled",
  "6691": " theatre",
  "6692": " tasting",
  "6693": " tugged",
  "6694": " tipped",
  "6695": " tim",
  "6696": " swimmer",
  "6697": " switches",
  "6698": " swap",
  "6699": " suffered",
  "6700": " strongest",
  "6701": " sternly",
  "6702": " steady",
  "6703": " stays",
  "6704": " stands",
  "6705": " stool",
  "6706": " stitches",
  "6707": " stare",
  "6708": " squeaked",
  "6709": " spraying",
  "6710": " sports",
  "6711": " sparkling",
  "6712": " spiders",
  "6713": " spat",
  "6714": " snowmen",
  "6715": " snatched",
  "6716": " smashed",
  "6717": " slipping",
  "6718": " slammed",
  "6719": " situation",
  "6720": " shrug",
  "6721": " shooting",
  "6722": " shirts",
  "6723": " scurried",
  "6724": " sandpit",
  "6725": " sank",
  "6726": " sides",
  "6727": " ruin",
  "6728": " rowing",
  "6729": " rivers",
  "6730": " risks",
  "6731": " rested",
  "6732": " response",
  "6733": " respond",
  "6734": " respected",
  "6735": " repeats",
  "6736": " reminding",
  "6737": " reminder",
  "6738": " refre",
  "6739": " realizes",
  "6740": " rainbows",
  "6741": " radishes",
  "6742": " raking",
  "6743": " rucksack",
  "6744": " rising",
  "6745": " purpose",
  "6746": " pupil",
  "6747": " properly",
  "6748": " process",
  "6749": " prayers",
  "6750": " postc",
  "6751": " polishing",
  "6752": " players",
  "6753": " planets",
  "6754": " plates",
  "6755": " passing",
  "6756": " packages",
  "6757": " pins",
  "6758": " outf",
  "6759": " noticing",
  "6760": " noon",
  "6761": " neighbors",
  "6762": " neatly",
  "6763": " neither",
  "6764": " nasty",
  "6765": " mommies",
  "6766": " momma",
  "6767": " mittens",
  "6768": " minds",
  "6769": " minding",
  "6770": " minded",
  "6771": " meaning",
  "6772": " matters",
  "6773": " marching",
  "6774": " mailing",
  "6775": " machines",
  "6776": " maker",
  "6777": " loudest",
  "6778": " loose",
  "6779": " lizards",
  "6780": " knots",
  "6781": " knocking",
  "6782": " keys",
  "6783": " homework",
  "6784": " hesitation",
  "6785": " hesit",
  "6786": " healed",
  "6787": " handsome",
  "6788": " goodbyes",
  "6789": " glowed",
  "6790": " grip",
  "6791": " frosting",
  "6792": " followers",
  "6793": " fishing",
  "6794": " fills",
  "6795": " figures",
  "6796": " fears",
  "6797": " fact",
  "6798": " fu",
  "6799": " examined",
  "6800": " everybody",
  "6801": " erase",
  "6802": " entrance",
  "6803": " elbow",
  "6804": " earlier",
  "6805": " drifted",
  "6806": " dolphins",
  "6807": " diving",
  "6808": " delivering",
  "6809": " decisions",
  "6810": " decision",
  "6811": " deed",
  "6812": " daring",
  "6813": " dar",
  "6814": " dandelion",
  "6815": " curiously",
  "6816": " curiosity",
  "6817": " cuddly",
  "6818": " craft",
  "6819": " covers",
  "6820": " comm",
  "6821": " cobra",
  "6822": " clover",
  "6823": " clam",
  "6824": " choosing",
  "6825": " chuckled",
  "6826": " chosen",
  "6827": " congratul",
  "6828": " calmed",
  "6829": " burying",
  "6830": " burning",
  "6831": " bumps",
  "6832": " bubb",
  "6833": " bruises",
  "6834": " bowls",
  "6835": " bowed",
  "6836": " boom",
  "6837": " bodies",
  "6838": " believing",
  "6839": " becoming",
  "6840": " belly",
  "6841": " baths",
  "6842": " basement",
  "6843": " bandages",
  "6844": " banged",
  "6845": " backwards",
  "6846": " area",
  "6847": " annoyed",
  "6848": " amused",
  "6849": " afterwards",
  "6850": " adventurers",
  "6851": " adventurer",
  "6852": " accomplishment",
  "6853": " abil",
  "6854": " achie",
  "6855": " Zara",
  "6856": " Xiao",
  "6857": " Wor",
  "6858": " Up",
  "6859": " Thanks",
  "6860": " Try",
  "6861": " Ted",
  "6862": " String",
  "6863": " Stella",
  "6864": " Stealing",
  "6865": " Squeeze",
  "6866": " Spud",
  "6867": " Snuggles",
  "6868": " Sylvia",
  "6869": " Summer",
  "6870": " Seth",
  "6871": " Serious",
  "6872": " Sadly",
  "6873": " Ruffles",
  "6874": " Riri",
  "6875": " Ria",
  "6876": " Puppy",
  "6877": " Princess",
  "6878": " Pippa",
  "6879": " Pur",
  "6880": " Pl",
  "6881": " Piney",
  "6882": " Nothing",
  "6883": " Maya",
  "6884": " Mabel",
  "6885": " Liz",
  "6886": " Liam",
  "6887": " Larry",
  "6888": " June",
  "6889": " Jilly",
  "6890": " Hung",
  "6891": " Hold",
  "6892": " Harmony",
  "6893": " Goodbye",
  "6894": " Gulp",
  "6895": " Goldy",
  "6896": " Flora",
  "6897": " First",
  "6898": " Dogs",
  "6899": " Crab",
  "6900": " Cari",
  "6901": " Brad",
  "6902": " Bobbie",
  "6903": " Bert",
  "6904": " Bee",
  "6905": "—",
  "6906": "yond",
  "6907": "what",
  "6908": "vin",
  "6909": "utty",
  "6910": "usted",
  "6911": "usic",
  "6912": "unning",
  "6913": "umbs",
  "6914": "umm",
  "6915": "ummaged",
  "6916": "ument",
  "6917": "ulfill",
  "6918": "uits",
  "6919": "ugar",
  "6920": "uctions",
  "6921": "uckily",
  "6922": "ubu",
  "6923": "ues",
  "6924": "ua",
  "6925": "toed",
  "6926": "ther",
  "6927": "the",
  "6928": "step",
  "6929": "ssess",
  "6930": "ship",
  "6931": "reverse",
  "6932": "repe",
  "6933": "repeat",
  "6934": "rust",
  "6935": "ron",
  "6936": "rkins",
  "6937": "rink",
  "6938": "packed",
  "6939": "pare",
  "6940": "ordan",
  "6941": "orse",
  "6942": "oray",
  "6943": "oosh",
  "6944": "onghead",
  "6945": "omp",
  "6946": "obey",
  "6947": "ossible",
  "6948": "ole",
  "6949": "mbers",
  "6950": "mered",
  "6951": "manda",
  "6952": "lders",
  "6953": "lunt",
  "6954": "joyed",
  "6955": "jam",
  "6956": "jamas",
  "6957": "ivity",
  "6958": "itely",
  "6959": "ission",
  "6960": "isty",
  "6961": "iously",
  "6962": "indy",
  "6963": "iky",
  "6964": "igning",
  "6965": "ieve",
  "6966": "idened",
  "6967": "idence",
  "6968": "icking",
  "6969": "ibbit",
  "6970": "hausted",
  "6971": "fficer",
  "6972": "erald",
  "6973": "ept",
  "6974": "elon",
  "6975": "elieve",
  "6976": "ein",
  "6977": "eed",
  "6978": "ean",
  "6979": "dding",
  "6980": "cutter",
  "6981": "ctar",
  "6982": "chievous",
  "6983": "ching",
  "6984": "chieved",
  "6985": "crow",
  "6986": "cc",
  "6987": "ccas",
  "6988": "brush",
  "6989": "bbing",
  "6990": "but",
  "6991": "bles",
  "6992": "bbed",
  "6993": "assport",
  "6994": "applaud",
  "6995": "antha",
  "6996": "andas",
  "6997": "ans",
  "6998": "amie",
  "6999": "amboo",
  "7000": "aloo",
  "7001": "aids",
  "7002": "acing",
  "7003": "Zoom",
  "7004": "Unfortunately",
  "7005": "Tweety",
  "7006": "Toto",
  "7007": "Tiny",
  "7008": "Spike",
  "7009": "Sharing",
  "7010": "Sylvia",
  "7011": "Sun",
  "7012": "Some",
  "7013": "Run",
  "7014": "Ribbit",
  "7015": "Poula",
  "7016": "Poppy",
  "7017": "Pandy",
  "7018": "Pam",
  "7019": "Or",
  "7020": "Ollie",
  "7021": "Mrs",
  "7022": "Meg",
  "7023": "Mittens",
  "7024": "Mine",
  "7025": "Mandy",
  "7026": "Leave",
  "7027": "Kiki",
  "7028": "Katie",
  "7029": "Jacky",
  "7030": "Jump",
  "7031": "Johny",
  "7032": "Jessie",
  "7033": "Janie",
  "7034": "Honey",
  "7035": "Grace",
  "7036": "Fro",
  "7037": "For",
  "7038": "First",
  "7039": "Ellie",
  "7040": "Eat",
  "7041": "Dolly",
  "7042": "Dear",
  "7043": "Cat",
  "7044": "Buzzy",
  "7045": "Betty",
  "7046": "Behind",
  "7047": "Brian",
  "7048": "Br",
  "7049": "Boys",
  "7050": "Bill",
  "7051": "Barry",
  "7052": "Auntie",
  "7053": "========",
  "7054": "!”.",
  "7055": " younger",
  "7056": " wrapping",
  "7057": " wrist",
  "7058": " woodcutter",
  "7059": " wobbly",
  "7060": " wobbled",
  "7061": " wiser",
  "7062": " wisely",
  "7063": " whoosh",
  "7064": " webs",
  "7065": " weeds",
  "7066": " widened",
  "7067": " volunt",
  "7068": " visiting",
  "7069": " vibrant",
  "7070": " usually",
  "7071": " unpacked",
  "7072": " unf",
  "7073": " und",
  "7074": " twisty",
  "7075": " troubles",
  "7076": " treehouse",
  "7077": " travels",
  "7078": " towns",
  "7079": " touches",
  "7080": " toolbox",
  "7081": " tires",
  "7082": " timer",
  "7083": " thieves",
  "7084": " tested",
  "7085": " tearing",
  "7086": " teamwork",
  "7087": " teapot",
  "7088": " tasks",
  "7089": " talented",
  "7090": " tablet",
  "7091": " tapped",
  "7092": " swooped",
  "7093": " swept",
  "7094": " surroundings",
  "7095": " surfboard",
  "7096": " supplies",
  "7097": " styles",
  "7098": " streets",
  "7099": " struck",
  "7100": " stomp",
  "7101": " staring",
  "7102": " stains",
  "7103": " stacking",
  "7104": " stumble",
  "7105": " stings",
  "7106": " stem",
  "7107": " squeak",
  "7108": " squishy",
  "7109": " spits",
  "7110": " spills",
  "7111": " sparkles",
  "7112": " spout",
  "7113": " spiky",
  "7114": " soaring",
  "7115": " soaking",
  "7116": " sniffs",
  "7117": " snug",
  "7118": " snorted",
  "7119": " situations",
  "7120": " sickness",
  "7121": " shivered",
  "7122": " shines",
  "7123": " shock",
  "7124": " shady",
  "7125": " sending",
  "7126": " secrets",
  "7127": " sadder",
  "7128": " sale",
  "7129": " robin",
  "7130": " replaced",
  "7131": " remembering",
  "7132": " reluctantly",
  "7133": " rummaged",
  "7134": " rider",
  "7135": " rid",
  "7136": " queens",
  "7137": " quacking",
  "7138": " purrs",
  "7139": " pudding",
  "7140": " prettiest",
  "7141": " presses",
  "7142": " prove",
  "7143": " powers",
  "7144": " possess",
  "7145": " pleaded",
  "7146": " plans",
  "7147": " plum",
  "7148": " plain",
  "7149": " pigeons",
  "7150": " permission",
  "7151": " performing",
  "7152": " pedal",
  "7153": " pecked",
  "7154": " pearls",
  "7155": " peered",
  "7156": " paths",
  "7157": " patted",
  "7158": " paintings",
  "7159": " pajamas",
  "7160": " piled",
  "7161": " pause",
  "7162": " pandas",
  "7163": " owners",
  "7164": " overjoyed",
  "7165": " outfits",
  "7166": " occas",
  "7167": " nodding",
  "7168": " nervously",
  "7169": " nectar",
  "7170": " niece",
  "7171": " months",
  "7172": " mischievous",
  "7173": " messed",
  "7174": " members",
  "7175": " marker",
  "7176": " moo",
  "7177": " lungs",
  "7178": " lollipops",
  "7179": " listens",
  "7180": " lessons",
  "7181": " lending",
  "7182": " least",
  "7183": " leap",
  "7184": " lump",
  "7185": " joked",
  "7186": " intr",
  "7187": " instructions",
  "7188": " indeed",
  "7189": " impossible",
  "7190": " imagining",
  "7191": " hugging",
  "7192": " hotter",
  "7193": " health",
  "7194": " heading",
  "7195": " guide",
  "7196": " growls",
  "7197": " groan",
  "7198": " grandpare",
  "7199": " gears",
  "7200": " gazing",
  "7201": " gasps",
  "7202": " gross",
  "7203": " goo",
  "7204": " fuzzy",
  "7205": " freed",
  "7206": " foxes",
  "7207": " form",
  "7208": " force",
  "7209": " foggy",
  "7210": " flowing",
  "7211": " flavors",
  "7212": " flavor",
  "7213": " flip",
  "7214": " flapping",
  "7215": " flames",
  "7216": " firmly",
  "7217": " figured",
  "7218": " familiar",
  "7219": " fulfill",
  "7220": " exercises",
  "7221": " exhausted",
  "7222": " everyday",
  "7223": " enjoyable",
  "7224": " emerald",
  "7225": " edges",
  "7226": " elders",
  "7227": " ease",
  "7228": " dusty",
  "7229": " drip",
  "7230": " dod",
  "7231": " disobey",
  "7232": " differently",
  "7233": " deserve",
  "7234": " demanding",
  "7235": " def",
  "7236": " darkness",
  "7237": " dumb",
  "7238": " ditch",
  "7239": " cuddle",
  "7240": " creativity",
  "7241": " crafts",
  "7242": " crackers",
  "7243": " cracked",
  "7244": " crutch",
  "7245": " crumbs",
  "7246": " correct",
  "7247": " concerned",
  "7248": " coloring",
  "7249": " cloudy",
  "7250": " clearing",
  "7251": " classmates",
  "7252": " clip",
  "7253": " chopped",
  "7254": " cheering",
  "7255": " characters",
  "7256": " cartoons",
  "7257": " center",
  "7258": " cause",
  "7259": " burst",
  "7260": " bulbs",
  "7261": " breathing",
  "7262": " bravery",
  "7263": " bottles",
  "7264": " booth",
  "7265": " blast",
  "7266": " birdie",
  "7267": " beloved",
  "7268": " beyond",
  "7269": " bathing",
  "7270": " baskets",
  "7271": " bands",
  "7272": " badge",
  "7273": " bully",
  "7274": " bamboo",
  "7275": " ages",
  "7276": " age",
  "7277": " activity",
  "7278": " acting",
  "7279": " achieve",
  "7280": " achieved",
  "7281": " Which",
  "7282": " Uncle",
  "7283": " Use",
  "7284": " Thomas",
  "7285": " Turtle",
  "7286": " Toys",
  "7287": " Terry",
  "7288": " Sparkle",
  "7289": " Shell",
  "7290": " Show",
  "7291": " Samuel",
  "7292": " Sugar",
  "7293": " Spring",
  "7294": " Say",
  "7295": " Robert",
  "7296": " Rudy",
  "7297": " Rich",
  "7298": " Purrkins",
  "7299": " Pea",
  "7300": " Put",
  "7301": " Piggy",
  "7302": " Passport",
  "7303": " Olly",
  "7304": " Okay",
  "7305": " Officer",
  "7306": " Noelle",
  "7307": " Nobody",
  "7308": " Nick",
  "7309": " Monster",
  "7310": " Mole",
  "7311": " Music",
  "7312": " Moon",
  "7313": " Michael",
  "7314": " Like",
  "7315": " Lena",
  "7316": " Land",
  "7317": " Kirsty",
  "7318": " Kelly",
  "7319": " Katelyn",
  "7320": " Isn",
  "7321": " Helping",
  "7322": " Hannah",
  "7323": " Gary",
  "7324": " Ed",
  "7325": " Deal",
  "7326": " Chicky",
  "7327": " Cotton",
  "7328": " Cally",
  "7329": " Brother",
  "7330": " Bubu",
  "7331": " Because",
  "7332": " Band",
  "7333": " Baloo",
  "7334": " Auntie",
  "7335": " Arthur",
  "7336": " Abigail",
  "7337": " Q",
  "7338": " \n\n",
  "7339": "years",
  "7340": "woof",
  "7341": "versed",
  "7342": "vered",
  "7343": "veral",
  "7344": "vil",
  "7345": "ution",
  "7346": "unged",
  "7347": "umped",
  "7348": "ugging",
  "7349": "ueen",
  "7350": "uri",
  "7351": "te",
  "7352": "sted",
  "7353": "spired",
  "7354": "shall",
  "7355": "seed",
  "7356": "sible",
  "7357": "shing",
  "7358": "rrr",
  "7359": "robes",
  "7360": "rier",
  "7361": "retty",
  "7362": "resser",
  "7363": "raped",
  "7364": "rucky",
  "7365": "rily",
  "7366": "rayon",
  "7367": "rayons",
  "7368": "quirrel",
  "7369": "pple",
  "7370": "ppies",
  "7371": "phan",
  "7372": "phanage",
  "7373": "pen",
  "7374": "ounced",
  "7375": "order",
  "7376": "ooper",
  "7377": "ooks",
  "7378": "onge",
  "7379": "onde",
  "7380": "ompy",
  "7381": "omer",
  "7382": "ments",
  "7383": "moo",
  "7384": "lings",
  "7385": "iversity",
  "7386": "ironment",
  "7387": "irdresser",
  "7388": "ippin",
  "7389": "inkle",
  "7390": "inct",
  "7391": "imply",
  "7392": "ights",
  "7393": "iggly",
  "7394": "iggled",
  "7395": "igued",
  "7396": "ifty",
  "7397": "ief",
  "7398": "ics",
  "7399": "icip",
  "7400": "iblings",
  "7401": "iren",
  "7402": "herry",
  "7403": "hole",
  "7404": "hog",
  "7405": "hive",
  "7406": "hi",
  "7407": "guess",
  "7408": "getic",
  "7409": "gn",
  "7410": "gers",
  "7411": "feated",
  "7412": "exit",
  "7413": "ets",
  "7414": "etail",
  "7415": "etails",
  "7416": "esmer",
  "7417": "ering",
  "7418": "eam",
  "7419": "daughter",
  "7420": "ckless",
  "7421": "cused",
  "7422": "cre",
  "7423": "cake",
  "7424": "bug",
  "7425": "bs",
  "7426": "bric",
  "7427": "attered",
  "7428": "ateri",
  "7429": "atted",
  "7430": "att",
  "7431": "asped",
  "7432": "arney",
  "7433": "arned",
  "7434": "arest",
  "7435": "arty",
  "7436": "arth",
  "7437": "ars",
  "7438": "arf",
  "7439": "ansform",
  "7440": "anet",
  "7441": "amedics",
  "7442": "ambled",
  "7443": "amage",
  "7444": "agle",
  "7445": "ades",
  "7446": "ably",
  "7447": "aven",
  "7448": "Which",
  "7449": "Wiggly",
  "7450": "Want",
  "7451": "Those",
  "7452": "Tina",
  "7453": "Tie",
  "7454": "Ted",
  "7455": "Samuel",
  "7456": "Susie",
  "7457": "Snap",
  "7458": "Slow",
  "7459": "Seven",
  "7460": "Robert",
  "7461": "Roar",
  "7462": "Rose",
  "7463": "Rock",
  "7464": "Rachel",
  "7465": "Quack",
  "7466": "Print",
  "7467": "Put",
  "7468": "Push",
  "7469": "Polly",
  "7470": "Pippin",
  "7471": "Pip",
  "7472": "Pe",
  "7473": "Oxygen",
  "7474": "Oat",
  "7475": "Nothing",
  "7476": "Noelle",
  "7477": "Nick",
  "7478": "Near",
  "7479": "Miss",
  "7480": "Mint",
  "7481": "Mila",
  "7482": "Lulu",
  "7483": "Luckily",
  "7484": "Like",
  "7485": "Kirsty",
  "7486": "Kim",
  "7487": "Ke",
  "7488": "Kate",
  "7489": "Jo",
  "7490": "Jess",
  "7491": "Jen",
  "7492": "However",
  "7493": "Hearing",
  "7494": "Ho",
  "7495": "Harmony",
  "7496": "HAT",
  "7497": "Froggy",
  "7498": "Four",
  "7499": "Fine",
  "7500": "Even",
  "7501": "Eddie",
  "7502": "Davey",
  "7503": "Drink",
  "7504": "Dezi",
  "7505": "David",
  "7506": "Darrin",
  "7507": "Danny",
  "7508": "Clara",
  "7509": "Chris",
  "7510": "Chloe",
  "7511": "Chirpy",
  "7512": "Cindy",
  "7513": "Catch",
  "7514": "Birdy",
  "7515": "By",
  "7516": "Bug",
  "7517": "Bring",
  "7518": "Brett",
  "7519": "Bow",
  "7520": "Bolly",
  "7521": "Binky",
  "7522": "Bally",
  "7523": "Annie",
  "7524": "Alya",
  "7525": "Ahh",
  "7526": "AN",
  "7527": ",'",
  "7528": " zooms",
  "7529": " yawning",
  "7530": " yum",
  "7531": " yelp",
  "7532": " writes",
  "7533": " wriggled",
  "7534": " worries",
  "7535": " woken",
  "7536": " winked",
  "7537": " willing",
  "7538": " whose",
  "7539": " whispers",
  "7540": " whines",
  "7541": " weed",
  "7542": " wasting",
  "7543": " waste",
  "7544": " waded",
  "7545": " wound",
  "7546": " wider",
  "7547": " wicked",
  "7548": " visitor",
  "7549": " villager",
  "7550": " urging",
  "7551": " untw",
  "7552": " untangle",
  "7553": " unw",
  "7554": " twinkled",
  "7555": " twinkle",
  "7556": " twice",
  "7557": " tunnels",
  "7558": " trusting",
  "7559": " trumpets",
  "7560": " traveling",
  "7561": " transform",
  "7562": " trading",
  "7563": " toward",
  "7564": " tossing",
  "7565": " tops",
  "7566": " toilets",
  "7567": " tossed",
  "7568": " tiptoed",
  "7569": " third",
  "7570": " temper",
  "7571": " teaspoons",
  "7572": " tanks",
  "7573": " tumbling",
  "7574": " tang",
  "7575": " swayed",
  "7576": " surrounded",
  "7577": " superheroes",
  "7578": " sunflowers",
  "7579": " sunlight",
  "7580": " stroller",
  "7581": " strolled",
  "7582": " stroke",
  "7583": " stomachs",
  "7584": " stepping",
  "7585": " starfish",
  "7586": " stamped",
  "7587": " stunning",
  "7588": " stall",
  "7589": " squealed",
  "7590": " squished",
  "7591": " springing",
  "7592": " spilling",
  "7593": " speaking",
  "7594": " spaces",
  "7595": " sponge",
  "7596": " source",
  "7597": " solution",
  "7598": " sobbed",
  "7599": " snuggly",
  "7600": " snakes",
  "7601": " snuck",
  "7602": " smelling",
  "7603": " smash",
  "7604": " slithered",
  "7605": " slower",
  "7606": " sinks",
  "7607": " silent",
  "7608": " shrank",
  "7609": " shops",
  "7610": " shinier",
  "7611": " shall",
  "7612": " sewing",
  "7613": " sewed",
  "7614": " separated",
  "7615": " seesaw",
  "7616": " seeking",
  "7617": " several",
  "7618": " scurry",
  "7619": " scratches",
  "7620": " scrambled",
  "7621": " scarecrow",
  "7622": " scarves",
  "7623": " scraped",
  "7624": " satis",
  "7625": " salty",
  "7626": " sails",
  "7627": " safer",
  "7628": " siren",
  "7629": " sinking",
  "7630": " simply",
  "7631": " sill",
  "7632": " siblings",
  "7633": " sens",
  "7634": " ruining",
  "7635": " robber",
  "7636": " roars",
  "7637": " roamed",
  "7638": " ribbons",
  "7639": " rib",
  "7640": " returning",
  "7641": " responded",
  "7642": " responsible",
  "7643": " reply",
  "7644": " reminds",
  "7645": " relief",
  "7646": " regretted",
  "7647": " refreshed",
  "7648": " recommended",
  "7649": " recorder",
  "7650": " realizing",
  "7651": " reality",
  "7652": " reversed",
  "7653": " reeds",
  "7654": " reckless",
  "7655": " reass",
  "7656": " reapp",
  "7657": " rainy",
  "7658": " rains",
  "7659": " rails",
  "7660": " races",
  "7661": " raked",
  "7662": " rays",
  "7663": " purr",
  "7664": " puppies",
  "7665": " pruning",
  "7666": " protein",
  "7667": " probably",
  "7668": " presented",
  "7669": " postcards",
  "7670": " possession",
  "7671": " popsicles",
  "7672": " politely",
  "7673": " polished",
  "7674": " pokes",
  "7675": " pockets",
  "7676": " poles",
  "7677": " pleasure",
  "7678": " plucked",
  "7679": " pinching",
  "7680": " pillows",
  "7681": " picnics",
  "7682": " petal",
  "7683": " persistence",
  "7684": " peaches",
  "7685": " patches",
  "7686": " particularly",
  "7687": " parted",
  "7688": " paramedics",
  "7689": " panicked",
  "7690": " pairs",
  "7691": " paintbrush",
  "7692": " padd",
  "7693": " packet",
  "7694": " pounds",
  "7695": " otters",
  "7696": " orphanage",
  "7697": " opinions",
  "7698": " offering",
  "7699": " occasions",
  "7700": " observing",
  "7701": " newspapers",
  "7702": " nearly",
  "7703": " nearest",
  "7704": " ni",
  "7705": " mustered",
  "7706": " moonlight",
  "7707": " models",
  "7708": " minty",
  "7709": " meows",
  "7710": " mayor",
  "7711": " massages",
  "7712": " munch",
  "7713": " mesmer",
  "7714": " materi",
  "7715": " main",
  "7716": " lunchtime",
  "7717": " lowered",
  "7718": " lighter",
  "7719": " lifting",
  "7720": " licking",
  "7721": " lies",
  "7722": " leader",
  "7723": " landing",
  "7724": " ladybug",
  "7725": " launch",
  "7726": " lower",
  "7727": " lent",
  "7728": " keyhole",
  "7729": " kitty",
  "7730": " journeys",
  "7731": " jobs",
  "7732": " itches",
  "7733": " invites",
  "7734": " intrigued",
  "7735": " interested",
  "7736": " inspired",
  "7737": " hunters",
  "7738": " however",
  "7739": " hopeful",
  "7740": " honesty",
  "7741": " honor",
  "7742": " honked",
  "7743": " honk",
  "7744": " host",
  "7745": " hissing",
  "7746": " hider",
  "7747": " hesitated",
  "7748": " helmets",
  "7749": " helicopters",
  "7750": " hedgehog",
  "7751": " hearing",
  "7752": " heaven",
  "7753": " hamster",
  "7754": " hammered",
  "7755": " hairdresser",
  "7756": " hood",
  "7757": " hint",
  "7758": " guilt",
  "7759": " guided",
  "7760": " groups",
  "7761": " groceries",
  "7762": " groaned",
  "7763": " grandparent",
  "7764": " grabbing",
  "7765": " gobbled",
  "7766": " glued",
  "7767": " glim",
  "7768": " glared",
  "7769": " giants",
  "7770": " gulp",
  "7771": " friendships",
  "7772": " flips",
  "7773": " fins",
  "7774": " finishing",
  "7775": " fever",
  "7776": " fault",
  "7777": " fabric",
  "7778": " fired",
  "7779": " fifty",
  "7780": " explorer",
  "7781": " experiences",
  "7782": " environment",
  "7783": " enthusiasm",
  "7784": " entire",
  "7785": " engineer",
  "7786": " engines",
  "7787": " energetic",
  "7788": " ends",
  "7789": " encouragement",
  "7790": " emerged",
  "7791": " embra",
  "7792": " efforts",
  "7793": " evil",
  "7794": " duckling",
  "7795": " drying",
  "7796": " drums",
  "7797": " dropping",
  "7798": " drivers",
  "7799": " dripping",
  "7800": " drift",
  "7801": " dries",
  "7802": " dresser",
  "7803": " dodged",
  "7804": " doomed",
  "7805": " displayed",
  "7806": " discovering",
  "7807": " dinosaurs",
  "7808": " dived",
  "7809": " determination",
  "7810": " destroying",
  "7811": " designed",
  "7812": " designing",
  "7813": " desc",
  "7814": " defeated",
  "7815": " darling",
  "7816": " dances",
  "7817": " dangers",
  "7818": " dumped",
  "7819": " dips",
  "7820": " details",
  "7821": " damage",
  "7822": " da",
  "7823": " curly",
  "7824": " crossing",
  "7825": " cops",
  "7826": " connected",
  "7827": " connect",
  "7828": " confidence",
  "7829": " convin",
  "7830": " competition",
  "7831": " compete",
  "7832": " company",
  "7833": " comforting",
  "7834": " coloured",
  "7835": " collap",
  "7836": " coldness",
  "7837": " cleaner",
  "7838": " clasped",
  "7839": " circus",
  "7840": " choices",
  "7841": " chewy",
  "7842": " checkout",
  "7843": " cheat",
  "7844": " cheaper",
  "7845": " chill",
  "7846": " charge",
  "7847": " cells",
  "7848": " cauliflowers",
  "7849": " caterpillars",
  "7850": " cooper",
  "7851": " bushy",
  "7852": " burrow",
  "7853": " bubbling",
  "7854": " brightest",
  "7855": " breathed",
  "7856": " bracelets",
  "7857": " braver",
  "7858": " braid",
  "7859": " bounces",
  "7860": " bothering",
  "7861": " bothered",
  "7862": " booming",
  "7863": " boiling",
  "7864": " boil",
  "7865": " bobbing",
  "7866": " blonde",
  "7867": " blocked",
  "7868": " blink",
  "7869": " birdseed",
  "7870": " bellies",
  "7871": " beehive",
  "7872": " beautif",
  "7873": " beast",
  "7874": " bathrobes",
  "7875": " backs",
  "7876": " background",
  "7877": " bunch",
  "7878": " bumpy",
  "7879": " born",
  "7880": " awful",
  "7881": " arrive",
  "7882": " arf",
  "7883": " applauding",
  "7884": " apology",
  "7885": " apologize",
  "7886": " apologised",
  "7887": " anticip",
  "7888": " annoying",
  "7889": " announced",
  "7890": " angrily",
  "7891": " ache",
  "7892": " abilities",
  "7893": " ast",
  "7894": " aimed",
  "7895": " aim",
  "7896": " aff",
  "7897": " Working",
  "7898": " William",
  "7899": " Wo",
  "7900": " Whee",
  "7901": " Well",
  "7902": " War",
  "7903": " Todd",
  "7904": " Thanksgiving",
  "7905": " Tangle",
  "7906": " Take",
  "7907": " Steam",
  "7908": " Squirrel",
  "7909": " Sister",
  "7910": " Rachel",
  "7911": " Queen",
  "7912": " Planet",
  "7913": " Poke",
  "7914": " Patch",
  "7915": " Party",
  "7916": " Orange",
  "7917": " Only",
  "7918": " Ouch",
  "7919": " Old",
  "7920": " Nutty",
  "7921": " NO",
  "7922": " Marshall",
  "7923": " Mila",
  "7924": " Mike",
  "7925": " Malerious",
  "7926": " Lilah",
  "7927": " Longhead",
  "7928": " Lizzie",
  "7929": " Listen",
  "7930": " Lion",
  "7931": " Julie",
  "7932": " Jamie",
  "7933": " Inst",
  "7934": " Horse",
  "7935": " Holly",
  "7936": " Fun",
  "7937": " Ex",
  "7938": " Eddie",
  "7939": " Earth",
  "7940": " Eagle",
  "7941": " Did",
  "7942": " Despite",
  "7943": " Darrin",
  "7944": " Coal",
  "7945": " Clim",
  "7946": " Compy",
  "7947": " Cle",
  "7948": " Cherry",
  "7949": " Brett",
  "7950": " Bark",
  "7951": " Ash",
  "7952": " Annie",
  "7953": " Although",
  "7954": " Along",
  "7955": " Apple",
  "7956": " ''",
  "7957": " icing",
  "7958": " 2",
  "7959": "zzled",
  "7960": "zip",
  "7961": "zily",
  "7962": "ysters",
  "7963": "you",
  "7964": "who",
  "7965": "weed",
  "7966": "winkle",
  "7967": "well",
  "7968": "vers",
  "7969": "vided",
  "7970": "vast",
  "7971": "vastated",
  "7972": "utomobiles",
  "7973": "utiously",
  "7974": "utely",
  "7975": "ustomer",
  "7976": "ushy",
  "7977": "usp",
  "7978": "uspic",
  "7979": "using",
  "7980": "usan",
  "7981": "usages",
  "7982": "urious",
  "7983": "urry",
  "7984": "urrender",
  "7985": "undred",
  "7986": "university",
  "7987": "united",
  "7988": "umpled",
  "7989": "ummies",
  "7990": "umed",
  "7991": "uliar",
  "7992": "uffed",
  "7993": "uction",
  "7994": "uced",
  "7995": "ubbing",
  "7996": "toes",
  "7997": "tery",
  "7998": "ts",
  "7999": "tment",
  "8000": "tle",
  "8001": "then",
  "8002": "tally",
  "8003": "tage",
  "8004": "steps",
  "8005": "strated",
  "8006": "spicy",
  "8007": "sol",
  "8008": "solutely",
  "8009": "shua",
  "8010": "shr",
  "8011": "shrinky",
  "8012": "shoot",
  "8013": "shaped",
  "8014": "shadow",
  "8015": "scre",
  "8016": "screw",
  "8017": "sider",
  "8018": "sers",
  "8019": "send",
  "8020": "saw",
  "8021": "rrrr",
  "8022": "rowave",
  "8023": "ronaut",
  "8024": "romise",
  "8025": "roken",
  "8026": "rocodile",
  "8027": "roccoli",
  "8028": "roat",
  "8029": "rior",
  "8030": "return",
  "8031": "retching",
  "8032": "rent",
  "8033": "reet",
  "8034": "rase",
  "8035": "rabs",
  "8036": "ruits",
  "8037": "rings",
  "8038": "quered",
  "8039": "prom",
  "8040": "promise",
  "8041": "print",
  "8042": "ppos",
  "8043": "pposite",
  "8044": "parable",
  "8045": "put",
  "8046": "pow",
  "8047": "po",
  "8048": "poison",
  "8049": "piece",
  "8050": "phere",
  "8051": "pan",
  "8052": "ownie",
  "8053": "outines",
  "8054": "outed",
  "8055": "ountered",
  "8056": "oughed",
  "8057": "ouches",
  "8058": "ottage",
  "8059": "otion",
  "8060": "othing",
  "8061": "osure",
  "8062": "osphere",
  "8063": "ortunately",
  "8064": "orever",
  "8065": "ords",
  "8066": "orant",
  "8067": "ooves",
  "8068": "onstrated",
  "8069": "onna",
  "8070": "oline",
  "8071": "oever",
  "8072": "oving",
  "8073": "oscope",
  "8074": "opped",
  "8075": "oco",
  "8076": "oah",
  "8077": "ntil",
  "8078": "new",
  "8079": "newed",
  "8080": "neath",
  "8081": "nc",
  "8082": "meal",
  "8083": "mosphere",
  "8084": "melon",
  "8085": "mar",
  "8086": "marriage",
  "8087": "llin",
  "8088": "lee",
  "8089": "losure",
  "8090": "line",
  "8091": "lide",
  "8092": "lay",
  "8093": "lap",
  "8094": "keeping",
  "8095": "ks",
  "8096": "kle",
  "8097": "joiced",
  "8098": "jured",
  "8099": "jest",
  "8100": "izon",
  "8101": "ives",
  "8102": "ively",
  "8103": "ittered",
  "8104": "itted",
  "8105": "itude",
  "8106": "istening",
  "8107": "ists",
  "8108": "istling",
  "8109": "isies",
  "8110": "irce",
  "8111": "irac",
  "8112": "ippers",
  "8113": "ippee",
  "8114": "inema",
  "8115": "inctively",
  "8116": "inner",
  "8117": "inching",
  "8118": "imals",
  "8119": "imits",
  "8120": "ildren",
  "8121": "iliar",
  "8122": "icky",
  "8123": "iciest",
  "8124": "icated",
  "8125": "icate",
  "8126": "ivery",
  "8127": "hings",
  "8128": "hew",
  "8129": "hef",
  "8130": "heap",
  "8131": "hap",
  "8132": "haps",
  "8133": "gnorant",
  "8134": "ggies",
  "8135": "gth",
  "8136": "gic",
  "8137": "feree",
  "8138": "freeze",
  "8139": "fire",
  "8140": "ethoscope",
  "8141": "etops",
  "8142": "etite",
  "8143": "ercise",
  "8144": "erve",
  "8145": "erm",
  "8146": "ergic",
  "8147": "erf",
  "8148": "ending",
  "8149": "endant",
  "8150": "ength",
  "8151": "enery",
  "8152": "emies",
  "8153": "embers",
  "8154": "elax",
  "8155": "ears",
  "8156": "eading",
  "8157": "eers",
  "8158": "eaky",
  "8159": "eah",
  "8160": "eady",
  "8161": "dream",
  "8162": "dink",
  "8163": "date",
  "8164": "creams",
  "8165": "crease",
  "8166": "colored",
  "8167": "covered",
  "8168": "cloud",
  "8169": "ckly",
  "8170": "cidents",
  "8171": "cho",
  "8172": "chard",
  "8173": "ceeded",
  "8174": "cept",
  "8175": "cakes",
  "8176": "cuments",
  "8177": "cled",
  "8178": "cers",
  "8179": "cent",
  "8180": "ccidents",
  "8181": "can",
  "8182": "cal",
  "8183": "bris",
  "8184": "boos",
  "8185": "boards",
  "8186": "beep",
  "8187": "bbers",
  "8188": "broken",
  "8189": "boy",
  "8190": "bird",
  "8191": "bell",
  "8192": "bank",
  "8193": "bang",
  "8194": "bage",
  "8195": "aying",
  "8196": "awked",
  "8197": "auli",
  "8198": "atest",
  "8199": "atform",
  "8200": "arness",
  "8201": "armer",
  "8202": "arlings",
  "8203": "arefully",
  "8204": "arsh",
  "8205": "arity",
  "8206": "arget",
  "8207": "arger",
  "8208": "apple",
  "8209": "antastic",
  "8210": "aning",
  "8211": "ampoline",
  "8212": "amiliar",
  "8213": "allow",
  "8214": "adually",
  "8215": "ads",
  "8216": "achine",
  "8217": "ausages",
  "8218": "aa",
  "8219": "Zip",
  "8220": "Yippee",
  "8221": "Yield",
  "8222": "Yeah",
  "8223": "Wouldn",
  "8224": "Whistling",
  "8225": "Work",
  "8226": "Woah",
  "8227": "Wisdom",
  "8228": "Wake",
  "8229": "Vivi",
  "8230": "Under",
  "8231": "Three",
  "8232": "Though",
  "8233": "Trust",
  "8234": "Toys",
  "8235": "Terry",
  "8236": "Tara",
  "8237": "TH",
  "8238": "Spirit",
  "8239": "Spin",
  "8240": "Spidey",
  "8241": "Slowly",
  "8242": "Shut",
  "8243": "Shh",
  "8244": "Samantha",
  "8245": "Summer",
  "8246": "Su",
  "8247": "Sque",
  "8248": "Splash",
  "8249": "Sn",
  "8250": "Sleep",
  "8251": "Sit",
  "8252": "Seth",
  "8253": "Sean",
  "8254": "Seal",
  "8255": "Sadly",
  "8256": "Rocky",
  "8257": "Rover",
  "8258": "Rollie",
  "8259": "Rug",
  "8260": "Ruff",
  "8261": "Rocco",
  "8262": "Rabbit",
  "8263": "RE",
  "8264": "Princess",
  "8265": "Pepper",
  "8266": "Pop",
  "8267": "Play",
  "8268": "Penny",
  "8269": "Outside",
  "8270": "Only",
  "8271": "Open",
  "8272": "OX",
  "8273": "Nate",
  "8274": "NG",
  "8275": "Maya",
  "8276": "Marie",
  "8277": "Maria",
  "8278": "Michael",
  "8279": "Malerious",
  "8280": "Machine",
  "8281": "Mabel",
  "8282": "Looks",
  "8283": "Love",
  "8284": "Lola",
  "8285": "Lizzie",
  "8286": "Liz",
  "8287": "Listen",
  "8288": "Lilly",
  "8289": "Larry",
  "8290": "LB",
  "8291": "LBOX",
  "8292": "Keep",
  "8293": "Kids",
  "8294": "Kelly",
  "8295": "Joshua",
  "8296": "June",
  "8297": "Julie",
  "8298": "Joy",
  "8299": "Jordan",
  "8300": "Jolly",
  "8301": "Jacob",
  "8302": "Instead",
  "8303": "Ignorant",
  "8304": "ING",
  "8305": "ILBOX",
  "8306": "Hooray",
  "8307": "Hippy",
  "8308": "Herb",
  "8309": "Hair",
  "8310": "Goal",
  "8311": "Got",
  "8312": "Get",
  "8313": "Gather",
  "8314": "Fox",
  "8315": "Finn",
  "8316": "Freeze",
  "8317": "Fix",
  "8318": "Elsa",
  "8319": "Elly",
  "8320": "Elephant",
  "8321": "Ed",
  "8322": "Each",
  "8323": "Duck",
  "8324": "Down",
  "8325": "Dino",
  "8326": "Despite",
  "8327": "Days",
  "8328": "Cs",
  "8329": "Crabs",
  "8330": "Count",
  "8331": "Coco",
  "8332": "Cheap",
  "8333": "Cari",
  "8334": "Car",
  "8335": "Brownie",
  "8336": "Brad",
  "8337": "Betsy",
  "8338": "Beep",
  "8339": "Brrr",
  "8340": "Boy",
  "8341": "Both",
  "8342": "Bop",
  "8343": "Bless",
  "8344": "Believe",
  "8345": "Back",
  "8346": "Baa",
  "8347": "BCs",
  "8348": "Always",
  "8349": "Alright",
  "8350": "ANT",
  "8351": "Arthur",
  "8352": "Ant",
  "8353": "Amanda",
  "8354": "Aid",
  "8355": "Ah",
  "8356": "Abigail",
  "8357": "Abby",
  "8358": "AILBOX",
  "8359": "?”.",
  "8360": "?!\"",
  "8361": ".''",
  "8362": "'.\"",
  "8363": "\"!",
  "8364": " —",
  "8365": " zebras",
  "8366": " yourselves",
  "8367": " yielding",
  "8368": " yielded",
  "8369": " yelped",
  "8370": " wraps",
  "8371": " wrapper",
  "8372": " worst",
  "8373": " wobbling",
  "8374": " within",
  "8375": " wisest",
  "8376": " winds",
  "8377": " whoever",
  "8378": " whiskers",
  "8379": " whipped",
  "8380": " whine",
  "8381": " whales",
  "8382": " weekends",
  "8383": " weapons",
  "8384": " weaker",
  "8385": " watermelon",
  "8386": " washes",
  "8387": " warrior",
  "8388": " wax",
  "8389": " wanna",
  "8390": " waking",
  "8391": " wadd",
  "8392": " volunteers",
  "8393": " volunteer",
  "8394": " visitors",
  "8395": " villian",
  "8396": " vial",
  "8397": " venture",
  "8398": " vehicles",
  "8399": " veggies",
  "8400": " uses",
  "8401": " unwrap",
  "8402": " untwist",
  "8403": " untie",
  "8404": " unlocks",
  "8405": " unfamiliar",
  "8406": " understands",
  "8407": " underneath",
  "8408": " undo",
  "8409": " unzip",
  "8410": " unscrew",
  "8411": " unless",
  "8412": " unable",
  "8413": " types",
  "8414": " twitched",
  "8415": " tweet",
  "8416": " treated",
  "8417": " treetops",
  "8418": " travelled",
  "8419": " traveler",
  "8420": " transformed",
  "8421": " trampoline",
  "8422": " tongues",
  "8423": " totally",
  "8424": " tiredness",
  "8425": " tips",
  "8426": " tidied",
  "8427": " tickets",
  "8428": " thoughts",
  "8429": " thinner",
  "8430": " throat",
  "8431": " tests",
  "8432": " tents",
  "8433": " temperature",
  "8434": " testing",
  "8435": " tangled",
  "8436": " tummies",
  "8437": " tumbled",
  "8438": " tugging",
  "8439": " tuck",
  "8440": " tippy",
  "8441": " ties",
  "8442": " target",
  "8443": " swimsuits",
  "8444": " sweetly",
  "8445": " sweetest",
  "8446": " sweeping",
  "8447": " swaying",
  "8448": " swat",
  "8449": " surprising",
  "8450": " surface",
  "8451": " suits",
  "8452": " suffering",
  "8453": " successes",
  "8454": " supper",
  "8455": " stroking",
  "8456": " stretches",
  "8457": " strengthen",
  "8458": " strum",
  "8459": " storekeeper",
  "8460": " stormy",
  "8461": " stored",
  "8462": " stomped",
  "8463": " stinging",
  "8464": " stiff",
  "8465": " stethoscope",
  "8466": " squeezing",
  "8467": " squares",
  "8468": " squawked",
  "8469": " sprinkled",
  "8470": " sprinkle",
  "8471": " springs",
  "8472": " sprang",
  "8473": " spoonful",
  "8474": " splasher",
  "8475": " spinach",
  "8476": " spelling",
  "8477": " speeds",
  "8478": " speeding",
  "8479": " sparks",
  "8480": " spaceship",
  "8481": " spades",
  "8482": " solving",
  "8483": " softness",
  "8484": " softest",
  "8485": " soothing",
  "8486": " snowballs",
  "8487": " sniffled",
  "8488": " sniffing",
  "8489": " sneezing",
  "8490": " snoring",
  "8491": " snatches",
  "8492": " snar",
  "8493": " snapping",
  "8494": " smoother",
  "8495": " smartest",
  "8496": " slices",
  "8497": " sleeps",
  "8498": " sleek",
  "8499": " sled",
  "8500": " skirts",
  "8501": " skilled",
  "8502": " sixty",
  "8503": " sincere",
  "8504": " sideways",
  "8505": " shrunk",
  "8506": " shrinking",
  "8507": " shorts",
  "8508": " shoots",
  "8509": " shooter",
  "8510": " sharped",
  "8511": " shaped",
  "8512": " shh",
  "8513": " shame",
  "8514": " sets",
  "8515": " serving",
  "8516": " sensation",
  "8517": " self",
  "8518": " seeker",
  "8519": " secure",
  "8520": " seagulls",
  "8521": " seaweed",
  "8522": " scurrying",
  "8523": " scratching",
  "8524": " scrubbing",
  "8525": " scooping",
  "8526": " scolds",
  "8527": " scares",
  "8528": " scri",
  "8529": " scra",
  "8530": " science",
  "8531": " scenery",
  "8532": " savor",
  "8533": " satisf",
  "8534": " salon",
  "8535": " safekeeping",
  "8536": " suspic",
  "8537": " sizz",
  "8538": " sipping",
  "8539": " ruled",
  "8540": " rubs",
  "8541": " rotten",
  "8542": " roofs",
  "8543": " rolls",
  "8544": " role",
  "8545": " rocked",
  "8546": " robbers",
  "8547": " riverbank",
  "8548": " risky",
  "8549": " ribbit",
  "8550": " results",
  "8551": " restoring",
  "8552": " resumed",
  "8553": " resisted",
  "8554": " replacing",
  "8555": " repairs",
  "8556": " remaining",
  "8557": " remembers",
  "8558": " refreshing",
  "8559": " recipe",
  "8560": " reappeared",
  "8561": " reader",
  "8562": " rewards",
  "8563": " reunited",
  "8564": " renewed",
  "8565": " rely",
  "8566": " rejoiced",
  "8567": " referee",
  "8568": " reason",
  "8569": " rats",
  "8570": " rags",
  "8571": " racer",
  "8572": " ruff",
  "8573": " routines",
  "8574": " rises",
  "8575": " riddle",
  "8576": " quieter",
  "8577": " quacks",
  "8578": " purch",
  "8579": " pupils",
  "8580": " punishment",
  "8581": " protection",
  "8582": " promising",
  "8583": " proved",
  "8584": " proceeded",
  "8585": " princesses",
  "8586": " prices",
  "8587": " prized",
  "8588": " prickly",
  "8589": " prepar",
  "8590": " praying",
  "8591": " postcard",
  "8592": " popsicle",
  "8593": " poster",
  "8594": " pose",
  "8595": " pos",
  "8596": " pollin",
  "8597": " pollen",
  "8598": " plums",
  "8599": " playdate",
  "8600": " planting",
  "8601": " planning",
  "8602": " plunged",
  "8603": " plugged",
  "8604": " platform",
  "8605": " placing",
  "8606": " phrase",
  "8607": " pets",
  "8608": " permitted",
  "8609": " performed",
  "8610": " perhaps",
  "8611": " peels",
  "8612": " pedaling",
  "8613": " peculiar",
  "8614": " peacefully",
  "8615": " peck",
  "8616": " pays",
  "8617": " pawed",
  "8618": " partners",
  "8619": " panicking",
  "8620": " pancakes",
  "8621": " paddled",
  "8622": " paddle",
  "8623": " packing",
  "8624": " puck",
  "8625": " pry",
  "8626": " pouted",
  "8627": " pouch",
  "8628": " poop",
  "8629": " pendant",
  "8630": " pang",
  "8631": " pace",
  "8632": " owns",
  "8633": " overcome",
  "8634": " outsm",
  "8635": " outcome",
  "8636": " orders",
  "8637": " orchard",
  "8638": " onward",
  "8639": " obeyed",
  "8640": " oatmeal",
  "8641": " opposite",
  "8642": " notes",
  "8643": " nightmares",
  "8644": " nights",
  "8645": " nibbled",
  "8646": " nests",
  "8647": " neighbours",
  "8648": " needles",
  "8649": " necklaces",
  "8650": " naps",
  "8651": " napkins",
  "8652": " nu",
  "8653": " mustn",
  "8654": " mugs",
  "8655": " mooed",
  "8656": " mischievously",
  "8657": " misty",
  "8658": " mindful",
  "8659": " microwave",
  "8660": " messages",
  "8661": " mesmerised",
  "8662": " meowing",
  "8663": " meetings",
  "8664": " meals",
  "8665": " mattered",
  "8666": " material",
  "8667": " masterpiece",
  "8668": " marketplace",
  "8669": " magician",
  "8670": " mushy",
  "8671": " mow",
  "8672": " mirac",
  "8673": " loops",
  "8674": " loading",
  "8675": " losing",
  "8676": " losers",
  "8677": " local",
  "8678": " lifts",
  "8679": " lectures",
  "8680": " leaping",
  "8681": " leans",
  "8682": " leaks",
  "8683": " lawyers",
  "8684": " landslide",
  "8685": " labels",
  "8686": " lazily",
  "8687": " length",
  "8688": " larger",
  "8689": " knives",
  "8690": " knit",
  "8691": " kissing",
  "8692": " keyboard",
  "8693": " kings",
  "8694": " justice",
  "8695": " joyful",
  "8696": " joining",
  "8697": " jaws",
  "8698": " ironing",
  "8699": " introduced",
  "8700": " intently",
  "8701": " instrument",
  "8702": " insists",
  "8703": " insects",
  "8704": " inseparable",
  "8705": " inches",
  "8706": " injured",
  "8707": " inched",
  "8708": " imaginations",
  "8709": " humming",
  "8710": " horrible",
  "8711": " horizon",
  "8712": " hooks",
  "8713": " holidays",
  "8714": " hiss",
  "8715": " herbs",
  "8716": " heels",
  "8717": " headache",
  "8718": " heights",
  "8719": " heav",
  "8720": " heater",
  "8721": " harming",
  "8722": " hated",
  "8723": " halves",
  "8724": " hundred",
  "8725": " hour",
  "8726": " hooves",
  "8727": " harness",
  "8728": " guessing",
  "8729": " guardian",
  "8730": " greens",
  "8731": " greater",
  "8732": " greed",
  "8733": " greatest",
  "8734": " granddaughter",
  "8735": " grazing",
  "8736": " gracious",
  "8737": " grumbling",
  "8738": " grumbled",
  "8739": " gradually",
  "8740": " goodness",
  "8741": " glimmer",
  "8742": " glistening",
  "8743": " glided",
  "8744": " giggles",
  "8745": " generously",
  "8746": " gems",
  "8747": " gardening",
  "8748": " garbage",
  "8749": " groom",
  "8750": " gonna",
  "8751": " glee",
  "8752": " funn",
  "8753": " fulfilled",
  "8754": " frowns",
  "8755": " freedom",
  "8756": " forgives",
  "8757": " footsteps",
  "8758": " focused",
  "8759": " fluttering",
  "8760": " fluttered",
  "8761": " fleas",
  "8762": " flashlights",
  "8763": " flaps",
  "8764": " flu",
  "8765": " flipping",
  "8766": " flippers",
  "8767": " flipped",
  "8768": " flick",
  "8769": " flas",
  "8770": " fires",
  "8771": " filth",
  "8772": " feast",
  "8773": " fasten",
  "8774": " farmers",
  "8775": " fairness",
  "8776": " facts",
  "8777": " failed",
  "8778": " fail",
  "8779": " fried",
  "8780": " fantastic",
  "8781": " fading",
  "8782": " fade",
  "8783": " explorers",
  "8784": " exploration",
  "8785": " explains",
  "8786": " expert",
  "8787": " exercising",
  "8788": " examining",
  "8789": " exch",
  "8790": " except",
  "8791": " entering",
  "8792": " enjoys",
  "8793": " encourag",
  "8794": " encountered",
  "8795": " enclosure",
  "8796": " enemies",
  "8797": " embraced",
  "8798": " elbows",
  "8799": " earrings",
  "8800": " eagerness",
  "8801": " echo",
  "8802": " earned",
  "8803": " dustpan",
  "8804": " dressing",
  "8805": " drawn",
  "8806": " drains",
  "8807": " drown",
  "8808": " dots",
  "8809": " doorway",
  "8810": " doorbell",
  "8811": " dollars",
  "8812": " documents",
  "8813": " disappointment",
  "8814": " direction",
  "8815": " dinners",
  "8816": " divided",
  "8817": " deserved",
  "8818": " descri",
  "8819": " demands",
  "8820": " demonstrated",
  "8821": " delayed",
  "8822": " delivery",
  "8823": " devastated",
  "8824": " deeds",
  "8825": " debris",
  "8826": " deb",
  "8827": " daydream",
  "8828": " darted",
  "8829": " dancers",
  "8830": " daisies",
  "8831": " du",
  "8832": " dip",
  "8833": " dart",
  "8834": " darlings",
  "8835": " damp",
  "8836": " current",
  "8837": " croak",
  "8838": " creamy",
  "8839": " creams",
  "8840": " crew",
  "8841": " creations",
  "8842": " creaked",
  "8843": " creak",
  "8844": " cracks",
  "8845": " crumpled",
  "8846": " cruel",
  "8847": " cowboy",
  "8848": " countryside",
  "8849": " couple",
  "8850": " costly",
  "8851": " correctly",
  "8852": " cords",
  "8853": " cooperate",
  "8854": " convincing",
  "8855": " contentment",
  "8856": " contents",
  "8857": " congratulations",
  "8858": " congratulated",
  "8859": " concern",
  "8860": " consider",
  "8861": " conquered",
  "8862": " completing",
  "8863": " complicated",
  "8864": " compared",
  "8865": " commotion",
  "8866": " command",
  "8867": " combined",
  "8868": " compromise",
  "8869": " common",
  "8870": " collapsed",
  "8871": " colder",
  "8872": " cobwebs",
  "8873": " cosy",
  "8874": " cloths",
  "8875": " cleans",
  "8876": " cleared",
  "8877": " classes",
  "8878": " clack",
  "8879": " circled",
  "8880": " cherished",
  "8881": " checking",
  "8882": " cheers",
  "8883": " chalks",
  "8884": " chains",
  "8885": " chip",
  "8886": " chilly",
  "8887": " chattered",
  "8888": " chatted",
  "8889": " charity",
  "8890": " carpenter",
  "8891": " cares",
  "8892": " cardinal",
  "8893": " carries",
  "8894": " capture",
  "8895": " cans",
  "8896": " canary",
  "8897": " campfire",
  "8898": " calming",
  "8899": " cautiously",
  "8900": " caused",
  "8901": " customer",
  "8902": " coughed",
  "8903": " cotton",
  "8904": " cottage",
  "8905": " cinema",
  "8906": " buying",
  "8907": " business",
  "8908": " burnt",
  "8909": " buggy",
  "8910": " buckles",
  "8911": " bubbly",
  "8912": " budge",
  "8913": " brushing",
  "8914": " breaths",
  "8915": " bride",
  "8916": " bowing",
  "8917": " bond",
  "8918": " boast",
  "8919": " blinks",
  "8920": " blushed",
  "8921": " blinking",
  "8922": " blade",
  "8923": " bits",
  "8924": " bills",
  "8925": " bicycles",
  "8926": " bending",
  "8927": " benches",
  "8928": " belts",
  "8929": " belongings",
  "8930": " bells",
  "8931": " behavior",
  "8932": " beeped",
  "8933": " beautifully",
  "8934": " beating",
  "8935": " beam",
  "8936": " beads",
  "8937": " battle",
  "8938": " bathed",
  "8939": " barrels",
  "8940": " bars",
  "8941": " banging",
  "8942": " ballet",
  "8943": " backpacks",
  "8944": " backgrounds",
  "8945": " baa",
  "8946": " bank",
  "8947": " aware",
  "8948": " attaching",
  "8949": " atmosphere",
  "8950": " astronaut",
  "8951": " argument",
  "8952": " aprons",
  "8953": " appreciation",
  "8954": " appl",
  "8955": " appetite",
  "8956": " anytime",
  "8957": " anticipation",
  "8958": " ankle",
  "8959": " anger",
  "8960": " among",
  "8961": " allowing",
  "8962": " allergic",
  "8963": " although",
  "8964": " affect",
  "8965": " admiration",
  "8966": " address",
  "8967": " addition",
  "8968": " adult",
  "8969": " active",
  "8970": " action",
  "8971": " ability",
  "8972": " award",
  "8973": " ais",
  "8974": " Zog",
  "8975": " Yuck",
  "8976": " World",
  "8977": " Wolf",
  "8978": " Whoever",
  "8979": " WE",
  "8980": " WANT",
  "8981": " Until",
  "8982": " Tuesdays",
  "8983": " Tomato",
  "8984": " Time",
  "8985": " Think",
  "8986": " Turkey",
  "8987": " Trust",
  "8988": " Trucky",
  "8989": " Too",
  "8990": " Tiger",
  "8991": " Tape",
  "8992": " TO",
  "8993": " THAT",
  "8994": " Store",
  "8995": " Steven",
  "8996": " Sneaky",
  "8997": " Smoke",
  "8998": " Should",
  "8999": " Shall",
  "9000": " Samantha",
  "9001": " Sweet",
  "9002": " Susan",
  "9003": " Sure",
  "9004": " Soup",
  "9005": " Sit",
  "9006": " Sean",
  "9007": " Save",
  "9008": " Sausages",
  "9009": " Run",
  "9010": " Riding",
  "9011": " Ready",
  "9012": " Reading",
  "9013": " Playing",
  "9014": " Pretty",
  "9015": " Poula",
  "9016": " Pinching",
  "9017": " Pilot",
  "9018": " Paper",
  "9019": " Own",
  "9020": " Other",
  "9021": " Olive",
  "9022": " Oh",
  "9023": " Musician",
  "9024": " Mei",
  "9025": " More",
  "9026": " Mine",
  "9027": " Melon",
  "9028": " Man",
  "9029": " Making",
  "9030": " Make",
  "9031": " MAILBOX",
  "9032": " Life",
  "9033": " Joshua",
  "9034": " Jump",
  "9035": " Judge",
  "9036": " Jordan",
  "9037": " Instantly",
  "9038": " Ice",
  "9039": " Hooray",
  "9040": " Hiding",
  "9041": " Hand",
  "9042": " Ha",
  "9043": " Giving",
  "9044": " Friendship",
  "9045": " Forgiving",
  "9046": " Freeze",
  "9047": " Forever",
  "9048": " Farmer",
  "9049": " Eating",
  "9050": " EAT",
  "9051": " Davey",
  "9052": " Dusty",
  "9053": " DO",
  "9054": " Climbing",
  "9055": " Clear",
  "9056": " Cars",
  "9057": " Crocodile",
  "9058": " Crayons",
  "9059": " Chef",
  "9060": " Cauli",
  "9061": " Carefully",
  "9062": " Blob",
  "9063": " Black",
  "9064": " Bull",
  "9065": " Bulb",
  "9066": " Broccoli",
  "9067": " Boy",
  "9068": " Books",
  "9069": " Believe",
  "9070": " Barney",
  "9071": " Ball",
  "9072": " Another",
  "9073": " Animals",
  "9074": " Acorns",
  "9075": " Automobiles",
  "9076": " Aunt",
  "9077": " Amanda",
  "9078": " Alya",
  "9079": " Accidents",
  "9080": " ABCs",
  "9081": " 10",
  "9082": " --",
  "9083": " ouches",
  "9084": " ill",
  "9085": " 9",
  "9086": " 4",
  "9087": "”,",
  "9088": "…",
  "9089": "…”",
  "9090": "zzles",
  "9091": "ziest",
  "9092": "zier",
  "9093": "ythag",
  "9094": "ythagor",
  "9095": "ythagoras",
  "9096": "ymen",
  "9097": "yme",
  "9098": "yers",
  "9099": "xture",
  "9100": "xed",
  "9101": "wells",
  "9102": "weetheart",
  "9103": "wy",
  "9104": "wise",
  "9105": "wing",
  "9106": "welcome",
  "9107": "vrooms",
  "9108": "versation",
  "9109": "verty",
  "9110": "vert",
  "9111": "vertising",
  "9112": "vering",
  "9113": "vented",
  "9114": "vels",
  "9115": "vell",
  "9116": "vellous",
  "9117": "vy",
  "9118": "vix",
  "9119": "vity",
  "9120": "vities",
  "9121": "vince",
  "9122": "vas",
  "9123": "vary",
  "9124": "vacy",
  "9125": "vable",
  "9126": "utching",
  "9127": "utron",
  "9128": "uted",
  "9129": "utched",
  "9130": "utation",
  "9131": "ustling",
  "9132": "usks",
  "9133": "uses",
  "9134": "urthermore",
  "9135": "urprised",
  "9136": "urnament",
  "9137": "uriosity",
  "9138": "uredly",
  "9139": "urs",
  "9140": "urking",
  "9141": "urity",
  "9142": "urf",
  "9143": "urfing",
  "9144": "urance",
  "9145": "urable",
  "9146": "uped",
  "9147": "unting",
  "9148": "until",
  "9149": "unted",
  "9150": "unned",
  "9151": "unken",
  "9152": "unicate",
  "9153": "unge",
  "9154": "unches",
  "9155": "unate",
  "9156": "umph",
  "9157": "umphant",
  "9158": "umbles",
  "9159": "umbers",
  "9160": "uliflower",
  "9161": "ulfed",
  "9162": "ulva",
  "9163": "ulpr",
  "9164": "ulprit",
  "9165": "ulks",
  "9166": "ulip",
  "9167": "ulge",
  "9168": "ulation",
  "9169": "ula",
  "9170": "uge",
  "9171": "uffs",
  "9172": "uffle",
  "9173": "uddies",
  "9174": "uding",
  "9175": "udges",
  "9176": "uder",
  "9177": "ucts",
  "9178": "ucumber",
  "9179": "ucted",
  "9180": "uclid",
  "9181": "ucle",
  "9182": "ucleus",
  "9183": "uise",
  "9184": "uis",
  "9185": "uisher",
  "9186": "uing",
  "9187": "uild",
  "9188": "turned",
  "9189": "tinguisher",
  "9190": "themed",
  "9191": "that",
  "9192": "terus",
  "9193": "ters",
  "9194": "terrup",
  "9195": "terrupted",
  "9196": "tern",
  "9197": "terns",
  "9198": "tter",
  "9199": "toys",
  "9200": "touch",
  "9201": "tled",
  "9202": "there",
  "9203": "tell",
  "9204": "telling",
  "9205": "tear",
  "9206": "taker",
  "9207": "take",
  "9208": "table",
  "9209": "stupid",
  "9210": "storm",
  "9211": "stones",
  "9212": "stir",
  "9213": "stinctively",
  "9214": "stick",
  "9215": "stein",
  "9216": "stand",
  "9217": "stands",
  "9218": "staking",
  "9219": "stakingly",
  "9220": "staff",
  "9221": "stac",
  "9222": "stacle",
  "9223": "ssomed",
  "9224": "spapers",
  "9225": "space",
  "9226": "shadowing",
  "9227": "shadowed",
  "9228": "shm",
  "9229": "shmallow",
  "9230": "shmallows",
  "9231": "shar",
  "9232": "sharp",
  "9233": "shake",
  "9234": "sently",
  "9235": "sey",
  "9236": "severed",
  "9237": "sear",
  "9238": "search",
  "9239": "surprise",
  "9240": "suring",
  "9241": "sue",
  "9242": "ssey",
  "9243": "spect",
  "9244": "sour",
  "9245": "sorry",
  "9246": "sled",
  "9247": "slap",
  "9248": "sk",
  "9249": "skating",
  "9250": "she",
  "9251": "sery",
  "9252": "sence",
  "9253": "sen",
  "9254": "sary",
  "9255": "sa",
  "9256": "sao",
  "9257": "saoged",
  "9258": "rrrrrr",
  "9259": "rotum",
  "9260": "romos",
  "9261": "romosome",
  "9262": "roduce",
  "9263": "roll",
  "9264": "roj",
  "9265": "rojan",
  "9266": "rmchair",
  "9267": "riendly",
  "9268": "rious",
  "9269": "rients",
  "9270": "rib",
  "9271": "ribute",
  "9272": "reth",
  "9273": "rethra",
  "9274": "rete",
  "9275": "ressions",
  "9276": "reetings",
  "9277": "reeny",
  "9278": "reams",
  "9279": "respect",
  "9280": "resently",
  "9281": "request",
  "9282": "rem",
  "9283": "remely",
  "9284": "reated",
  "9285": "rays",
  "9286": "rapher",
  "9287": "ragr",
  "9288": "ragrant",
  "9289": "racts",
  "9290": "rapt",
  "9291": "raptions",
  "9292": "rapped",
  "9293": "rain",
  "9294": "rac",
  "9295": "racted",
  "9296": "rustrated",
  "9297": "ruction",
  "9298": "ror",
  "9299": "rop",
  "9300": "ront",
  "9301": "rimp",
  "9302": "rime",
  "9303": "rid",
  "9304": "ridor",
  "9305": "rates",
  "9306": "rate",
  "9307": "ratefully",
  "9308": "rane",
  "9309": "quired",
  "9310": "quins",
  "9311": "puter",
  "9312": "ptop",
  "9313": "pting",
  "9314": "ptic",
  "9315": "ptical",
  "9316": "prints",
  "9317": "prinkle",
  "9318": "ppling",
  "9319": "pples",
  "9320": "powers",
  "9321": "plexed",
  "9322": "pleased",
  "9323": "pling",
  "9324": "pler",
  "9325": "phones",
  "9326": "perately",
  "9327": "perated",
  "9328": "pecting",
  "9329": "passed",
  "9330": "paired",
  "9331": "pop",
  "9332": "pitched",
  "9333": "pins",
  "9334": "phew",
  "9335": "ped",
  "9336": "pair",
  "9337": "owled",
  "9338": "owy",
  "9339": "owwy",
  "9340": "owsed",
  "9341": "ousins",
  "9342": "ousand",
  "9343": "ounded",
  "9344": "oulding",
  "9345": "ouching",
  "9346": "ouraged",
  "9347": "ourage",
  "9348": "ouched",
  "9349": "otle",
  "9350": "ostate",
  "9351": "orts",
  "9352": "orth",
  "9353": "orseful",
  "9354": "ormation",
  "9355": "orgeous",
  "9356": "oreshadowing",
  "9357": "ordinary",
  "9358": "orking",
  "9359": "oris",
  "9360": "orious",
  "9361": "original",
  "9362": "orget",
  "9363": "orgettable",
  "9364": "organ",
  "9365": "organized",
  "9366": "orched",
  "9367": "opted",
  "9368": "ootball",
  "9369": "ooped",
  "9370": "oons",
  "9371": "oomiest",
  "9372": "ooky",
  "9373": "oofy",
  "9374": "oodling",
  "9375": "oodles",
  "9376": "oodle",
  "9377": "oozy",
  "9378": "oozing",
  "9379": "oooo",
  "9380": "ooking",
  "9381": "ooked",
  "9382": "onus",
  "9383": "onon",
  "9384": "onished",
  "9385": "onies",
  "9386": "ompet",
  "9387": "ompetition",
  "9388": "omets",
  "9389": "olding",
  "9390": "olded",
  "9391": "olite",
  "9392": "olicking",
  "9393": "ogress",
  "9394": "ographer",
  "9395": "oggy",
  "9396": "oga",
  "9397": "ox",
  "9398": "over",
  "9399": "ossomed",
  "9400": "ohed",
  "9401": "off",
  "9402": "oem",
  "9403": "oems",
  "9404": "oard",
  "9405": "nytime",
  "9406": "ntroduce",
  "9407": "nicus",
  "9408": "ngel",
  "9409": "nessed",
  "9410": "nels",
  "9411": "nders",
  "9412": "ndition",
  "9413": "ncouraged",
  "9414": "nae",
  "9415": "normal",
  "9416": "niz",
  "9417": "nings",
  "9418": "nied",
  "9419": "next",
  "9420": "nec",
  "9421": "necked",
  "9422": "mony",
  "9423": "mingly",
  "9424": "mention",
  "9425": "meow",
  "9426": "maids",
  "9427": "munk",
  "9428": "moving",
  "9429": "mmediately",
  "9430": "mine",
  "9431": "mery",
  "9432": "mart",
  "9433": "mag",
  "9434": "magine",
  "9435": "lying",
  "9436": "lowing",
  "9437": "longer",
  "9438": "llent",
  "9439": "lessly",
  "9440": "lendid",
  "9441": "lest",
  "9442": "leen",
  "9443": "lech",
  "9444": "leasing",
  "9445": "lands",
  "9446": "lving",
  "9447": "lts",
  "9448": "lster",
  "9449": "lor",
  "9450": "loin",
  "9451": "lob",
  "9452": "limits",
  "9453": "like",
  "9454": "life",
  "9455": "lers",
  "9456": "len",
  "9457": "keys",
  "9458": "kipping",
  "9459": "jesty",
  "9460": "jestic",
  "9461": "jelly",
  "9462": "jar",
  "9463": "izziness",
  "9464": "izzed",
  "9465": "iversary",
  "9466": "ivore",
  "9467": "ivid",
  "9468": "ivate",
  "9469": "itts",
  "9470": "itties",
  "9471": "itte",
  "9472": "ithered",
  "9473": "itedly",
  "9474": "itcase",
  "9475": "itoris",
  "9476": "itnessed",
  "9477": "itive",
  "9478": "itic",
  "9479": "itician",
  "9480": "iticians",
  "9481": "itated",
  "9482": "istotle",
  "9483": "isputed",
  "9484": "ishments",
  "9485": "isey",
  "9486": "ism",
  "9487": "isible",
  "9488": "isen",
  "9489": "irruped",
  "9490": "irritated",
  "9491": "irted",
  "9492": "irls",
  "9493": "irling",
  "9494": "ircles",
  "9495": "inkly",
  "9496": "inkets",
  "9497": "inker",
  "9498": "ingly",
  "9499": "ingling",
  "9500": "ingled",
  "9501": "inging",
  "9502": "inger",
  "9503": "ingerly",
  "9504": "inged",
  "9505": "indulge",
  "9506": "indness",
  "9507": "indered",
  "9508": "incts",
  "9509": "instein",
  "9510": "innied",
  "9511": "initely",
  "9512": "increase",
  "9513": "incl",
  "9514": "include",
  "9515": "impering",
  "9516": "imped",
  "9517": "imedes",
  "9518": "ims",
  "9519": "immon",
  "9520": "immery",
  "9521": "iment",
  "9522": "imens",
  "9523": "imension",
  "9524": "imb",
  "9525": "ilts",
  "9526": "illed",
  "9527": "illary",
  "9528": "ileo",
  "9529": "ilst",
  "9530": "ili",
  "9531": "iliad",
  "9532": "ightning",
  "9533": "ightly",
  "9534": "ighting",
  "9535": "iggles",
  "9536": "ighing",
  "9537": "igger",
  "9538": "igers",
  "9539": "igeon",
  "9540": "igeons",
  "9541": "ifted",
  "9542": "ificate",
  "9543": "idded",
  "9544": "idance",
  "9545": "ication",
  "9546": "ically",
  "9547": "ibniz",
  "9548": "ibly",
  "9549": "ixture",
  "9550": "ius",
  "9551": "iara",
  "9552": "iance",
  "9553": "herer",
  "9554": "hers",
  "9555": "heets",
  "9556": "haved",
  "9557": "hunting",
  "9558": "hopped",
  "9559": "harsh",
  "9560": "hadow",
  "9561": "gnore",
  "9562": "ggings",
  "9563": "gging",
  "9564": "getting",
  "9565": "genc",
  "9566": "gencies",
  "9567": "gedy",
  "9568": "gesting",
  "9569": "gem",
  "9570": "good",
  "9571": "give",
  "9572": "gas",
  "9573": "gar",
  "9574": "gage",
  "9575": "frained",
  "9576": "fortune",
  "9577": "fortunate",
  "9578": "ferend",
  "9579": "fact",
  "9580": "faction",
  "9581": "full",
  "9582": "friendly",
  "9583": "free",
  "9584": "fly",
  "9585": "flowing",
  "9586": "five",
  "9587": "fired",
  "9588": "filled",
  "9589": "field",
  "9590": "fet",
  "9591": "fetime",
  "9592": "far",
  "9593": "fall",
  "9594": "ewspapers",
  "9595": "etchup",
  "9596": "etwork",
  "9597": "etched",
  "9598": "etah",
  "9599": "etahs",
  "9600": "estured",
  "9601": "ests",
  "9602": "estine",
  "9603": "espect",
  "9604": "esides",
  "9605": "ertificate",
  "9606": "erms",
  "9607": "erfume",
  "9608": "erfect",
  "9609": "ervix",
  "9610": "erves",
  "9611": "ernicus",
  "9612": "ernels",
  "9613": "ermaids",
  "9614": "erk",
  "9615": "erie",
  "9616": "ergency",
  "9617": "eped",
  "9618": "epe",
  "9619": "epeat",
  "9620": "entionally",
  "9621": "entre",
  "9622": "ender",
  "9623": "ended",
  "9624": "ennae",
  "9625": "ening",
  "9626": "emories",
  "9627": "emergency",
  "9628": "emain",
  "9629": "ellishments",
  "9630": "elaxing",
  "9631": "elve",
  "9632": "eluctantly",
  "9633": "eling",
  "9634": "elids",
  "9635": "elace",
  "9636": "effect",
  "9637": "effects",
  "9638": "eeking",
  "9639": "edly",
  "9640": "edication",
  "9641": "ection",
  "9642": "eched",
  "9643": "ecc",
  "9644": "ecca",
  "9645": "ebecca",
  "9646": "ezed",
  "9647": "eves",
  "9648": "either",
  "9649": "eft",
  "9650": "eeling",
  "9651": "ech",
  "9652": "earned",
  "9653": "dyssey",
  "9654": "dders",
  "9655": "ducts",
  "9656": "down",
  "9657": "dest",
  "9658": "dates",
  "9659": "cuts",
  "9660": "ctors",
  "9661": "ctum",
  "9662": "ctron",
  "9663": "ctions",
  "9664": "creas",
  "9665": "computer",
  "9666": "compassed",
  "9667": "coming",
  "9668": "comb",
  "9669": "cover",
  "9670": "cold",
  "9671": "coat",
  "9672": "clouds",
  "9673": "cluded",
  "9674": "clap",
  "9675": "cky",
  "9676": "cks",
  "9677": "ckled",
  "9678": "chanted",
  "9679": "chug",
  "9680": "chimedes",
  "9681": "children",
  "9682": "chairs",
  "9683": "cessories",
  "9684": "centrated",
  "9685": "cellent",
  "9686": "cule",
  "9687": "cuffs",
  "9688": "crime",
  "9689": "crete",
  "9690": "cred",
  "9691": "coon",
  "9692": "cited",
  "9693": "cissors",
  "9694": "cier",
  "9695": "chers",
  "9696": "cat",
  "9697": "car",
  "9698": "came",
  "9699": "bring",
  "9700": "bridge",
  "9701": "boat",
  "9702": "behaved",
  "9703": "beam",
  "9704": "balls",
  "9705": "build",
  "9706": "bsolutely",
  "9707": "bly",
  "9708": "bish",
  "9709": "bber",
  "9710": "bat",
  "9711": "bathe",
  "9712": "azzling",
  "9713": "azy",
  "9714": "aze",
  "9715": "axe",
  "9716": "awyers",
  "9717": "awing",
  "9718": "autiously",
  "9719": "autiful",
  "9720": "atters",
  "9721": "attering",
  "9722": "attractive",
  "9723": "attended",
  "9724": "attach",
  "9725": "aturedly",
  "9726": "ators",
  "9727": "atitude",
  "9728": "atherer",
  "9729": "athed",
  "9730": "astly",
  "9731": "asting",
  "9732": "asta",
  "9733": "asured",
  "9734": "asant",
  "9735": "arts",
  "9736": "artled",
  "9737": "artes",
  "9738": "artbroken",
  "9739": "arning",
  "9740": "arewells",
  "9741": "areful",
  "9742": "ardless",
  "9743": "arted",
  "9744": "appiness",
  "9745": "aple",
  "9746": "antum",
  "9747": "ants",
  "9748": "antically",
  "9749": "anky",
  "9750": "anks",
  "9751": "angrier",
  "9752": "angles",
  "9753": "andles",
  "9754": "ances",
  "9755": "anterns",
  "9756": "anner",
  "9757": "anion",
  "9758": "anced",
  "9759": "ampion",
  "9760": "ampered",
  "9761": "ambling",
  "9762": "ammer",
  "9763": "amine",
  "9764": "alleys",
  "9765": "allowed",
  "9766": "allic",
  "9767": "alks",
  "9768": "aly",
  "9769": "alth",
  "9770": "alizing",
  "9771": "ality",
  "9772": "alities",
  "9773": "alileo",
  "9774": "akers",
  "9775": "aint",
  "9776": "ageways",
  "9777": "ague",
  "9778": "agina",
  "9779": "ager",
  "9780": "adness",
  "9781": "adling",
  "9782": "adled",
  "9783": "ackle",
  "9784": "aces",
  "9785": "acon",
  "9786": "acles",
  "9787": "abby",
  "9788": "abbed",
  "9789": "away",
  "9790": "auliflower",
  "9791": "auge",
  "9792": "aos",
  "9793": "ajesty",
  "9794": "aive",
  "9795": "aisey",
  "9796": "ahed",
  "9797": "afe",
  "9798": "Zips",
  "9799": "Zigzag",
  "9800": "Ziggy",
  "9801": "Yoga",
  "9802": "Yesterday",
  "9803": "Years",
  "9804": "Yawn",
  "9805": "Without",
  "9806": "Wee",
  "9807": "Working",
  "9808": "Wild",
  "9809": "Whew",
  "9810": "Wet",
  "9811": "Wednesday",
  "9812": "Wear",
  "9813": "Wally",
  "9814": "WHAT",
  "9815": "WA",
  "9816": "WAR",
  "9817": "WARN",
  "9818": "WARNING",
  "9819": "Valleys",
  "9820": "Up",
  "9821": "Todd",
  "9822": "Theater",
  "9823": "TheE",
  "9824": "TheEnd",
  "9825": "Thomas",
  "9826": "THY",
  "9827": "Twinkle",
  "9828": "Turtle",
  "9829": "Tuna",
  "9830": "Trucky",
  "9831": "Tree",
  "9832": "Toy",
  "9833": "Tippy",
  "9834": "Things",
  "9835": "Taking",
  "9836": "Table",
  "9837": "Sunshine",
  "9838": "Suzy",
  "9839": "Suzie",
  "9840": "Stupid",
  "9841": "Stretching",
  "9842": "Store",
  "9843": "Stitch",
  "9844": "Stir",
  "9845": "Still",
  "9846": "Steven",
  "9847": "Stella",
  "9848": "Stealing",
  "9849": "Startled",
  "9850": "Stand",
  "9851": "Staff",
  "9852": "Squeeze",
  "9853": "Squeaky",
  "9854": "Spark",
  "9855": "Someone",
  "9856": "Soft",
  "9857": "Snowy",
  "9858": "Snake",
  "9859": "Shrink",
  "9860": "Shrimp",
  "9861": "Show",
  "9862": "Shoo",
  "9863": "Shiny",
  "9864": "Shhh",
  "9865": "Share",
  "9866": "Shall",
  "9867": "Sweetheart",
  "9868": "Surrender",
  "9869": "Surprised",
  "9870": "Sprinkle",
  "9871": "Spring",
  "9872": "Soy",
  "9873": "Sowwy",
  "9874": "Soup",
  "9875": "Smart",
  "9876": "Slap",
  "9877": "Size",
  "9878": "Six",
  "9879": "Since",
  "9880": "Sienna",
  "9881": "Serve",
  "9882": "Send",
  "9883": "SC",
  "9884": "SCRE",
  "9885": "SCREE",
  "9886": "SCREEC",
  "9887": "SCREECH",
  "9888": "Robby",
  "9889": "Roll",
  "9890": "Realizing",
  "9891": "Rrrrrrr",
  "9892": "Rise",
  "9893": "Right",
  "9894": "Ria",
  "9895": "Rhythm",
  "9896": "Remain",
  "9897": "Relax",
  "9898": "Red",
  "9899": "Ray",
  "9900": "Quickly",
  "9901": "Prince",
  "9902": "Popcorn",
  "9903": "People",
  "9904": "Promise",
  "9905": "Pretty",
  "9906": "Presently",
  "9907": "Pigeons",
  "9908": "Piano",
  "9909": "Perfect",
  "9910": "Percy",
  "9911": "Paws",
  "9912": "Patch",
  "9913": "Park",
  "9914": "Paper",
  "9915": "Papa",
  "9916": "PO",
  "9917": "POP",
  "9918": "Ohhh",
  "9919": "OKI",
  "9920": "OKIE",
  "9921": "OKIES",
  "9922": "Oysters",
  "9923": "Other",
  "9924": "Ooh",
  "9925": "OU",
  "9926": "OOKIES",
  "9927": "Nearby",
  "9928": "Nutty",
  "9929": "Nobody",
  "9930": "Nine",
  "9931": "Nice",
  "9932": "Newspapers",
  "9933": "Never",
  "9934": "Navy",
  "9935": "NO",
  "9936": "ND",
  "9937": "NA",
  "9938": "Morals",
  "9939": "Missile",
  "9940": "Marriage",
  "9941": "Mouse",
  "9942": "Mother",
  "9943": "Moppy",
  "9944": "Mo",
  "9945": "Mix",
  "9946": "Mind",
  "9947": "Mina",
  "9948": "Math",
  "9949": "Match",
  "9950": "Marry",
  "9951": "Mail",
  "9952": "Lilah",
  "9953": "Lets",
  "9954": "Lung",
  "9955": "Luke",
  "9956": "Looking",
  "9957": "Longhead",
  "9958": "Lion",
  "9959": "Linda",
  "9960": "Liam",
  "9961": "Lenny",
  "9962": "Left",
  "9963": "Lawyers",
  "9964": "Late",
  "9965": "LTHY",
  "9966": "Keith",
  "9967": "Kiss",
  "9968": "King",
  "9969": "Kick",
  "9970": "Katelyn",
  "9971": "Kanga",
  "9972": "Jumping",
  "9973": "Jojo",
  "9974": "Jessica",
  "9975": "Jumpy",
  "9976": "Js",
  "9977": "Join",
  "9978": "Jilly",
  "9979": "Jamie",
  "9980": "Its",
  "9981": "Isn",
  "9982": "Instinctively",
  "9983": "Increase",
  "9984": "Introduce",
  "9985": "Immediately",
  "9986": "Ice",
  "9987": "ITH",
  "9988": "Hopper",
  "9989": "Hairy",
  "9990": "Haircut",
  "9991": "Haha",
  "9992": "Hurry",
  "9993": "Hoppy",
  "9994": "Hmm",
  "9995": "Hide",
  "9996": "Henry",
  "9997": "Hatty",
  "9998": "Harsh",
  "9999": "Hannah"
}